#version: 0.2
t h
th e</w>
i n
a n
t i
r e
e r
e n
o n
a r
o n</w>
e d</w>
o r
r o
i n</w>
o f</w>
i s
e r</w>
in g</w>
t o</w>
o u
o s
an d</w>
e s</w>
i t
o t
a n</w>
a l
a ti
q u
a l</w>
e c
a t
s t
qu ot
i l
quot ;</w>
& quot;</w>
o r</w>
i s</w>
a c
i c
a p
o m
u r
o v
a s</w>
a t</w>
en t</w>
e l
r i
e s
a s
o l
a d
e m
ap os
& apos
f or</w>
s i
&apos ;
p ro
i a</w>
&apos; s</w>
u n
@ -
@- @</w>
t s</w>
th at</w>
i c</w>
v e</w>
s a
o p
ati on</w>
t r
e n</w>
w h
a g
u l
i ti
c on
u s
ou n
i m
e v
re s
e d
a m
l y</w>
c e</w>
i d</w>
a y</w>
th e
p l
w it
i t</w>
t er
wit h</w>
n e
on s</w>
h a
b l
c om
i g
s u
b y</w>
p e
t er</w>
f or
il l</w>
b e
sa id</w>
w ill</w>
a r</w>
o w
S er
c h
d e
i an</w>
l e
p ar
m ent</w>
it y</w>
o c
p or
e x
b e</w>
u ro
ar e</w>
s h
ti on</w>
l d</w>
c oun
er s</w>
n o
l i
t ed</w>
Ser b
f f
t h</w>
i r
at e</w>
& #
&# 9
g r
d ay</w>
b u
in is
h as</w>
h e</w>
m e</w>
f ro
K os
ha ve</w>
fro m</w>
ou ld</w>
er e</w>
on al</w>
i d
u c
E U</w>
p ol
E uro
em b
w as</w>
l a
ov o</w>
d ing</w>
as t</w>
a k
ar y</w>
Kos ovo</w>
no t</w>
y e
e t
- -</w>
g ov
it s</w>
0 0
tr y</w>
k e
a b
d i
th er</w>
t w
ou r
s o</w>
er n
t y</w>
c i
T ur
th is</w>
i r</w>
t ri
t e
a in
m e
en t
p os
si d
re n
d s</w>
inis ter</w>
s t</w>
re c
c l
Serb ia</w>
ati ons</w>
p ec
t ur
ac c
ou t</w>
st r
Euro pe
p u
t en
Europe an</w>
ff ic
ad e</w>
gov ern
A l
b an
ati onal</w>
on e</w>
es s</w>
em ent</w>
s e
re d</w>
k s</w>
for m
l e</w>
r a
al l</w>
T im
p er
Tim es</w>
i on</w>
u g
p res
s ec
w or
coun try</w>
ic h</w>
p re
al so</w>
wh ich</w>
M inister</w>
govern ment</w>
d er</w>
c h</w>
w e</w>
en ts</w>
1 ;</w>
&#9 1;</w>
3 ;</w>
&#9 3;</w>
d is
com m
t o
en ce</w>
an s</w>
bl e</w>
re g
C ro
the ir</w>
bu t</w>
r u
ig h
r is
ke y</w>
s ti
M ac
ed on
si on</w>
h is</w>
e st
Mac edon
p ri
2 00
u m
a f
M on
an y</w>
emb er</w>
n ational</w>
Cro ati
t u
at ed</w>
l o
the y</w>
m on
por t</w>
w ould</w>
ne w</w>
ti ons</w>
Al ban
ye ar</w>
an d
c ri
es t</w>
an ce</w>
ol d</w>
or e</w>
u p</w>
in ter
h e
o ther</w>
a d</w>
g o
be en</w>
iti es</w>
v is
m is
pol iti
ou r</w>
in a</w>
G re
v i
Tur key</w>
en d
u d
o ffic
t ing</w>
iti on</w>
a y
tw o</w>
al ly</w>
o g
R om
as s
ag re
d ec
g ar
c al</w>
an t</w>
f ir
B i
al l
tri es</w>
u e</w>
w ere</w>
ic e</w>
in v
i al</w>
on g</w>
m ore</w>
al s</w>
el ec
on om
op er
ar g
Bi H</w>
in g
il e</w>
e p
a in</w>
om e</w>
is h</w>
os t</w>
a v
R e
ov ic</w>
f in
B ul
coun tries</w>
sid ent</w>
pro v
Bul gar
ig n</w>
ec onom
o re
i v
af ter</w>
ter s</w>
wh o</w>
I n
con t
pu bl
e k</w>
f e
S ou
B el
ou s</w>
i es</w>
m in
er al</w>
c re
c es</w>
Rom an
e t</w>
an n
a j
Serb ian</w>
t al
at es</w>
us t</w>
ar s</w>
a u
gr ade</w>
or g
ac e</w>
u s</w>
Macedon ia</w>
an g
sh i
the ast</w>
par ti
es s
ov er</w>
en ti
S t
w e
Bel grade</w>
a ble</w>
tur e</w>
j o
b ec
si g
su p
1 9
politi cal</w>
sti tu
ag e</w>
t or
c o</w>
Sou theast</w>
acc or
B os
P ri
sa y
o d
s k
h i
S E
re s</w>
ur ing</w>
es ti
re e</w>
th ere</w>
ab out</w>
es day</w>
g ro
le ad
Bos n
ow n</w>
an is
j ec
s er
Croati a</w>
ak e</w>
e uro
re m
op le</w>
ore ign</w>
e gr
el y</w>
wh ile</w>
in cl
al is
en c
os e</w>
e f
P re
accor ding</w>
P ar
t old</w>
b er</w>
Mon ten
m emb
Monten egr
fir st</w>
p o
k ing</w>
f i
ev er</w>
pe ople</w>
g h
Pri me</w>
Tur k
euro s</w>
us e</w>
l ast</w>
com p
is su
er n</w>
shi p</w>
h el
li am
re l
ur e</w>
th an</w>
d uring</w>
SE Times</w>
Turk ish</w>
le g
ad d
b il
d uc
n ed</w>
m il
t or</w>
inter national</w>
f l
in ce</w>
U n
e l</w>
pro c
por t
M ar
en s</w>
e en</w>
Pre sident</w>
in te
in e</w>
as e</w>
on ly</w>
ye ars</w>
st ate</w>
m inis
be tw
betw een</w>
w el
oper ation</w>
m ar
in d
t e</w>
c an</w>
w s</w>
str uc
en d</w>
f ac
A T
m ed
1 0</w>
ati c</w>
m ost</w>
U N</w>
at ing</w>
A n
s ome</w>
C om
st e
par t</w>
AT O</w>
N ATO</w>
publ ic</w>
w ar
Alban ia</w>
sh ould</w>
oc r
d em
no w</w>
Bulgar ia</w>
er y</w>
is h
f u
econom ic</w>
B al
st at
n o</w>
m any</w>
ti me</w>
Montenegr o</w>
i f</w>
p e</w>
ha d</w>
ex pec
en tr
e ar
a il
o f
p er</w>
p r
o o
v es</w>
ati ve</w>
w i
u m</w>
form er</w>
ic a</w>
ain st</w>
o b
tal ks</w>
ev el
i k
Bal k
1 1</w>
ur ity</w>
ag ainst</w>
res t</w>
ec e</w>
m es</w>
is t</w>
k ed</w>
Roman ia</w>
org anis
enc y</w>
, 00
de p
Gre ece</w>
as ed</w>
p a
il l
ag es</w>
it ed</w>
igh t</w>
h ow
v ot
how ever</w>
i ous</w>
c ul
&apos ;</w>
s el
s pec
un der</w>
19 9
,00 0</w>
ac k</w>
i e
pol ice</w>
c ould</w>
r an
par liam
ol l
s e</w>
2 0
l oc
wi th
th ree</w>
say s</w>
U S</w>
th or
C h
ar ds</w>
offic i
er ship</w>
Euro pe</w>
ro ug
res s</w>
w ay</w>
s ol
pro jec
c ur
p on
sup port</w>
o w</w>
ing s</w>
comm un
a st
oc i
wel l</w>
pres ent
T h
s ince</w>
in to</w>
e g
mis sion</w>
ri gh
or s</w>
wh en</w>
cont in
au thor
me et
H er
er g
sk i</w>
c or
un d
C y
s ed</w>
a re
ch ang
m ov
tr an
w ar</w>
dep end
an a</w>
reg ion</w>
Mon day</w>
su ch</w>
l arg
c ed</w>
Croati an</w>
it e</w>
evel op
t ly</w>
c ent</w>
a use</w>
s y
wor k</w>
us in
proc ess</w>
the m</w>
t ec
offici als</w>
Gre ek</w>
m an</w>
oun d</w>
ser v
f oreign</w>
am e</w>
id e</w>
Alban ian</w>
agre ement</w>
Bosn ia</w>
d o
ab il
st an
In ter
e b
por ts</w>
ay s</w>
ris t
u st
pro bl
con c
z e
d o</w>
d es
c o
i p
ad ic</w>
pos ition</w>
a m</w>
ti ve</w>
u res</w>
meet ing</w>
incl u
i f
b or
e th
p h
com pl
b usin
r ul
n um
c all
Her ze
f ul
es sion</w>
Herze gov
es e</w>
bec ause</w>
1 2</w>
en eral</w>
Herzegov ina</w>
la w</w>
cur ren
M il
e w</w>
g re
m an
b o
th ou
m ents</w>
re port</w>
T u
ic al</w>
inclu ding</w>
I m
for m</w>
in cre
inv est
re ad
g h</w>
ed n
re st
n ing</w>
he ad</w>
dis c
s ev
W edn
o u</w>
Wedn esday</w>
Macedon ian</w>
th ose</w>
m ember</w>
memb ers</w>
in depend
par ty</w>
S ec
k o</w>
ar d</w>
c ap
b el
for e</w>
u p
wh at</w>
us si
us ed</w>
in stitu
dec is
elec tions</w>
o d</w>
m aj
fe ren
rist ina</w>
bu il
re qu
ocr atic</w>
author ities</w>
ci l</w>
i ans</w>
b ot
N ov
th roug
ac h</w>
li on</w>
c our
loc al</w>
expec ted</w>
im port
m ust</w>
l ed</w>
u tion</w>
di rec
D em
ig h</w>
Par ty</w>
at t
ru p
sh e</w>
A r
f t</w>
res pon
l l</w>
s p
0 9</w>
j e</w>
Tu esday</w>
mon th</w>
P ristina</w>
im pl
t ake</w>
am ong</w>
k e</w>
r it
de f
go ti
m s</w>
m ade</w>
ann oun
g et</w>
an u
G et
pl o
ow er</w>
iti z
it ary</w>
ne goti
Get ty</w>
a bl
t ak
cri mes</w>
B an
is m</w>
po in
Im ages</w>
sec urity</w>
st ar
s ur
C oun
i l</w>
0 5</w>
0 7</w>
ef for
tran s
ti es</w>
0 6</w>
ci p
si ble</w>
we ek</w>
c itiz
ac t</w>
d evelop
ov er
bot h</w>
s ch
u ters</w>
th ese</w>
sa y</w>
Re uters</w>
A F
un e</w>
0 4</w>
an ovic</w>
inte gr
parliam ent</w>
0 8</w>
Ser b</w>
0 3</w>
n or
or ity</w>
be fore</w>
m y</w>
g ress</w>
pol ic
en g
ur s
jo in
AF P</w>
an ts</w>
ti v
issu e</w>
me t</w>
s it
oll ow
num ber</w>
ind ic
is ed</w>
f ollow
memb ership</w>
d ed</w>
su m
T he</w>
ol og
f un
l at
ac h
R ussi
v ing</w>
be g
Coun cil</w>
wh ere</w>
res ul
mil itary</w>
S ar
re present
sti ll</w>
D ec
be ing</w>
form s</w>
ep t
t ro
O c
ne x
projec t</w>
hi m</w>
em s</w>
nex t</w>
incl ud
parti es</w>
fu ture</w>
com e</w>
S k
th s</w>
sig n
fin an
re t
read y</w>
0 0</w>
vis it</w>
v ed</w>
busin ess</w>
o m</w>
M ay</w>
op en
throug h</w>
Mar ch</w>
Bulgar ian</w>
s s
e ther</w>
l in
ff e
ne ws</w>
J une</w>
our ces</w>
r e</w>
Oc to
c and
Octo ber</w>
ex per
pro duc
F oreign</w>
lo w</w>
erg y</w>
wor ld</w>
rup tion</w>
g ed</w>
Th urs
h op
Thurs day</w>
a k</w>
pl ace</w>
Inter national</w>
Dec ember</w>
citiz ens</w>
su b
d el
ou t
decis ion</w>
t ow
lead ers</w>
el l
gr am
B r
is e</w>
er s
ev o</w>
mar ke
ti c
pro gress</w>
med ia</w>
v al</w>
entr e</w>
parti cip
J anu
Janu ary</w>
tor s</w>
on d</w>
ff ec
v ery</w>
b r
m ak
est abl
m inister</w>
la v</w>
&apos; t</w>
hel d</w>
m un
i onal</w>
stat us</w>
Balk ans</w>
y ou</w>
ti c</w>
ste m</w>
ul y</w>
abil ity</w>
ci al</w>
c le
u k
id ed</w>
announ ced</w>
v ar
import ant</w>
h igh
j ud
iti ons</w>
Roman ian</w>
re forms</w>
rec e
e y</w>
G er
i ve</w>
u ation</w>
l ong</w>
cor ruption</w>
b ased</w>
ev en</w>
v o
say ing</w>
ic t</w>
o k</w>
eth n
y ing</w>
v en
t en</w>
s m
Nov ember</w>
J uly</w>
acc ession</w>
w on</w>
lead er</w>
thou gh</w>
enti al</w>
Sk op
g u
b un
o v</w>
me as
institu tions</w>
h igh</w>
g e</w>
d own</w>
Skop je</w>
t our
pri v
disc us
m ake</w>
comp any</w>
ar ly</w>
add ed</w>
ac k
tur al</w>
sec u
st s</w>
re por
comm it
pri l</w>
A pril</w>
vi ew</w>
Sar aj
th en</w>
ti ce</w>
pro gram
mon ths</w>
W or
is ts</w>
sig ned</w>
independ ence</w>
call ed</w>
Saraj evo</w>
sy stem</w>
n ec
integr ation</w>
ov ski</w>
l ine</w>
op position</w>
Serb s</w>
bun al</w>
p ower</w>
d ra
K ar
E n
2 0</w>
ain s</w>
S un
l ov
pre sident</w>
ie f</w>
f our</w>
ev ic</w>
con struc
at s</w>
P ro
m p
c c
pro pos
cand id
rel ations</w>
tow ards</w>
impl em
p en
ur o</w>
as h
effor ts</w>
Balk an</w>
con d
ne ed
s en
ati ves</w>
Sun day</w>
E r
a ir
A th
d u
D e
m at
und er
S ept
issu es</w>
ain ed</w>
hel p</w>
Sept ember</w>
f ur
em plo
righ t</w>
e k
I v
var ious</w>
G e
s c
ic es</w>
s ure</w>
pl an</w>
R ad
Ban k</w>
gro up</w>
con stitu
commun ity</w>
ch ief</w>
organis ed</w>
h n
C on
res ol
h er</w>
en ergy</w>
par t
sit uation</w>
per s
d re
e m</w>
in iti
pos sible</w>
F eb
Feb ru
vi ol
su cc
s ources</w>
G eneral</w>
Febru ary</w>
feren ce</w>
o s</w>
c ris
at eg
a z
Com mission</w>
reg ional</w>
esti val</w>
p ru
j a</w>
d oc
ac y</w>
Bosn ian</w>
ethn ic</w>
i ons</w>
ne ed</w>
Un ited</w>
if ic
Ath ens</w>
sa me</w>
em ents</w>
ish ed</w>
vot e</w>
pro f
ain ing</w>
k ovic</w>
tri bu
re form</w>
E C</w>
an other</w>
pru s</w>
Cy prus</w>
ag ue</w>
u t
Dem ocratic</w>
pre sid
de al</w>
ar ound</w>
f r
offic ial</w>
comp an
lo b
u al</w>
n ot
ch arg
sev eral</w>
sec ond</w>
m ain</w>
bil lion</w>
contin ue</w>
s pe
il y</w>
Un ion</w>
w om
cont ro
Wor ld</w>
leg al</w>
ati on
se t</w>
polic y</w>
g en
cris is</w>
gro w
bor der</w>
oc ial</w>
o t</w>
al ity</w>
negoti ations</w>
h um
or d
c am
t on</w>
econom y</w>
at ur
t i</w>
chang e</w>
F ri
as es</w>
Y ug
com pe
or y</w>
A ss
I C
it al</w>
U N
t a
us tice</w>
i or</w>
follow ing</w>
P e
Yug os
R S</w>
meas ures</w>
ad op
O l
on g
c an
de b
p op
is t
un d</w>
u es</w>
s ing</w>
St ates</w>
st and
m ay</w>
sum m
cour t</w>
en ted</w>
e re
se e</w>
v ic
an ds</w>
pro tec
ti onal</w>
marke t</w>
bec ome</w>
al y
re f
with out</w>
o ff
cri me</w>
s l
t ter</w>
with in</w>
s us
pro secu
Ge org
rec ent</w>
finan cial</w>
elec tion</w>
sk a</w>
f il
l ess</w>
minis try</w>
1 5</w>
mov e</w>
iv ers
bu d
is l
develop ment</w>
f e</w>
pop ul
con fl
th ern</w>
est ern</w>
at ten
tor y</w>
st ud
g iv
f am
S lov
b ro
er ing</w>
B uc
fi ve</w>
go od</w>
Cy pri
la un
maj or</w>
M l
A P</w>
ar a</w>
p ris
ev ent</w>
p ast</w>
l ev
ent ary</w>
A ug
h ol
S of
stat ement</w>
ret ary</w>
ti l</w>
di v
Aug ust</w>
m ed</w>
Fri day</w>
un til</w>
f ail
tri bunal</w>
probl ems</w>
pl om
og n
cl os
N ik
probl em</w>
h ow</w>
ar ri
B or
di ffe
me an
inv ol
Z agre
i m</w>
T adic</w>
war d</w>
rec ogn
program me</w>
diffe ren
le ft</w>
di plom
compan ies</w>
Sof ia</w>
uc h</w>
e p</w>
b er
ati s
fur ther</w>
d ue</w>
ap p
m uch</w>
esti g
re tur
u l</w>
righ ts</w>
ic s</w>
form ation</w>
th ing</w>
sel s</w>
Br us
Zagre b</w>
pu ty</w>
ed uc
Brus sels</w>
mun ic
. .</w>
in c
v e
st ates</w>
e qu
c ase</w>
s o
o j
construc tion</w>
ch il
. ..</w>
t ain</w>
r or
th in
tr a
0 2</w>
minis tr
con ference</w>
5 th</w>
si on
D P</w>
requ i
rul ing</w>
implem ent
si ve</w>
an aly
to g
3 0</w>
t re
to p</w>
ro s
fu l</w>
bil ity</w>
curren t</w>
A g
te am</w>
sid e</w>
1 st</w>
entr al</w>
T ir
F O
0 1</w>
jo in</w>
h is
ent ly</w>
D j
ex pl
m o
a im
prov ed</w>
al ready</w>
ter ror
inv estig
of f</w>
Tir ana</w>
g as</w>
n er</w>
N ational</w>
pres s</w>
Russi a</w>
d id</w>
sec tor</w>
P ol
agre ed</w>
L i
f a
c u</w>
lev el</w>
li ke</w>
d ays</w>
g g
cri min
z ic</w>
c ha
al ition</w>
A m
coun ter
FO R</w>
do es</w>
Nik ol
h al
op en</w>
ap pe
to ok</w>
si ons</w>
j ust</w>
H ague</w>
pl ans</w>
ful l</w>
v ia</w>
me et</w>
ac hi
tr ade</w>
mean while</w>
rece iv
cul tural</w>
represent atives</w>
b ack</w>
s ou
th re
tr ad
v ir
W estern</w>
it ing</w>
et y</w>
oo d</w>
Sec urity</w>
pl e</w>
fi ed</w>
pro mis
bud get</w>
cle ar</w>
ar r
I M
he ad
ev er
ust ri
An k
200 4</w>
f re
Ank ara</w>
7 th</w>
iti ve</w>
go ing</w>
i o</w>
our n
spec ial</w>
in fl
M us
e ks</w>
p ass
bu l</w>
pri me</w>
v er
I tal
pl ac
ad ministr
5 0</w>
s po
alis t</w>
E U
t ot
e ffec
dre n</w>
are as</w>
si x</w>
f oc
emplo y
ed ly</w>
Slov en
str ateg
Par liam
ha rest</w>
d ri
Buc harest</w>
ro ad</w>
com ing</w>
f ar</w>
l ing</w>
I stan
Istan bul</w>
ou s
8 th</w>
ear ly</w>
S ch
cam pa
co alition</w>
wom en</w>
in d</w>
f ree</w>
c ity</w>
d om
sh or
l im
minis ters</w>
e uro</w>
2 5</w>
o p</w>
IM F</w>
ro le</w>
te e</w>
ac tiv
stand ards</w>
incre ase</w>
D i
d e</w>
st ability</w>
oci ation</w>
g a
ear li
6 th</w>
re ach
be tter</w>
star t</w>
Sec retary</w>
d og
open ed</w>
cond itions</w>
pro ve</w>
h os
1 7</w>
m it
b ass
tec hn
for ces</w>
e ws</w>
quot ed</w>
K ur
invest ment</w>
al leg
w at
th ir
w ant</w>
Ml adic</w>
sel f</w>
k n
offic e</w>
e ach</w>
earli er</w>
s ci
end ed</w>
c er
l ack</w>
s al
thin k</w>
sol ution</w>
med i
ac tion</w>
reg ul
confl ict</w>
4 th</w>
o th
fin al</w>
1 3</w>
or der</w>
b i
con sid
chil dren</w>
join t</w>
for ce</w>
t un
es cu</w>
S e
tog ether</w>
resul ts</w>
conc ern
A h
jud ic
I ra
g o</w>
man ag
mon ey</w>
cri tic
c la
c entre</w>
prov ince</w>
p ed</w>
f ound</w>
con tribu
g eneral</w>
l es</w>
w a
ail y</w>
ste p</w>
res pec
pu t</w>
b en
alis ts</w>
dog an</w>
O r
rem ains</w>
grow th</w>
sign ific
Er dogan</w>
maj ority</w>
def ence</w>
M inis
ar rest
S r
inte rest</w>
F r
c ame</w>
hum an</w>
h ar
ne w
c ases</w>
curren tly</w>
al though</w>
su gg
parliam entary</w>
b as
M I
tak en</w>
200 7</w>
e red</w>
compe ti
Kar ad
1 0
ne igh
ex c
in f
exper ts</w>
M ed
g es</w>
wor king</w>
h t</w>
are a</w>
ow ed</w>
candid ate</w>
li k
op s</w>
at ely</w>
f ight</w>
Parliam ent</w>
m ain
ag o</w>
ex pres
Ol y
e ts</w>
at h</w>
ch ed</w>
ik a</w>
ex p
A c
con f
sup por
con s
Oly mp
or an</w>
buil ding</w>
munic ip
la w
pl ay
D r
om s</w>
p ot
F in
200 8</w>
neigh b
pl ann
an c
ap pro
all eng
al th</w>
si c</w>
at or</w>
ye t</w>
s ocial</w>
educ ation</w>
Cypri ot</w>
B er
id ence</w>
St ate</w>
olog y</w>
can not</w>
k ill
giv en</w>
1 4</w>
ivers ity</w>
am p
ci ans</w>
repor ted</w>
i ev
k ers</w>
vir on
IC T
1 6</w>
1 .
l s</w>
li fe</w>
de red</w>
ter min
prov ide</w>
ICT Y</w>
Ger many</w>
f o
direc tor</w>
campa ign</w>
Ag ency</w>
ul t</w>
struc ture</w>
oo l</w>
b est</w>
politi cians</w>
ch alleng
1 2
w in
res sed</w>
ter m</w>
rem ain</w>
in s
D P
t l
projec ts</w>
per i
our s</w>
o c</w>
nor thern</w>
at eral</w>
is ation</w>
ad v
S C
in formation</w>
ever y
chang es</w>
Alban ians</w>
t own</w>
differen t</w>
s om
nec ess
n ation
d on</w>
m en</w>
d aily</w>
p ite</w>
di ffic
y oun
ie ve</w>
wh ether</w>
re le
c u
includ e</w>
counter part</w>
j ourn
c el
bel ieve</w>
si bility</w>
ren g
receiv ed</w>
des cri
t ell
con tr
ur ged</w>
l ate</w>
lat er</w>
lik ely</w>
des pite</w>
st ep
politi c
ev ery</w>
j u
ot s</w>
Ass ociation</w>
z e</w>
parti cul
200 6</w>
st reng
contin u
1 8</w>
ag ency</w>
a head</w>
li ance</w>
is lav</w>
hi b
Mil os
f ace</w>
c ust
m od
2 7</w>
ru n</w>
n s</w>
str ong</w>
hop e</w>
ar i</w>
in ation</w>
tot al</w>
thir d</w>
per form
up s</w>
gh t</w>
r ate</w>
k a</w>
sus pec
pe ace</w>
need s</w>
ac ks</w>
200 5</w>
in ten
k ovski</w>
compl e
summ it</w>
re as
n ers</w>
al og
pos itive</w>
p ur
n am
alis ation</w>
em p
sh ow</w>
ros s</w>
ov a</w>
f estival</w>
so on</w>
inte rest
B ar
w ays</w>
ed om</w>
c oll
F or
spo k
iti onal</w>
g lob
dem ocratic</w>
h n</w>
bass ad
b ri
a th
port un
a j</w>
Re publ
m ul
fac il
al ong</w>
sion er</w>
d r
alog ue</w>
s oci
b re
le ast</w>
i k</w>
b id</w>
u str
pro per
m ot
larg e</w>
ful ly</w>
cap ital</w>
ess es</w>
d ers</w>
Yugos la
n ation</w>
a red</w>
descri b
op portun
C entre</w>
compl et
C our
er ation</w>
Yugosla via</w>
gro ups</w>
200 9</w>
peri od</w>
S atur
j ustice</w>
a c</w>
t el
con duc
mil lion</w>
it er
A K
larg ement</w>
c ent
ist ance</w>
pres ent</w>
en viron
administr ation</w>
Satur day</w>
MI K</w>
implement ation</w>
n ame</w>
ffic i
UN MIK</w>
h old</w>
s et
or k</w>
o il</w>
s es</w>
ocr acy</w>
u ment</w>
at ors</w>
N ew</w>
ow s</w>
mak ing</w>
poin t</w>
ic ation</w>
spok es
presid ency</w>
i ed</w>
contro l</w>
viol ence</w>
en ces</w>
Ira q</w>
A gre
fun ds</w>
atis ation</w>
p s</w>
v al
necess ary</w>
i p</w>
tour ism</w>
tri al</w>
l and</w>
Russi an</w>
i ally</w>
bl oc
2 4</w>
Montenegr in</w>
Bor is</w>
ser ious</w>
di alogue</w>
Minis try</w>
tak ing</w>
us ing</w>
oth ers</w>
B ri
reach ed</w>
fe w</w>
ben ef
achi ev
vis ion</w>
pa ren
od y</w>
ne ar</w>
resul t</w>
larg est</w>
ne arly</w>
du ce</w>
Cour t</w>
tun ica</w>
re view</w>
B C</w>
Sr p
Kos tunica</w>
De puty</w>
leg isl
br ing</w>
Agre ement</w>
tr av
vis a</w>
ti on
ov anovic</w>
ar rest</w>
I s
as s</w>
3 r
youn g</w>
la ws</w>
3r d</w>
ast ern</w>
pot ential</w>
ou gh</w>
h ome</w>
ent al</w>
ap pl
an ad
bl oc</w>
a ff
20 10</w>
acc ep
dec ided</w>
T ra
9 2</w>
2 1</w>
glob al</w>
elec tr
Li b
S p
ous ly</w>
es pec
cl u
bel iev
Kur dis
organis ation</w>
retur n</w>
espec ially</w>
employ ment</w>
qu es
i de
P ap
g ive</w>
ex am
hal f</w>
fam ily</w>
s ing
rec ently</w>
reg ar
ad ding</w>
u ally</w>
rel ig
n d</w>
im prove</w>
V l
Republ ika</w>
2 nd</w>
im p
c r
ne t</w>
Re present
o z
con fir
B as
need ed</w>
de termin
b all</w>
popul ation</w>
i z
fin d</w>
ex hib
c ro
d ro
go al</w>
en ter
an ted</w>
A ustri
ap proved</w>
t le</w>
aim ed</w>
e as
a ffec
Sloven ia</w>
sm all</w>
oun d
sig n</w>
en ds</w>
Srp ska</w>
S oci
pres ented</w>
dis pu
de st
de l</w>
independ ent</w>
2 2</w>
signific ant</w>
p ay</w>
reg im
p ing</w>
b s</w>
H un
enti ty</w>
Ital y</w>
te red</w>
con nec
fre edom</w>
Un iversity</w>
ter rit
en ding</w>
buil d</w>
beg an</w>
n on</w>
vo ic
re ports</w>
n ations</w>
S A
B 92</w>
ev ski</w>
tra ffic
cl ose</w>
ar t</w>
S te
im prov
h ou
ed ged</w>
mon y</w>
ir e</w>
diplom atic</w>
as ked</w>
Al liance</w>
ta x</w>
t on
t ment</w>
en ing</w>
discus s</w>
activ ities</w>
Ger man</w>
establ ish
bassad or</w>
ar ti
air s</w>
succ ess
pre vi
pre par
1 9</w>
establ ished</w>
re feren
cre d
um ents</w>
an der</w>
K FOR</w>
Fr ance</w>
open ing</w>
not ed</w>
Karad zic</w>
dom esti
cul ture</w>
R ec
pe ac
or ities</w>
fac t</w>
SC E</w>
tro ops</w>
priv ate</w>
laun ched</w>
e ight</w>
O SCE</w>
F estival</w>
Com mis
ti cal</w>
pr in
igh ts</w>
cla im
E con
t est</w>
ob serv
kn own</w>
Milos evic</w>
Econ om
ro v
bo ost</w>
am oun
Represent ative</w>
c a
is ing</w>
arrest ed</w>
t ain
sev en</w>
id ing</w>
referen d
ing ton</w>
ac coun
2 3</w>
r ic
pre v
o bl
a ir</w>
he alth</w>
del eg
an ti</w>
2 8</w>
com es</w>
Commis sioner</w>
199 5</w>
ol d
obl ig
step s</w>
qu ar
m os
h and
b ig
bil ateral</w>
0 m</w>
dec l
ag ain</w>
V oj
T ri
pro te
L e
pro mot
ash ington</w>
W ashington</w>
2 6</w>
0 ,000</w>
g ing</w>
9 th</w>
on str
ke ep
ic ity</w>
re duc
vo y</w>
E X</w>
ul ture</w>
to o</w>
rul e</w>
pl ant</w>
incre ased</w>
ag ed</w>
dem onstr
wh ose</w>
domesti c</w>
lat est</w>
F il
200 3</w>
war ned</w>
s ite</w>
h ard</w>
f av
Re hn</w>
sugg est
li ving</w>
L a
to day</w>
serv ices</w>
adop ted</w>
AK P</w>
m u
c y</w>
ti s
v ill
pos ed</w>
pos t</w>
le ad</w>
N ews</w>
L uk
E l
h app
P K
ann ual</w>
at a</w>
ti mes</w>
en sure</w>
re jec
constitu tion</w>
ra structure</w>
n a</w>
c ol
regim e</w>
lo o
an ces</w>
produc tion</w>
expres sed</w>
G ro
se en</w>
d en
an y
prosecu tor</w>
N A</w>
w ants</w>
st ressed</w>
ne tw
diffic ult</w>
ban k</w>
P et
roug ht</w>
i on
ear ch</w>
big g
reg is
n ership</w>
4 0</w>
v il
priv atisation</w>
is ting</w>
M i
v er</w>
proper ty</w>
charg es</w>
z one</w>
L EX</w>
ro und</w>
ass istance</w>
EU LEX</w>
infl u
c ere
ap poin
analy sts</w>
C ri
ed ul
n ess</w>
Z oran</w>
pres sure</w>
lead ing</w>
PK K</w>
ur y</w>
te es</w>
min ority</w>
deb t</w>
c entral</w>
1 3
comm is
B BC</w>
stud ents</w>
div id
spe ak
m and
inf rastructure</w>
constitu tional</w>
gen er
f ig
vic ti
re al</w>
expec t</w>
t arg
ex ten
k i</w>
am es</w>
d one</w>
comm on</w>
att emp
D evelop
sch edul
propos ed</w>
propos al</w>
coll ec
invol ved</w>
f ri
esti m
at tr
referend um</w>
me ans</w>
fi el
end a</w>
Nikol a</w>
an i</w>
nor th</w>
fil m</w>
D ef
st and</w>
legisl ation</w>
strateg y</w>
h ere</w>
B l
repor ters</w>
c ab
l a</w>
Develop ment</w>
commit ted</w>
st ri
in tro
cap ac
foc us</w>
J ustice</w>
I sl
traffic king</w>
Ah ti
vot ers</w>
k m</w>
protec tion</w>
us h</w>
a h
sa ari</w>
i u</w>
high er</w>
e w
cust oms</w>
sch ool</w>
Ahti saari</w>
A le
ec h</w>
discus sed</w>
M it
si mil
T V</w>
ra ised</w>
gre at</w>
In stitu
5 m</w>
soci ety</w>
M os
pr ices</w>
pr ac
p ip
b oo
ar ing</w>
initi ative</w>
id es</w>
beg in
al e</w>
S y
his tor
on ce</w>
b rought</w>
Rom a</w>
Kurdis h</w>
. 5</w>
on es</w>
G DP</w>
Ch ris
s ent
b ur
star ted</w>
d am
O ffic
ter ms</w>
in et</w>
en voy</w>
def ic
al most</w>
C entral</w>
al low</w>
rece ive</w>
ra ther</w>
ow ing</w>
c ing</w>
Ar my</w>
ol s</w>
j ic</w>
Yugos lav</w>
D av
we eks</w>
issu ed</w>
di es</w>
ac tions</w>
Pe ace</w>
resol ution</w>
crimin al</w>
E m
in divid
effor t</w>
pr ice</w>
l ist</w>
his tory</w>
exper i
ish a</w>
incre as
cer tain</w>
ord in
199 9</w>
l os
gu ar
jo b</w>
Def ence</w>
2 9</w>
cab inet</w>
Re public</w>
rel ated</w>
re ach</w>
cel eb
av er
t es</w>
d ou
el ine</w>
gre at
t om
t a</w>
organis ations</w>
doc ument</w>
ad es</w>
H as
DP A</w>
tis h</w>
hop es</w>
fail ed</w>
ch e
ar ies</w>
beg in</w>
ig n
Ber isha</w>
su s</w>
serv ice</w>
elec ted</w>
cere mony</w>
ac i</w>
stan ding</w>
ug g
id ent</w>
em erg
v ol
relig ious</w>
ong er</w>
C or
port edly</w>
el s</w>
direc t</w>
c ost</w>
Dr ag
tu res</w>
n al</w>
F ren
pl ay</w>
fun c
an tic</w>
Institu te</w>
plac ed</w>
d ate</w>
Bri tish</w>
mon it
s ha
poin ts</w>
am e
k now</w>
terror ism</w>
il legal</w>
H igh</w>
al ities</w>
d ata</w>
R am
Isl am
w id
re portedly</w>
investig ation</w>
bec om
Fren ch</w>
voic ed</w>
sol di
ac ts</w>
re b
en try</w>
ac ross</w>
J ovanovic</w>
wor kers</w>
lin es</w>
d ic
prosecu tors</w>
h on
a ve</w>
wat er</w>
w rit
vi l</w>
part ment</w>
de t
ci vil
Gro up</w>
Di rec
q i</w>
m ur
Bas escu</w>
B e
an ov</w>
ac qu
sci ence</w>
st re
schedul ed</w>
Georg e</w>
plann ed</w>
for ward</w>
simil ar</w>
si dered</w>
respon sibility</w>
includ ed</w>
i ther</w>
con sidered</w>
y ed</w>
le ar</w>
se par
en ter</w>
bigg est</w>
S ol
t an</w>
sid es</w>
pos e</w>
en ough</w>
deleg ation</w>
proc ed
l u</w>
includ es</w>
be h
ffe red</w>
ec h
acc ess</w>
uc lear</w>
thou s
se e
particul arly</w>
oper ate</w>
ob jec
mak ers</w>
m ight</w>
beh ind</w>
dispu te</w>
dem ocracy</w>
E x
enc our
rec or
pro spec
op in
describ ed</w>
as k</w>
G ru
r un
ow l
fr on
off er</w>
competi tion</w>
commun ities</w>
A b
rem ov
aver age</w>
trans f
att acks</w>
S tr
rele ased</w>
i ary</w>
S anad
A tl
m ing</w>
kill ed</w>
N G
I g
prof es
neighb our
Sou th</w>
Sanad er</w>
P l
D im
victi ms</w>
ess or</w>
e an</w>
Olymp ic</w>
s ent</w>
ol e</w>
b ody</w>
R es
sen ior</w>
r an</w>
ir man</w>
electr icity</w>
ap er</w>
T r
journ alists</w>
invest ors</w>
S ocial</w>
E uro</w>
ov an</w>
atten ded</w>
ang u
add ition</w>
add ress</w>
1 ,
im medi
i e</w>
T ay
tre at
l i</w>
Offic e</w>
0 s</w>
respon sible</w>
in ste
guar an
atur al</w>
invest ments</w>
w in</w>
p ay
l it
politic s</w>
pip eline</w>
judic ial</w>
tr aining</w>
id d
capac ity</w>
sa ge</w>
m ig
cre ate</w>
tu al</w>
n ik</w>
li m</w>
inste ad</w>
de puty</w>
ac ked</w>
Lib y
w ent</w>
ci es</w>
b an</w>
prov ided</w>
par ts</w>
er ia</w>
N or
follow ed</w>
u k</w>
offic ers</w>
isl and</w>
fo ot
e f</w>
ar my</w>
A sh
conc ern</w>
y our</w>
ren ica</w>
o l</w>
ke ep</w>
ic ally</w>
abil isation</w>
Atl antic</w>
o ds</w>
fe at
1 1
previ ous</w>
m et
s ports</w>
h and</w>
ar ation</w>
agre ements</w>
a p</w>
n ever</w>
gr ap
bec ame</w>
S h
G ul</w>
Am er
5 00</w>
m es
ic an</w>
olog ical</w>
ame work</w>
re comm
tran si
i um</w>
exam ple</w>
lo an</w>
govern ments</w>
d on
c all</w>
C ar
ug e
n uclear</w>
w r
presid ential</w>
ow ned</w>
emb ly</w>
Th aci</w>
interest s</w>
A d
200 2</w>
v et
ri d</w>
regar ding</w>
ill ing</w>
igh ting</w>
complet e</w>
Tay y
J o
Am bassador</w>
conf idence</w>
publ ished</w>
l angu
1 00</w>
t op
h er
cl ud
Tayy ip</w>
m ir</w>
T ran
soldi ers</w>
pers on</w>
it ation</w>
candid ates</w>
call s</w>
Rec ep</w>
ustr y</w>
terror ist</w>
ind ustry</w>
ffici ent</w>
at re</w>
particip ants</w>
s w
opportun ity</w>
S al
P on
En largement</w>
f ol
M u
vis ited</w>
out side</w>
n ine</w>
j an</w>
ne l</w>
n atural</w>
mand ate</w>
a way</w>
Rad io</w>
import ance</w>
defic it</w>
cred it</w>
c rit
a il</w>
R at
er t</w>
ed eration</w>
Is ra
succ ess</w>
is ted</w>
f el
e ed
con v
ov ered</w>
tr ying</w>
shor t</w>
judic iary</w>
us es</w>
mit ted</w>
intro duc
imp act</w>
g or
e h
ch o
T el
P op
Gru evski</w>
begin ning</w>
Vl ad
S reb
H ar
sing le</w>
m en
confir med</w>
a id</w>
t y
ev ents</w>
com b
b al
Sreb renica</w>
P od
B o
th em
summ er</w>
represent ative</w>
pa id</w>
exhib ition</w>
6 0</w>
li ve</w>
de ad
comm ander</w>
200 1</w>
thous ands</w>
requi red</w>
ques tion</w>
m ental</w>
lo ok</w>
agre e</w>
acc used</w>
tur n</w>
id enti
ha ving</w>
ch es</w>
Dim it
m us
ff er</w>
ec u
marke ts</w>
0 th</w>
de fin
s on</w>
oper ations</w>
jo bs</w>
A dri
it ors</w>
af f</w>
Mus lim</w>
se qu
il i
decl aration</w>
ab ly</w>
wh y</w>
ta x
pris on</w>
l ost</w>
bro ad
D o
20 11</w>
c arri
12 th</w>
spokes man</w>
pri ority</w>
li ber
conduc ted</w>
Iv o</w>
y s</w>
ic k
e um</w>
m er</w>
environ ment</w>
dra ft</w>
ban ks</w>
T om
x im
res sing</w>
form ed</w>
es ic</w>
deb ate</w>
crit eria</w>
K r
promis e</w>
prin ci
pl edged</w>
c os
is es</w>
em or
Ig or</w>
lob od
comple ted</w>
an u</w>
h om
add itional</w>
or ig
ag enda</w>
S im
J a
high est</w>
w anted</w>
trav el</w>
it self</w>
en s
ci vil</w>
M ir
Fin ance</w>
ac tive</w>
Rat ko</w>
impl ement</w>
continu ed</w>
challeng es</w>
alleg ed</w>
00 m</w>
success ful</w>
i er</w>
tiv ely</w>
s ession</w>
alis ed</w>
c are</w>
bi g</w>
2 .
we ap
sci enti
join ing</w>
Voj islav</w>
stud y</w>
over all</w>
m om
e ve</w>
wh ole</w>
r ad
join ed</w>
inter view</w>
N ic
un employment</w>
sch o
ne g
fa ir</w>
M ic
sel ves</w>
respec t</w>
laun ch</w>
a ward</w>
u te</w>
m ay
ab road</w>
S lobod
tour ists</w>
ref uge
er c
p ic
implement ing</w>
f oun
commit ment</w>
vot es</w>
vis ions</w>
l ower</w>
E ast</w>
gr ad
f y</w>
er ous</w>
Pon te</w>
prev ent</w>
indic tees</w>
ide a</w>
f ug
del iv
av o
ad em
F at
w ide</w>
st ance</w>
wor ks</w>
pre pa
keep ing</w>
S w
sig ning</w>
opin ion</w>
p ath</w>
concern s</w>
charg ed</w>
ag ric
manag ement</w>
equ ip
en ed</w>
au t
th ings</w>
ef ul</w>
con sum
al ed</w>
F ile</w>
3 1</w>
establ ish</w>
com ed</w>
ar d
amoun t</w>
10 th</w>
1 5th</w>
wel comed</w>
qu e</w>
p ack
ot ov
ch ar
grap h
el im
Austri a</w>
1 5
ser ies</w>
r ates</w>
of ten</w>
netw ork</w>
municip alities</w>
c ities</w>
an t
R u
us h
oc k</w>
comp ared</w>
c ement</w>
C r
un ion</w>
p ow
P r
Inter ior</w>
G u
et a</w>
Fil m</w>
vill age</w>
pl es</w>
fail ure</w>
ur ch</w>
t able</w>
gro und</w>
f ood</w>
every thing</w>
ap prov
v ely</w>
s atis
produc ts</w>
expl ained</w>
cl im
thre at</w>
str ic
jud ges</w>
mar k</w>
199 2</w>
00 ,000</w>
som eth
see king</w>
i ble</w>
ev ent
ass ess
ar m
sh are</w>
res earch</w>
n an</w>
idd le</w>
someth ing</w>
ob ile</w>
spec if
clos ed</w>
ar ch
3 .
re sid
p ly</w>
l is</w>
commis sion</w>
W ar</w>
G otov
dra w
Pod gor
ti n</w>
pro test</w>
Podgor ica</w>
som e
call ing</w>
Hun g
Gotov ina</w>
Slobod an</w>
Com mit
estim ated</w>
b om
Bosn i
z er
on ed</w>
hol ds</w>
h ap
fac ing</w>
buil t</w>
bas is</w>
Hung ary</w>
o x</w>
do ing</w>
mul ti
lit tle</w>
Dj ind
Cypri ots</w>
ul la
strateg ic</w>
star ting</w>
rem ents</w>
or ing</w>
l ight</w>
pol ls</w>
con clud
19 8
pass ed</w>
f ighting</w>
att ack</w>
ro ad
mov ement</w>
inv est</w>
doc uments</w>
critic ised</w>
Djind jic</w>
D S
ris e</w>
vic tory</w>
d er
ar med</w>
acc ept
An ton
su st
respon se</w>
le ave</w>
d ings</w>
c arr
V i
weap ons</w>
re duce</w>
lo s</w>
ev idence</w>
accep t</w>
thre at
suspec ts</w>
speak ing</w>
re ven
e v</w>
d ow
P u
particip ation</w>
on going</w>
in tell
h ours</w>
fiel d</w>
contin ues</w>
Commit tee</w>
particip ate</w>
in es</w>
in ated</w>
i ja</w>
St abilisation</w>
J an
ati sti
H um
vi ew
scho ols</w>
s ov
pers on
fac es</w>
effec t</w>
prospec ts</w>
fir m</w>
en jo
cro ss
El ec
1 7th</w>
streng th
qu ality</w>
arri ved</w>
M esic</w>
SA A</w>
v ey</w>
ris k</w>
rejec ted</w>
law makers</w>
j an
ex change</w>
enti re</w>
S u
A f
requi rements</w>
ac ted</w>
throug h
enc ed</w>
emplo ye
fin ance</w>
techn ical</w>
r ation</w>
hou se</w>
Mit rov
polic ies</w>
ou th</w>
fr amework</w>
ad vis
Sol ana</w>
F ederation</w>
ven tion</w>
rul es</w>
B rit
20 th</w>
pres ence</w>
mes sage</w>
is ion</w>
inter net</w>
achi eve</w>
Islam ic</w>
2 1st</w>
peac e
dec la
becom ing</w>
an ti
indic ted</w>
aim s</w>
A ff
sy m
st able</w>
p rec
Luk a</w>
B u
Ash down</w>
sov ere
lo t</w>
j ana</w>
o ffered</w>
Ab d
through out</w>
foot ball</w>
consid er</w>
M o
c ou
as h</w>
Cri min
4 .
wom an</w>
se ats</w>
reas on</w>
ivers ary</w>
fron t</w>
cre ated</w>
th od
tak es</w>
struc tures</w>
il ies</w>
cu t</w>
Brit ain</w>
T al
ten der</w>
ov ern
m it</w>
li es</w>
langu age</w>
influ ence</w>
h y
f inis
Pap and
In v
wor th</w>
territ ory</w>
techn ology</w>
recogn ise</w>
n owl
m er
l onger</w>
amp ion
Sy ri
suggest ed</w>
se ts</w>
ob st
ch ance</w>
at ory</w>
T ar
S to
streng then</w>
in i</w>
Direc tor</w>
oblig ations</w>
fam ilies</w>
ex ports</w>
de ath</w>
V al
uc ial</w>
Tran s
De partment</w>
D ay
Ban ja</w>
ser ve</w>
pack age</w>
id s</w>
cond ition</w>
believ es</w>
ann iversary</w>
am id</w>
O h
200 0</w>
im ir</w>
for ced</w>
Aff airs</w>
go ods</w>
fl ec
f all</w>
dow n
de plo
ack nowl
Ital ian</w>
popul ar</w>
min orities</w>
h und
ex ecu
al ways</w>
G ames</w>
perform ance</w>
k er</w>
g e
en e</w>
en cies</w>
am b
C o
A ir
sur vey</w>
shi ps</w>
la b
ic ts</w>
Ol li</w>
E P</w>
th us</w>
st op</w>
plann ing</w>
obst ac
grow ing</w>
clos er</w>
Crimin al</w>
resol ved</w>
rem aining</w>
promot e</w>
in s</w>
ast er</w>
199 0s</w>
Papand re
11 th</w>
t em
mur der</w>
ic k</w>
cr ucial</w>
Day ton</w>
them selves</w>
suppor ted</w>
c al
b ir
alis m</w>
Y ork</w>
Papandre ou</w>
M P
19 th</w>
specif ic</w>
recogn ised</w>
re flec
o graph
hos p
div ided</w>
chang ed</w>
c ir
D S</w>
oc ide</w>
busin esses</w>
a wa
m or
infl ation</w>
in e
h an</w>
ec hn
c ot
po or</w>
t ol
fun ding</w>
7 0</w>
res ources</w>
oc c
ing ly</w>
increas ing</w>
er a</w>
dem and</w>
decla red</w>
M er
20 0</w>
pr o</w>
le t</w>
g old</w>
Oh rid</w>
si onal</w>
l evel
k ind</w>
h ot
C i
v ement</w>
war ds</w>
sh ows</w>
p at
is cal</w>
i red</w>
bor ders</w>
ag ing</w>
Soci alist</w>
Or thod
h am
ac ting</w>
F ran
we ek
sy st
r y</w>
ev ision</w>
d ang
cl e</w>
Se a</w>
neighbour ing</w>
ind ustri
cour se</w>
R ights</w>
Mitrov ica</w>
M old
pur ch
offici ally</w>
di ed</w>
d ru
cent ury</w>
at ure</w>
al ing</w>
achiev ed</w>
Orthod ox</w>
r ating</w>
equip ment</w>
as a</w>
Rad ovan</w>
ti l
ou los</w>
indic tment</w>
c en
T he
great er</w>
Dem ocr
Af gh
protec t</w>
gen ocide</w>
con cre
analy st</w>
ulla h</w>
se ek</w>
ic ations</w>
dec ide</w>
recogn ition</w>
decis ions</w>
ch ap
alis e</w>
Se j
invol vement</w>
am end
Olymp ics</w>
immedi ately</w>
experi ence</w>
Sloven ian</w>
ug e</w>
r ang
pl it</w>
m obile</w>
implem ented</w>
c s</w>
Mos c
Dj uk
mat ter</w>
en a</w>
e ither</w>
claim s</w>
an ding</w>
all owed</w>
2 8th</w>
sup pl
oper ating</w>
i j
concre te</w>
c e
Mosc ow</w>
I ran</w>
1 8
ph as
f iscal</w>
a w
r ing</w>
prepa red</w>
or ial</w>
lead ership</w>
fig ures</w>
approv al</w>
an tly</w>
th er
effec tive</w>
e z
accept able</w>
r ati
level s</w>
inter ior</w>
form al</w>
ex isting</w>
J os
An nan</w>
trans port</w>
sec ution</w>
re ti
r ap
di u</w>
ov ska</w>
new sp
em phas
cons ul
arg u
Tom islav</w>
H R</w>
D n
C up</w>
re pe
lab our</w>
hum an
ga ve</w>
ed ge</w>
a im</w>
Tri bunal</w>
13 th</w>
un it</w>
re ment</w>
cha irman</w>
benef it</w>
arr ang
ussi ons</w>
s en</w>
for um</w>
fir e</w>
c iting</w>
T echn
E ur
Cr ven
C ulture</w>
ra ise</w>
particul ar</w>
o k
no thing</w>
di k</w>
establish ment</w>
li ves</w>
ful f
c ar</w>
appro ach</w>
M is
Dn ev
ex trad
cos ts</w>
Do dik</w>
Con stitu
Ale x
1 4th</w>
prote sts</w>
promis ed</w>
0 .
sub mitted</w>
im proved</w>
f und
author ity</w>
S D</w>
D an
t ations</w>
rele ase</w>
or t</w>
m oun
ific ation</w>
employe es</w>
concern ing</w>
Sej diu</w>
I I</w>
regis tered</w>
prote st
od e</w>
nor m
ex t
pos itions</w>
op ti
g l
Crven kovski</w>
C E
Abd ullah</w>
l d
6 .
sh owed</w>
improv ing</w>
cour ts</w>
clim ate</w>
En ergy</w>
st age</w>
re t</w>
ig ence</w>
challeng e</w>
V O
L ju
opportun ities</w>
accoun t</w>
1 6th</w>
er red</w>
commun ist</w>
av ail
str ong
sec ure</w>
c are
bre ak
g et
f ore
dis tribu
VO A</w>
E astern</w>
ro w</w>
ri c</w>
prof essor</w>
plac es</w>
mos tly</w>
lin ed</w>
Drag an</w>
C o</w>
ti an</w>
ex erc
charg e</w>
tur ned</w>
te ach
sou thern</w>
pos sibility</w>
finan cing</w>
Djuk anovic</w>
t an
part ner</w>
opti mis
dest ro
d ev
com pu
C z
3 0th</w>
2 5th</w>
sit es</w>
m id</w>
benef its</w>
G az
p raised</w>
evel op</w>
en largement</w>
con sequ
commit tee</w>
com promise</w>
bri d
bo ard</w>
M an
v ice</w>
program mes</w>
mat ch</w>
happ en</w>
foc used</w>
SE E</w>
K on
E C
meet ings</w>
dru g</w>
coun cil</w>
cha e
y er</w>
re stric
prov iding</w>
d evelop</w>
believ ed</w>
ain e</w>
Hum an</w>
F und</w>
vis itors</w>
t led</w>
set tl
expec ts</w>
cri tical</w>
2 3rd</w>
tic s</w>
su per
pres ents</w>
it ar
am ber</w>
ak er</w>
G overn
tur n
st ay</w>
p ped</w>
l u
ie v</w>
contr act</w>
ail s</w>
u j
mod ern</w>
li f
B ran
Amer ican</w>
ov e</w>
ep t</w>
e ed</w>
B ra
Al i</w>
2 2nd</w>
recor d</w>
appoin ted</w>
P al
H ol
st aff</w>
r ac
ph ase</w>
municip ality</w>
mar ked</w>
establish ing</w>
Sp ain</w>
J e
t in
respon d
resol ve</w>
re ds</w>
profes sional</w>
V uk
1 8th</w>
ul tural</w>
t elec
ass ass
K al
struc tion</w>
sh own</w>
it age</w>
a ug
D in
Adri atic</w>
sa f
part ners</w>
h it</w>
Fat mir</w>
up coming</w>
pos es</w>
or a</w>
l ic
hund reds</w>
Sch e
p ir
oo k</w>
head s</w>
head ed</w>
av ing</w>
anis tan</w>
Ar men
Afgh anistan</w>
over ty</w>
neg ative</w>
mak es</w>
ed ition</w>
3 5</w>
re iter
pre ad</w>
p t</w>
b and</w>
avail able</w>
ass oci
ac king</w>
St re
quar ters</w>
negoti ating</w>
avo id</w>
F ac
C os
pre h
jec t</w>
ex tre
disc ussions</w>
P A
n om
main ly</w>
2 7th</w>
trad itional</w>
s par
g y
continu ing</w>
5 ,000</w>
i qi</w>
h ost</w>
alleg edly</w>
S tu
Ass embly</w>
sal e</w>
s il
qu ick
pl e
oo p</w>
mov ie</w>
h uge</w>
el a</w>
S ti
Liby a</w>
t ren
sou ght</w>
la v
k r
ing ing</w>
Vlad imir</w>
S ci
strength ening</w>
nam ed</w>
ic ated</w>
ch ing</w>
broad c
aff airs</w>
Cz ech</w>
sp ending</w>
ris ing</w>
pol l</w>
m ass
Sche ffer</w>
8 0</w>
ran ts</w>
er able</w>
en na</w>
e y
Pol ice</w>
5 .
u als</w>
institu tion</w>
ak u</w>
M iddle</w>
H oop</w>
F E</w>
un i
tri ed</w>
s end</w>
loo king</w>
ev a</w>
con dem
Vi enna</w>
Econom y</w>
p tion</w>
mom ent</w>
min e</w>
in ess</w>
fin ally</w>
comm er
am an
In te
u d</w>
tur ing</w>
sub stan
sa w</w>
me an</w>
S pe
1 ,000</w>
vot ing</w>
pri orities</w>
pos t
facil ities</w>
Gre eks</w>
pers onal</w>
mu sic</w>
il ed</w>
every one</w>
econom ies</w>
ech anis
Ste f
Sal i</w>
ur ging</w>
p ul
k ic</w>
id ents</w>
affec ted</w>
2 6th</w>
the re
rem ar
proced ures</w>
ex port</w>
cer tain
and ed</w>
all ed</w>
M ak
Isra el</w>
G oran</w>
20 12</w>
199 1</w>
u r</w>
ter n
p overty</w>
ind a</w>
histor ic</w>
T op
R FE</w>
D K</w>
C hi
sm o
se as
le tter</w>
ca used</w>
ath le
S am
A T</w>
requ est</w>
pers ons</w>
trans paren
sup ply</w>
s pon
ag encies</w>
Or g
H D
reas ons</w>
play ed</w>
or ies</w>
go als</w>
confl icts</w>
V uk</w>
V el
R L</w>
Par t
O s</w>
L j
Austri an</w>
u n</w>
main t
lo ans</w>
he av
ff ic</w>
develop ments</w>
d i</w>
contribu te</w>
assess ment</w>
Nikol ic</w>
Hun gar
is ten
bo y
bas ic</w>
b ed</w>
ro r</w>
n ight</w>
m i
interest ed</w>
inter nal</w>
cen sus</w>
c ross</w>
Med i
Bar ro
mass ac
hel ping</w>
Econom ic</w>
tr ust</w>
settl ement</w>
ound ation</w>
liber alisation</w>
l ands</w>
ish ing</w>
des ig
de fe
atten d</w>
ampion ship</w>
M al
H e
orig in
curren cy</w>
conclud ed</w>
NG Os</w>
st er
st atisti
d ance</w>
199 8</w>
transi tion</w>
tour ist</w>
tor al</w>
tion ing</w>
suspec ted</w>
resid ents</w>
b ers</w>
attemp t</w>
Has him</w>
sec ul
j evic</w>
en h
c au
F T</w>
br inging</w>
ar chae
S FOR</w>
sp ent</w>
serv ed</w>
r a</w>
mat er
aut onom
affec t</w>
Re g
Inte gr
Chris to
s qu
s a</w>
quick ly</w>
princi ples</w>
k es</w>
it or</w>
boy cot
atten tion</w>
ti al</w>
off ers</w>
individ uals</w>
hos ted</w>
as su
Sw ed
S E</w>
Mus eum</w>
tra ffic</w>
ik i</w>
crimin als</w>
U kr
rel ation
mod ern
ber g</w>
T an
O t
N at
M R
Cro ats</w>
Ch rist
thre ats</w>
territ orial</w>
stat ements</w>
spec i
re sign
not ing</w>
k ov</w>
fol low</w>
busin ess
T A</w>
H I
E B
tr ack</w>
t ar</w>
sur pris
pres er
person nel</w>
h im
environ mental</w>
dec ades</w>
carri ed</w>
aman lis</w>
Spe aker</w>
L on
Kar amanlis</w>
w ing</w>
vot ed</w>
our ce</w>
inv itation</w>
h ed</w>
dra w</w>
Je rem
st ake</w>
pr e</w>
la bor
critic ism</w>
b ra
b acked</w>
L u
B ur
res er
ous es</w>
m ag
f ication</w>
c ited</w>
Tra j
R ob
2 9th</w>
transf er</w>
the atre</w>
tel evision</w>
re ly</w>
or ad</w>
lim s</w>
enter pris
c over</w>
amend ments</w>
am s</w>
Mus lims</w>
D en
treat ment</w>
re present</w>
f our
f all
dis crimin
Org anis
Mil orad</w>
Democr ats</w>
sur vi
p i
p ass</w>
observ er</w>
individ ual</w>
inc ident</w>
adop tion</w>
ac an</w>
the red</w>
tax es</w>
t as</w>
ques tions</w>
ili ation</w>
fig ure</w>
ar ch</w>
R D</w>
P au
Jerem ic</w>
B il
refuge es</w>
prov ides</w>
pro mp
mun ity</w>
k et
en ess</w>
con vic
Tra ian</w>
Tr ade</w>
Ml ad
Ch ina</w>
spe ech</w>
r ace</w>
hap pen
e anu</w>
boo k</w>
turn out</w>
tu ally</w>
vi er</w>
ten sions</w>
sust ain
sol id
re conc
pl ants</w>
per man
part nership</w>
Inv est
G j
2 4th</w>
z en</w>
tell s</w>
requ est
p ain
ex pen
de ep
Cro at</w>
B lack</w>
3 00</w>
spe ed</w>
monit oring</w>
m as</w>
journ alist</w>
bloc k</w>
b att
J ap
I T</w>
re un
pen sion</w>
k s
in ed</w>
form ing</w>
bor n</w>
C ol
y outh</w>
x ed</w>
t ask</w>
in de
four th</w>
f le
dou b
M ay
I l
ul a</w>
separ ate</w>
sec tors</w>
pro b
neighb ours</w>
l ow
facil it
d ict</w>
bre ak</w>
b ill</w>
ash i</w>
Dem ocracy</w>
9 0</w>
7 .
sec retary</w>
ph one</w>
p ati
initi al</w>
im ports</w>
fe el</w>
fac tory</w>
Pau l</w>
emerg ency</w>
depend ent</w>
vis its</w>
suppor ters</w>
re v
out come</w>
ex t</w>
determin ed</w>
Bosni ak</w>
Bor is
ur g
targ et</w>
num erous</w>
en sive</w>
Barro so</w>
A fr
wor st</w>
vi ews</w>
peac eful</w>
particip ated</w>
loc ated</w>
buil dings</w>
accep ted</w>
val ues</w>
sm all
reven ues</w>
pro secution</w>
mo tion</w>
med ical</w>
indic ated</w>
h ouses</w>
h ands</w>
dec entr
c over
appro xim
Georg i</w>
An g
2 ,
su fficient</w>
stan ds</w>
s em
p un
massac re</w>
in ary</w>
connec tion</w>
concern ed</w>
re d
particip ating</w>
our g</w>
munic ations</w>
enter tain
direc tly</w>
develop ed</w>
con sen
ch ec
Part nership</w>
MP s</w>
sp ace</w>
qu al
ow ner</w>
eth er
cre ating</w>
app ed</w>
a i
N ether
Lon don</w>
p an
n ov
hom es</w>
event ually</w>
enti ties</w>
con clu
an ced</w>
al tern
HD Z</w>
s old</w>
peace keeping</w>
n or</w>
mar ks</w>
m echanis
le ar
ga thered</w>
f ans</w>
b ran
Nether lands</w>
I D</w>
Bel g
1 4
ver si
sel l</w>
road s</w>
pri or</w>
m a
lim ited</w>
ess ential</w>
er si
Bran ko</w>
Anton io</w>
Ah met</w>
tol er
syst ems</w>
sup ports</w>
min ent</w>
l and
L aj
war ning</w>
ugg ling</w>
ic eanu</w>
dis mis
arti sts</w>
S um
go t</w>
fe ar</w>
all owing</w>
ti ves</w>
si bil
ke t</w>
in come</w>
exper t</w>
civil ians</w>
ar ity</w>
al one</w>
ad equ
ve h
saf ety</w>
ore s</w>
giv ing</w>
fil ms</w>
dis t
be y
agric ulture</w>
S pec
L inda</w>
y s
v en</w>
v an</w>
un its</w>
u tions</w>
si mp
simp ly</w>
play ers</w>
m emor
industri al</w>
entertain ment</w>
ab ove</w>
st ations</w>
ran ean</w>
qu esti
inc idents</w>
g ain</w>
diffic ul
dam age</w>
consen sus</w>
bu y</w>
Mil an</w>
Med iter
EB RD</w>
there fore</w>
ro t
im mig
fav our</w>
O HR</w>
M ov
t our</w>
suppor ting</w>
re li
re ally</w>
manag ed</w>
celeb r
b ol
Tar iceanu</w>
Mediter ranean</w>
2 m</w>
vis iting</w>
sibil ities</w>
new ly</w>
ill ed</w>
fir ms</w>
fav our
facil ity</w>
dec ade</w>
bo os
b ack
an ci
R adic</w>
M eh
Integr ation</w>
D ut
C N
B ush</w>
B aj
ound up</w>
mo del</w>
execu tive</w>
contro versi
comm and</w>
appe ared</w>
R oundup</w>
Par v
Nat asa</w>
Karad aku</w>
we b
sol ve</w>
sal aries</w>
institu tional</w>
eng en</w>
el ess</w>
R o
read iness</w>
lic en
end or
al th
ro c
main tain</w>
intell igence</w>
fri end
cre ation</w>
c ateg
Ram ad
E S
ti m
ent ation</w>
dead line</w>
Spec ial</w>
H ou
D u
vol un
lo g
fug itive</w>
el i</w>
dem ands</w>
cro w
T i
May or</w>
B eta</w>
iz ed</w>
appl ication</w>
Sch engen</w>
Ot tom
Iv an</w>
Dut ch</w>
z a</w>
tal k</w>
sur ren
resol ving</w>
head quarters</w>
decentr alisation</w>
carr y</w>
as sets</w>
approxim ately</w>
Tur ks</w>
Pol and</w>
O p
th an
ro v</w>
newsp aper</w>
h ur
get ting</w>
encour age</w>
doc um
am a</w>
ac tors</w>
pro duce</w>
h u
el j
commer cial</w>
c ar
veh ic
ur al</w>
ur a</w>
st ation</w>
over come</w>
larg ely</w>
itar ian</w>
isten ce</w>
disc overed</w>
consequ ences</w>
an im
S O
Parv anov</w>
Christ mas</w>
tor ate</w>
ton n
sa fe</w>
s cand
relation ship</w>
re public</w>
pri m
ov ac</w>
mov ing</w>
dre w</w>
controversi al</w>
contribu tion</w>
c at
b it
assass ination</w>
A si
view ed</w>
mis sions</w>
l in</w>
h a</w>
dra f
bey ond</w>
administr ative</w>
W e
NG O</w>
treat y</w>
sus p
run ning</w>
re new
quar ter</w>
discus sion</w>
di vision</w>
c ak</w>
an sw
al d</w>
add ressing</w>
sh o
s of
reach ing</w>
min im
im age</w>
elec toral</w>
do or</w>
ann ually</w>
Macedon ians</w>
ign ty</w>
he v</w>
f ru
ess al
en for
complet ely</w>
comple x</w>
commit ments</w>
adv ant
Th essal
Chi ef</w>
C al
w ise</w>
stri ke</w>
aw are</w>
ar ms</w>
T er
Nov i</w>
Georg iev</w>
F u
F BiH</w>
un ds</w>
ter nal</w>
retur ned</w>
j e
in ter</w>
bu s</w>
Sti pe</w>
Mar t
Ja vier</w>
B ak
wit n
sovere ignty</w>
s ource</w>
reiter ated</w>
recomm end
rang e</w>
ra ising</w>
perman ent</w>
him self</w>
del ay</w>
all oc
Laj cak</w>
D is
3 m</w>
tr ict</w>
re a
por ary</w>
ou ght</w>
og lu</w>
high ly</w>
ear th
cle arly</w>
brid ge</w>
autonom y</w>
au di
appoin tment</w>
any thing</w>
O per
La w</w>
I li
week end</w>
t ack
shor t
ex clu
dro pped</w>
ati vely</w>
W est</w>
In d
port ation</w>
observ ers</w>
introduc ed</w>
ban king</w>
R el
Mold ova</w>
y ers</w>
win ning</w>
tiv eness</w>
ro te</w>
ph ot
olog ists</w>
l er</w>
inter nation
arrest s</w>
anci ent</w>
Syri a</w>
Res earch</w>
c op
Par is</w>
G r
D ay</w>
&apos; m</w>
w rote</w>
sh ar
respec tively</w>
re construction</w>
ne y</w>
nation alist</w>
le aving</w>
it a</w>
in st
g ets</w>
fac ed</w>
char ac
boo ks</w>
ay ed</w>
as ks</w>
alleg ations</w>
adem y</w>
S vet
S P</w>
Hou se</w>
to v</w>
pro minent</w>
prim ary</w>
p ush</w>
iv er</w>
b ad</w>
air port</w>
Roman ians</w>
C ha
4 4</w>
u sic</w>
represent ing</w>
reconc iliation</w>
p aper</w>
ou red</w>
oper ational</w>
offic es</w>
m ass</w>
increas ingly</w>
identi fied</w>
fin ding</w>
develop ing</w>
contro l
Thessal on
Ch amber</w>
requ ire</w>
re ve
play er</w>
f lo
an g</w>
ab s
Techn ology</w>
N a
t esti
requi res</w>
regul ar</w>
mov ed</w>
is ol
hel ped</w>
finis hed</w>
fi f
diplom ats</w>
P h
Mov ement</w>
Mart ti</w>
M or
C anad
wor ked</w>
t ation</w>
si m
sc ore</w>
resign ation</w>
proced ure</w>
prac tice</w>
oc cur
hol ding</w>
e astern</w>
det ails</w>
add ressed</w>
Thessalon iki</w>
Buc kovski</w>
wid ely</w>
stre ets</w>
st ory</w>
num bers</w>
med al</w>
ast s</w>
activ ity</w>
St anis
ti tu
restric tions</w>
func tioning</w>
e ffici
The atre</w>
Ch urch</w>
Ch ar
tri p</w>
sustain able</w>
ser i
netw or
it h</w>
fun d</w>
es n</w>
bass y</w>
P or
Hungar ian</w>
Em bassy</w>
un il
stud ent</w>
st u
hosp ital</w>
g res
fund am
expl os
differen ces</w>
civil ian</w>
adop t</w>
Ukr aine</w>
Ira qi</w>
sec ret</w>
se at</w>
s anc
prob ably</w>
mu tual</w>
ke l</w>
her itage</w>
extre mis
ek om</w>
diplom at</w>
S il
u til
strong ly</w>
seas on</w>
ri d
op posed</w>
f ic</w>
el led</w>
do esn</w>
alis tic</w>
R as
Lib eral</w>
y l
se ems</w>
rem ained</w>
minis tries</w>
b ase</w>
R T
Pe ter
J el
G en
E duc
D anu
te ams</w>
meas ure</w>
i bility</w>
gu ard</w>
fri ends</w>
euro zone</w>
ent ing</w>
claim ed</w>
St an
H P</w>
F ree</w>
Ale ks
19 7
val ue</w>
un less</w>
sugg est</w>
s pr
reduc ed</w>
hop ing</w>
col labor
c ode</w>
c ause</w>
Tal at</w>
S i
regul ations</w>
proc eed
ow ners</w>
improv ement</w>
gr anted</w>
employ ed</w>
dro p</w>
bloc ked</w>
P er
F re
substan tial</w>
ref used</w>
re ality</w>
offic er</w>
off ering</w>
ip ovic</w>
internation ally</w>
c ars</w>
D el
3 1st</w>
ver dict</w>
un iversity</w>
sur ve
on ic</w>
fil ed</w>
describ ing</w>
dec re
altern ative</w>
V er
Pe ople</w>
B lo
B ab
the astern</w>
promis es</w>
dou ble</w>
av es</w>
Ottom an</w>
8 .
sent ence</w>
histor ical</w>
g er</w>
f os
For ces</w>
Constitu tional</w>
B oz
9 .
war ded</w>
scienti sts</w>
rot ating</w>
reti red</w>
reduc tion</w>
ran ked</w>
inten ded</w>
f ra
equ al</w>
d in
c um
athle tes</w>
ast ing</w>
an e</w>
MR O</w>
Iv ica</w>
Danu be</w>
1 m</w>
&apos; re</w>
y ment</w>
v od
u t</w>
tonn es</w>
sur ance</w>
paren ts</w>
p ace</w>
ov ery</w>
me ant</w>
fi as</w>
difficul ties</w>
conduc t</w>
S a
R iver</w>
In dependent</w>
stan ces</w>
r is</w>
o y
m a</w>
eas y</w>
desig ned</w>
b ing</w>
attr act</w>
appe ar</w>
any one</w>
Christo fias</w>
2 ,000</w>
ut es</w>
prec ed
leg ally</w>
acc el
V uj
1 6
sub ject</w>
lin ked</w>
invol ving</w>
in aug
cla im</w>
ag ement</w>
B an</w>
ve ter
s per
exerc ise</w>
chap ters</w>
app ly</w>
V MRO</w>
Pu bl
P SD</w>
Cos tas</w>
s cre
re presented</w>
pre dic
op tion</w>
high l
gu il
ess en</w>
am bassador</w>
Tel ekom</w>
T e
Has ani</w>
win ner</w>
st ressing</w>
sent enced</w>
ran king</w>
im posed</w>
ass ist</w>
Bl ic</w>
w estern</w>
thou ght</w>
pow er
initi ally</w>
h our</w>
cu ts</w>
c overed</w>
ab use</w>
Mi ros
rel ev
pre me</w>
or dered</w>
op ens</w>
go es</w>
fac tors</w>
du ties</w>
destro yed</w>
ch urch</w>
aj ic</w>
M N
Invest ment</w>
um b
st ing</w>
set ting</w>
remar ks</w>
propos als</w>
oth er
on d
municip al</w>
iti ves</w>
high way</w>
b ul
ar m</w>
L az
Ber lin</w>
threat ened</w>
t oc
sal ary</w>
it ec
inv ited</w>
in t</w>
happ y</w>
guaran tee</w>
fel l</w>
direc tion</w>
aff ir
ac ic</w>
V ice</w>
Ru gov
Nor th</w>
Miros lav</w>
ster ity</w>
sol utions</w>
small er</w>
ris ks</w>
la g</w>
foun ded</w>
au sterity</w>
as si
4 5</w>
un able</w>
u me</w>
n is</w>
conc ert</w>
chil d</w>
agre es</w>
S ports</w>
Ac tion</w>
wel come</w>
under standing</w>
stre et</w>
sal es</w>
reg ions</w>
profes sion
may or</w>
l ose</w>
enfor cement</w>
e ase</w>
dec line</w>
contribu ted</w>
attemp ts</w>
ann is</w>
ad in
Pol ic
Peter sen</w>
M at
Educ ation</w>
wa it</w>
ul ation</w>
seri ously</w>
sen se</w>
s low</w>
ro om</w>
ra il
pur su
o red</w>
mar ily</w>
la m</w>
kill ing</w>
ir i</w>
dep ends</w>
adequ ate</w>
S DP</w>
P av
H ad
Car la</w>
A ustr
wor ds</w>
th ly</w>
tec tion</w>
ro se</w>
ne ither</w>
fug itives</w>
ad ds</w>
Rugov a</w>
&apos; ve</w>
ot ing</w>
ordin ary</w>
or ation</w>
ed a</w>
d en</w>
b arr
Voj vod
S N
Pol iti
O b
J essen</w>
4 00</w>
w illing</w>
rup t</w>
previ ously</w>
or ti
c y
boycot t</w>
ass embly</w>
M ust
Liby an</w>
tren d</w>
st ed</w>
prepar e</w>
pow ers</w>
por ted</w>
ju red</w>
if y</w>
den ied</w>
de aling</w>
can c
be l</w>
batt le</w>
adv oc
Mos tar</w>
DS S</w>
ur ies</w>
tro u
satis fied</w>
re presents</w>
pro sper
mis sing</w>
det ained</w>
MN E</w>
DP MNE</w>
7 m</w>
transf erred</w>
t ments</w>
so red</w>
prepar ing</w>
prepar ations</w>
per spec
on ing</w>
old en</w>
ob tain</w>
in jured</w>
g i
cross ing</w>
compu ter</w>
cho ice</w>
c i</w>
5 0m</w>
struc turing</w>
ord ination</w>
fu el</w>
er ate</w>
discrimin ation</w>
a ur
Publ ic</w>
under stand</w>
spokes person</w>
rul ed</w>
pu ties</w>
pro m</w>
ex ternal</w>
determin e</w>
ail ed</w>
Mer kel</w>
La ura</w>
Chris tian</w>
CN N</w>
u tog
sub si
statisti cs</w>
st op
st ar</w>
spon sored</w>
sou th</w>
signific antly</w>
p ush
ins isted</w>
happen ed</w>
gener ally</w>
fiel ds</w>
al lies</w>
ak ia</w>
T elec
C lin
v ic</w>
t act</w>
s is</w>
relev ant</w>
ran ks</w>
politic ally</w>
he alth
har mon
enterpris es</w>
de ad</w>
cont est</w>
arrang ement</w>
T our
I z
C ath
Ac ademy</w>
A y
tr ue</w>
ten tion</w>
suppl ies</w>
s n
oper ator</w>
ill s</w>
id entity</w>
al ia</w>
Must af
D ur
B oj
wor k
shi p
promot ing</w>
por ting</w>
med als</w>
fail ing</w>
appe al</w>
ag s</w>
Str ateg
4 m</w>
utog lu</w>
pri marily</w>
post pon
pen sions</w>
obstac le</w>
exten ded</w>
en tered</w>
ed ging</w>
coll ap
ass ociation</w>
as kovic</w>
Dav utoglu</w>
A R
targ ets</w>
struc tural</w>
power ful</w>
m ous</w>
initi atives</w>
et ary</w>
er ring</w>
b ar
an o</w>
am ed</w>
EU FOR</w>
D us
ob t
f requ
cons orti
add y</w>
ac compan
Gaz prom</w>
Cha irman</w>
Boris ov</w>
Bl er
wit ness</w>
vot er</w>
up on</w>
th u
t ou
str onger</w>
om munications</w>
networ ks</w>
mar king</w>
fi l</w>
e u
d less</w>
d ig
critic s</w>
con serv
comm ents</w>
c ally</w>
bu c
boos ting</w>
as pec
Stanis hev</w>
Soci alists</w>
P S</w>
Jap an</w>
v a</w>
ug s</w>
t ar
sp end</w>
se eks</w>
r ant</w>
prof it</w>
os ki</w>
m ac
k ic
exp an
ex istence</w>
dom in
ass y</w>
ac ti
Medi ap
M aj
Isra eli</w>
A ra
A gr
5 5</w>
y a</w>
us ers</w>
regar dless</w>
pro toc
obstac les</w>
o iu</w>
effici ency</w>
accor d</w>
Polic y</w>
P addy</w>
For um</w>
Din kic</w>
vis ed</w>
un acceptable</w>
th ers</w>
om berg</w>
l iter
hon our</w>
am an</w>
agric ultural</w>
af ter
ab ol
Stu dies</w>
Minis ters</w>
Jos ipovic</w>
J ose</w>
For ce</w>
sh owing</w>
sc ale</w>
os ia</w>
im pres
hand ed</w>
expec tations</w>
c ep
b es
appro pri
ak s</w>
Su preme</w>
Kur ds</w>
w al
spr ing</w>
re publ
purch ase</w>
ph ys
integr ity</w>
g ame</w>
fac tor</w>
ens uring</w>
d ed
V AT</w>
S plit</w>
Blo omberg</w>
6 m</w>
viol ations</w>
spo ke</w>
leg iti
har d
draw n</w>
ch ances</w>
b ids</w>
Vojvod ina</w>
SO K</w>
PA SOK</w>
O z
Ja ap</w>
C ek
sanc tions</w>
ov i
nam es</w>
min d</w>
m ann
lin ks</w>
law yer</w>
ist ant</w>
ins ists</w>
heav y</w>
er ies</w>
elj ko</w>
cor por
com par
chang ing</w>
Z iv
Pro gram
Organis ation</w>
Mil o</w>
Mic ha
Georg ia</w>
Dnev nik</w>
Bo ard</w>
web site</w>
scienti fic</w>
le y</w>
guil ty</w>
en able</w>
clos ely</w>
cl ash
P f
F oundation</w>
transparen cy</w>
suggest s</w>
re structuring</w>
r ich</w>
ou l
iv ersi
ful fil</w>
en visions</w>
consid ering</w>
bel ow</w>
as yl
Pf P</w>
M anu
Aleks and
wi fe</w>
wa iting</w>
ol a</w>
norm al</w>
asyl um</w>
appe ars</w>
ap ar
Vuj anovic</w>
Dr askovic</w>
zer land</w>
writ er</w>
wit zerland</w>
sur ro
receiv ing</w>
preh ensive</w>
op ol
los ses</w>
invest ed</w>
expan sion</w>
ex ist</w>
e fficient</w>
certain ly</w>
as tic</w>
an ic</w>
amp ;</w>
a wards</w>
S witzerland</w>
S ul
Afr ica</w>
& amp;</w>
str ugg
sha res</w>
min es</w>
li ons</w>
ir ing</w>
enti ally</w>
dem ocr
arch itec
Nic osia</w>
I bra
B usin
B og
Ac cor
ten nis</w>
st ood</w>
sm uggling</w>
se arch</w>
sc ene</w>
refuge e</w>
optimis tic</w>
in spec
i fied</w>
determin ation</w>
ch o</w>
and a</w>
ac tor</w>
Stre am</w>
Sp an
Meh met</w>
Mediap ool</w>
5 0,000</w>
ro l
reduc ing</w>
presid ents</w>
pay ing</w>
fra ud</w>
for tun
f lag</w>
consum ers</w>
consorti um</w>
az z</w>
as pir
Stef an</w>
IC J</w>
E SC
w ast
tw are</w>
res ort</w>
ph ere</w>
mov es</w>
los s</w>
inaug ur
immedi ate</w>
h ood</w>
g un
competi tive</w>
cent res</w>
campa ig
buc co</w>
bro ad</w>
S av
K ov
G i
Di ary</w>
Con tact</w>
Com man
1 50</w>
&apos; ll</w>
wh om</w>
vi de
suspec t</w>
spe ak</w>
spar ked</w>
produc ed</w>
os en</w>
occur red</w>
fif th</w>
f arm
extrad ition</w>
enjo y</w>
elec t</w>
dem anding</w>
de partment</w>
coun ts</w>
convic ted</w>
as sive</w>
Na bucco</w>
Is lam</w>
H ur
some one</w>
sign al</w>
republ ics</w>
princi ple</w>
pos ing</w>
perspec tive</w>
pass eng
n ic</w>
es sions</w>
dr am
cir cum
Pro secu
P at
Ci oc
Ch ampionship</w>
war time</w>
tri gg
transi t</w>
protec ted</w>
f loo
en vis
V as
Q a
Por t
P o
Micha el</w>
F I
C HP</w>
Belg ium</w>
An te</w>
7 ,000</w>
wh ere
respond ents</w>
ov ar</w>
other wise</w>
k g</w>
h iding</w>
effec ts</w>
educ ational</w>
dam aged</w>
au th
ag n
acknowl edged</w>
R ex
Pre sid
F on
E gy
Comman der</w>
Cioc oiu</w>
Cek u</w>
on ze</w>
im possible</w>
ev al
construc tive</w>
consid erable</w>
commun ication</w>
comb at</w>
becom es</w>
announ cement</w>
alis ing</w>
Mar ina</w>
Govern ment</w>
8 m</w>
v owed</w>
trans portation</w>
susp ended</w>
ro ute</w>
n ever
man u
ke pt</w>
in surance</w>
ap ers</w>
J ud
w age</w>
th eless</w>
prac ti
never theless</w>
gener als</w>
er i</w>
ed eral</w>
def end
citiz en
as ion</w>
Sci ence</w>
P I</w>
un ity</w>
u red</w>
tem porary</w>
sil ver</w>
pri ze</w>
o to</w>
in str
f ast</w>
el ines</w>
el ic</w>
e tr
UN ESC
UNESC O</w>
Slov akia</w>
O n
3 ,000</w>
tr u
sub mit</w>
sof tware</w>
re n</w>
ol ic</w>
i day</w>
de puties</w>
dang erous</w>
d id
cover ing</w>
bo dies</w>
b on
acti vis
achiev ing</w>
St ability</w>
Pro tection</w>
Pro f
P ress</w>
Bulgar ians</w>
10 ,000</w>
ti v</w>
remov ed</w>
pl at
op oulos</w>
iti on
it als</w>
i ri
f ic
did n</w>
comple tion</w>
col le
carr ying</w>
Z aman</w>
Qa eda</w>
Mu ham
Iv anov</w>
He alth</w>
6 5</w>
. b
wid es
wides pread</w>
serv ing</w>
reun ification</w>
requi rement</w>
op pon
n ar
gre en</w>
enter ing</w>
collec tion</w>
candid acy</w>
c ra
at ro
an ia</w>
ac tual</w>
V es
UN DP</w>
U I</w>
P act</w>
Eur Ac
Bler ta</w>
Ara b</w>
Alex ander</w>
win s</w>
we ak
w ish</w>
vill ages</w>
ter ing</w>
ro w
pris on
organis ers</w>
manu fac
ld wide</w>
fa ther</w>
e ted</w>
clu b</w>
arg ues</w>
al le
Span ish</w>
M un
Kos or</w>
A k
t ting</w>
se a</w>
s plit</w>
re sident</w>
perform ed</w>
p i</w>
ide as</w>
hol iday</w>
fa x</w>
ell ing</w>
b ly</w>
af i</w>
M et
7 5</w>
y r
unil ateral</w>
objec tive</w>
mus eum</w>
me ets</w>
los ing</w>
legiti m
g ir
citizen ship</w>
cam p</w>
Mi ha
M P</w>
E R
Bak oy
A s
witn esses</w>
vehic les</w>
v ers</w>
ty p
ti tle</w>
str y</w>
sa d</w>
res ear
mon thly</w>
mann er</w>
in ic</w>
hos ts</w>
giv es</w>
event ual</w>
em en</w>
distribu tion</w>
at titu
ar ities</w>
advis er</w>
Rex he
P an
Lu x
B ud
w ages</w>
surren der</w>
si ze</w>
ren ess</w>
oblig ation</w>
jud ge</w>
iversi ties</w>
investig ations</w>
gr ant</w>
fam ous</w>
exc ept</w>
effec tively</w>
doc tors</w>
appl ied</w>
ak is</w>
Manu el</w>
Fon iqi</w>
EurAc tiv</w>
E u
A v
tow ns</w>
squ are</w>
sh ot</w>
r ural</w>
p il
multi ethnic</w>
larg er</w>
govern ance</w>
e ar</w>
competi tiveness</w>
com prehensive</w>
co ast</w>
as ide</w>
and um</w>
adin aj</w>
Program me</w>
Lux emb
Li ber
Har adinaj</w>
D UI</w>
y le</w>
tu red</w>
tour nam
represent ation</w>
per cent
of i</w>
low est</w>
inf ec
direc ted</w>
conf ident</w>
cha ir
awa reness</w>
ast ase</w>
acc us
S ad</w>
Pop escu</w>
Nikol ovski</w>
Gu ard
20 13</w>
1. 5</w>
t asks</w>
sha red</w>
sc en
ra m</w>
r o</w>
pre lim
facilit ate</w>
ext rem
e j
dr ugs</w>
dest ination</w>
del ayed</w>
cho ose</w>
Ser vice</w>
S elim
N astase</w>
K o
K ab
Iv anovic</w>
Asi a</w>
wor ldwide</w>
um s</w>
tri als</w>
tr a</w>
teach ers</w>
t ress</w>
recommend ations</w>
minim um</w>
in side</w>
fundam ental</w>
do z
deplo yment</w>
ap art</w>
Tour ism</w>
Ph il
Mar kovic</w>
L DK</w>
Dnev n
B es
tel ep
rest aur
qu ite</w>
perform ances</w>
organis e</w>
it es</w>
inten si
feat ures</w>
extrem ely</w>
es ki</w>
el l</w>
b acking</w>
as king</w>
argu ing</w>
a i</w>
Sto jan
S en
Luxemb ourg</w>
J ourn
Guard ian</w>
Dan i
Bab acan</w>
viol ent</w>
stand ard</w>
shor tly</w>
re place</w>
re alistic</w>
prelim inary</w>
pen al
p age</w>
ord ers</w>
kill ings</w>
ir regul
initi ated</w>
fa il</w>
conc er
c a</w>
arg ue</w>
anc ell
St aff</w>
Rad ical</w>
Mak fax</w>
Le ague</w>
G o
C ity</w>
A t
uni que</w>
un iversities</w>
trad ition</w>
ter ror</w>
pre f
ol ution</w>
medi um</w>
inter pre
in em
f em
b ar</w>
ac adem
Rexhe pi</w>
Inter net</w>
G ord
sovere ign</w>
farm ers</w>
el d</w>
control led</w>
b ic</w>
appropri ate</w>
Rel ations</w>
.b g</w>
top ics</w>
toler ance</w>
su ffered</w>
qu ick</w>
not es</w>
human itarian</w>
great est</w>
est ate</w>
comm od
bri ef
be au
bal ance</w>
al liance</w>
ak es</w>
advant age</w>
ac compl
Soci ety</w>
Prosecu tor</w>
M a
Dus an</w>
Ar t</w>
A NA</w>
6 00</w>
success fully</w>
sign s</w>
sent ences</w>
pass ports</w>
it able</w>
h or
fe as
exp and</w>
du ty</w>
de tention</w>
comp ens
ancell or</w>
Lj ajic</w>
K ofi</w>
C l
z i</w>
ul ty</w>
step ped</w>
poin ted</w>
mil it
kn owl
demonstr ate</w>
deliv ered</w>
circum stances</w>
a warded</w>
Rob ert</w>
N o
Ibra him</w>
tournam ent</w>
re ad</w>
je op
in ese</w>
hou se
favour able</w>
exten d</w>
en abl
eed ed</w>
dom inated</w>
de ter
be at</w>
Sum mer</w>
Ram a</w>
Port ug
Op en</w>
Kurdis tan</w>
Eu observer</w>
Ch inese</w>
B est</w>
Aleksand ar</w>
Air lines</w>
199 6</w>
voic ing</w>
proc esses</w>
ob vi
mon etary</w>
m ent
ition ally</w>
form ally</w>
expres sion</w>
el ements</w>
de ep</w>
compl ain
comm emor
br onze</w>
accoun ts</w>
accompan ied</w>
Pl us</w>
H al
Fin an
Elec tion</w>
Busin ess</w>
v nik</w>
us ti
ur ges</w>
ug ht</w>
th nic</w>
sing er</w>
sig ht</w>
scand al</w>
protoc ol</w>
improv ements</w>
ig ible</w>
h un
h ic</w>
gl ish</w>
ed itor</w>
cross ings</w>
ap paren
alle l</w>
N eb
Euro vision</w>
En glish</w>
wor ri
resul ted</w>
remov e</w>
re action</w>
produc er</w>
par allel</w>
occ up
m assive</w>
knowl edge</w>
endor sed</w>
defin ed</w>
d y</w>
c ards</w>
accus ations</w>
abil ities</w>
Bosni aks</w>
0 km</w>
v ers
su it</w>
sol ved</w>
retur ns</w>
res c
percent age</w>
or i
in ations</w>
fl ights</w>
co ast
ch osen</w>
atten ding</w>
U SA
Mustaf a</w>
Dav or</w>
D acic</w>
8 00</w>
20 ,000</w>
199 3</w>
z ko</w>
ut sch
tur ning</w>
ti tled</w>
publ ic
n j
l isted</w>
contr acts</w>
care er</w>
bl ed</w>
anti cip
all ows</w>
W h
V et
S and
Parliam entary</w>
C vet
Ad ministr
tr uc
terror ists</w>
sev ere</w>
s we
reg ard</w>
pur pose</w>
promp ted</w>
pro per</w>
mul ti</w>
mo tiv
ke ts</w>
irregul arities</w>
expen sive</w>
dis trict</w>
ag ues</w>
Neb oj
In zko</w>
v ac
t ough</w>
s ong</w>
re placed</w>
pro visions</w>
ordin ator</w>
mater i
lead s</w>
j usti
d y
cap able</w>
ar dis
ach es</w>
S el
F air</w>
Dani el</w>
D A</w>
Canad a</w>
C ris
A ward</w>
writ ten</w>
wast e</w>
ty pe</w>
tell ing</w>
s man</w>
respon sibilities</w>
resear ch
pati ents</w>
origin al</w>
op les</w>
met res</w>
intell ec
igh ted</w>
enh ance</w>
el se
bes ides</w>
ati cally</w>
argu ed</w>
Swed en</w>
Ser g
S lav
In formation</w>
199 0</w>
um n</w>
tion ed</w>
se es</w>
fe ars</w>
exc ep
estim ates</w>
en ic</w>
else where</w>
earth qu
doub t</w>
at edly</w>
af for
ac tually</w>
Milos oski</w>
Finan cial</w>
3 2</w>
un fortun
secul ar
s pread</w>
s li
rid or</w>
reven ue</w>
proceed ings</w>
pl ays</w>
n ature</w>
m ore
iv es</w>
ist ent</w>
indic tee</w>
im munity</w>
h i</w>
fac ts</w>
business men</w>
ap e</w>
W el
S DS
R ic
Neboj sa</w>
Mil ovanovic</w>
Char ter</w>
wr ong</w>
win ter</w>
tic ally</w>
sus pic
olog ies</w>
l ong
ins ist</w>
inc umb
in stance</w>
econom ist</w>
clos ure</w>
cap ture</w>
as n
ad j
accor dance</w>
acc o</w>
Sar k
I C</w>
Com mer
1 00,000</w>
vis as</w>
v als</w>
sym bol
ri yet</w>
protest ers</w>
priv ati
n one</w>
mak er</w>
loc ation</w>
legisl ative</w>
ld n</w>
is c
integr ated</w>
ga p</w>
friend ly</w>
ed ges</w>
d im
chap ter</w>
bu rea
as sum
ap s</w>
anc ing</w>
SDS M</w>
Pu tin</w>
Dur res</w>
st ock</w>
si x
sen ding</w>
sec ond
rail way</w>
r ally</w>
play ing</w>
pl us</w>
pen ding</w>
mil lions</w>
maint aining</w>
j um
he art</w>
g ained</w>
elim in
coun t</w>
con solid
che v</w>
at mos
K om
E cho</w>
Clin ton</w>
1 20</w>
utsch e</w>
se ized</w>
pro vis
on line</w>
o x
more over</w>
incre ases</w>
in k</w>
guaran tees</w>
f res
dec lined</w>
ch amp
adv ance</w>
USA ID</w>
U K</w>
3 6</w>
3 4</w>
sub sequ
sh op</w>
remov al</w>
ra id</w>
prosper ity</w>
plac ing</w>
pe ti
of t</w>
manag er</w>
m ap</w>
introduc tion</w>
incumb ent</w>
he aring</w>
g ree</w>
fl u</w>
expl ains</w>
ess ing</w>
de struction</w>
de gree</w>
de als</w>
d a</w>
conv in
charac ter
ch an
assu red</w>
Jo hn</w>
HI NA</w>
Ch ancellor</w>
Armen ian</w>
Amer ica</w>
A p
1 00m</w>
tr ain</w>
t ent</w>
secul ar</w>
resc ue</w>
repe atedly</w>
ren ov
protec ting</w>
oz y</w>
min ing</w>
m arg
keep ers</w>
ex plo
el igible</w>
eas ier</w>
dis placed</w>
convin ced</w>
bloc king</w>
atmos phere</w>
at ures</w>
archae ologists</w>
all s</w>
Val enti
Sark ozy</w>
L im
L A</w>
Bakoy annis</w>
s elected</w>
ro g
respond ent</w>
promis ing</w>
prac tical</w>
lin k</w>
ju g</w>
human ity</w>
g ang</w>
ed y</w>
eas ily</w>
celebr ated</w>
categ ory</w>
add afi</w>
V is
S F</w>
L ab
K u
A u
, 500</w>
v ul
se aled</w>
not e</w>
me th
l o</w>
fur ther
fac tion</w>
f are</w>
draf ted</w>
dep end</w>
cre di
clash es</w>
b ail
announ cing</w>
analy sis</w>
am bassad
Valenti n</w>
V en
Pal est
Hur riyet</w>
C ap
8 ,000</w>
urg ent</w>
sp ir
si z
sc ores</w>
per pe
or ic</w>
kic ked</w>
in stability</w>
in formal</w>
immig rants</w>
ic ate</w>
emphas ised</w>
cust om
cont act</w>
colle agues</w>
citiz en</w>
ass ess</w>
Ziv kovic</w>
Y ear</w>
Air port</w>
v ital</w>
ov ers</w>
m enti
ins isting</w>
h ag
further more</w>
fo rec
ded icated</w>
consum ption</w>
com ment</w>
cl ass
bran ch</w>
bil ls</w>
aj d
V ic
Tan jug</w>
Reg ional</w>
Politi cal</w>
K er
Dj elic</w>
wor se</w>
us u
t al</w>
spokes woman</w>
smo king</w>
sit u
sho oting</w>
sel ling</w>
pan el</w>
n ish</w>
k u</w>
hop ed</w>
govern ing</w>
foun der</w>
dem anded</w>
dang er</w>
compe te</w>
co h
co ach</w>
b on</w>
b arri
ab sol
Pl an</w>
Pet ar</w>
Mis sion</w>
G all
De utsche</w>
Cvet kovic</w>
C lu
B en
vul n
top ic</w>
pre ci
pay ment</w>
modern isation</w>
mechanis m</w>
mater ial</w>
lin ing</w>
licen se</w>
guaran te
envis ion
doz ens</w>
bro vnik</w>
audi ence</w>
am p</w>
a ths</w>
Top i</w>
Prof essor</w>
Pr l
N et
Muham et</w>
M in
Kov ac
Kon j
H ell
H el
G olden</w>
Du brovnik</w>
A zer
1 7
ur ban</w>
t z</w>
st or
ref erring</w>
politic ian</w>
pat ri
li ved</w>
inde x</w>
gro unds</w>
differen ce</w>
cou ple</w>
co m</w>
au tom
aspec ts</w>
answ er</w>
Ste in
Le ban
Cal in</w>
Bra j
with draw</w>
sti pul
ros oft</w>
request ed</w>
prof ile</w>
pass ing</w>
op h
negoti ation</w>
intro duce</w>
id ar</w>
demonstr ated</w>
deliv er</w>
cor respondent</w>
cl es</w>
celeb rate</w>
canc er</w>
bro ke</w>
a str
R ice</w>
P DK</w>
Mic rosoft</w>
Kab ashi</w>
Co E</w>
under ing</w>
un ions</w>
strugg le</w>
rec overy</w>
no body</w>
k en</w>
ju b</w>
iri t</w>
ha iled</w>
en or
du b
c ru
bel ong
ban k
b in</w>
amoun ts</w>
a x</w>
Trans port</w>
Sch war
For mer</w>
4 3</w>
us ually</w>
tw ice</w>
telec ommunications</w>
telec om</w>
su ff
perpe tr
mom ent
memor andum</w>
l ess
in j
eb ook</w>
e ing</w>
c ast</w>
b all
Syri an</w>
Prl enda</w>
Fre edom</w>
En g
E d
3 3</w>
un ding</w>
sh ops</w>
sc ar
relig ion</w>
pot entially</w>
p sy
ovi et</w>
iv ed</w>
im pose</w>
i th
gi ant</w>
feat uring</w>
est s</w>
eng ine
dis play</w>
condem ned</w>
barr ic
ban ned</w>
arti cle</w>
ar k</w>
ad ed</w>
T re
S oviet</w>
Ramad an</w>
G addafi</w>
Alex and
20 m</w>
wa ve</w>
w ind
w ake</w>
viol ation</w>
t ac
surpris e</w>
st ated</w>
sou theast</w>
om en</w>
mor ning</w>
mi xed</w>
l ec
inter im</w>
hou sing</w>
health care</w>
el ing</w>
don ors</w>
be ha
b une</w>
b id
ad mission</w>
Sw is
S an
E v
Cri mes</w>
B y
sl ow
recomm ended</w>
re vi
on y
min ute</w>
h et
g one</w>
ed oms</w>
e i</w>
dismis sed</w>
br ings</w>
b ought</w>
achiev ements</w>
ab and
Vlad o</w>
D ar
Baj ram</w>
10 m</w>
w est</w>
tri c</w>
tack le</w>
t ext</w>
ou ts</w>
orig in</w>
on y</w>
mat ters</w>
l ists</w>
igh t
e try</w>
beg un</w>
atro cities</w>
ambassad ors</w>
am ir</w>
Presid ency</w>
Nic ol
Med ia</w>
MI A</w>
Kr asn
In iti
B ro
B la
w ind</w>
ul ated</w>
ten sion</w>
s ile</w>
re signed</w>
psy ch
prev enting</w>
practi ces</w>
pol is</w>
par k</w>
ot ed</w>
op pose</w>
moment um</w>
mag az
m other</w>
loc k</w>
ij ing</w>
he ard</w>
ha b
expres sing</w>
emb assy</w>
cor rec
commun ications</w>
c li
at er
Z eljko</w>
Tri bune</w>
Serg ey</w>
Fin nish</w>
E F</w>
Con ference</w>
Be ijing</w>
vide o</w>
ve to</w>
stop ped</w>
respon d</w>
pre ne
peace keepers</w>
om ir</w>
olog ist</w>
neighb our</w>
lim it</w>
ket ball</w>
jeop ardis
hy dro
hu a</w>
hot els</w>
hot el</w>
h one</w>
exclu sive</w>
em ed</w>
dis aster</w>
cont ing
concer ts</w>
clos ing</w>
ch em
at ings</w>
Sh k
Gre at</w>
Fac ebook</w>
199 7</w>
shor i</w>
re actions</w>
ra in</w>
monit or</w>
ma xim
m al</w>
inter vention</w>
ik usic</w>
ic ine</w>
ic ians</w>
fem ale</w>
do ors</w>
des ign
de aths</w>
counter parts</w>
contribu tions</w>
cont ext</w>
ci pl
bl og
b ak
Pet ro
O M</w>
N e
Mir ko</w>
G or
Dimit rov
Constitu tion</w>
Bo y
var i
tel l</w>
sec tion</w>
re thnic</w>
pol ling</w>
pl an
per form</w>
over ha
materi als</w>
laun ching</w>
hur d
h in
gr at
encour aging</w>
conserv ative</w>
connec ted</w>
conclu sion</w>
collec tive</w>
claim ing</w>
b acks</w>
all ing</w>
Vuk ovar</w>
Stojan ovska</w>
Res olution</w>
M ur
Har is</w>
E st
5 1</w>
tru th</w>
ti s</w>
succ eed</w>
satis faction</w>
pu tting</w>
loo ks</w>
inde ed</w>
gro w</w>
grad u
fin als</w>
del ays</w>
Stre et</w>
Stan kovic</w>
St and
Palest in
Konj ikusic</w>
Had zic</w>
Fil ip</w>
Com mun
Ch il
sion ers</w>
rel atively</w>
pol l
ow nership</w>
oun ded</w>
j un
in nov
gen eration</w>
es sive</w>
dic t
beha vi
at i</w>
ad ver
U l
Mo is
Com p
Braj shori</w>
A N
19 6
ul ti
tal king</w>
surro unding</w>
st abil
ri ots</w>
reve aled</w>
rad ical</w>
p as
mac ro
il ing</w>
feat ure</w>
enor mous</w>
cont ent</w>
commis sioner</w>
comb ined</w>
attr acting</w>
ad mitted</w>
X in
U r
Swed ish</w>
Mois iu</w>
L is
K em
J ean</w>
HI V</w>
H y
G al
G 17</w>
F TA</w>
Bog d
. com</w>
wel coming</w>
w ill
tor ture</w>
t ains</w>
pe l</w>
optimis m</w>
is on</w>
f er
ex press</w>
el se</w>
de pos
bail out</w>
are t
appe ar
a ther</w>
Xin hua</w>
Wor kers</w>
Pri ze</w>
Ob ama</w>
K i</w>
Her ald</w>
H am
F A</w>
Cor ruption</w>
Com munity</w>
Be q
wr apped</w>
sa ve</w>
retur ning</w>
res hold</w>
reflec t</w>
public ly</w>
out look</w>
mis sile</w>
menti oned</w>
mechanis ms</w>
la undering</w>
gov ic</w>
dis cipl
depend ence</w>
decre ase</w>
d es</w>
ap prove</w>
Pe ter</w>
P A</w>
N ano</w>
Mar ovic</w>
L ist</w>
Dimit ris</w>
Ar ti
Ag im</w>
vers y</w>
un ited</w>
tr ation</w>
telep hone</w>
ste ad
respec ted</w>
re bel
parti te</w>
ne ar
mo on</w>
inte rethnic</w>
im port</w>
func tion</w>
conv ince</w>
consid ers</w>
compl icated</w>
commun ism</w>
aut umn</w>
a us
Swis s</w>
M c
I ran
Cor por
Boj ana</w>
A I
4 8</w>
3 7</w>
util ity</w>
usu f</w>
unfortun ately</w>
sen si
see ing</w>
res um
r s</w>
op tions</w>
o es</w>
o ana</w>
mig ration</w>
m iddle</w>
it i</w>
in ovic</w>
fore ig
fi res</w>
draw ing</w>
cap e</w>
c ig
auth or</w>
arti st</w>
ar ily</w>
al i</w>
Ti hic</w>
M E
Krasn iqi</w>
K ore
K LA</w>
Comp any</w>
Commer ce</w>
we b</w>
un employed</w>
tr ag
ser ves</w>
res ume</w>
produc ers</w>
mos que</w>
it ely</w>
hap s</w>
h ter</w>
floo ds</w>
f ederal</w>
encour aged</w>
diplom acy</w>
coun ter</w>
collap se</w>
as ing</w>
affir med</w>
Pro c
I S</w>
G l
4 1</w>
tre as
stri kes</w>
sp irit</w>
res ses</w>
rec ession</w>
plat form</w>
oppon ents</w>
is ic</w>
i at</w>
dispu tes</w>
deter i
deplo yed</w>
conc ept</w>
cig aret
ast ers</w>
ac commod
Y il
W il
U PI</w>
P ost</w>
M oun
Croati ans</w>
Bar bu
Administr ation</w>
4 6</w>
sh all</w>
pic ture</w>
mon opol
lear n</w>
investig ate</w>
hos ting</w>
hand le</w>
decis ive</w>
de al
contro versy</w>
collabor ation</w>
adv anced</w>
W .</w>
Govern or</w>
Boz idar</w>
An ti</w>
AK I</w>
7 00</w>
un ve
th reshold</w>
spec ific
se k</w>
re ver
rad io</w>
r het
ph oto</w>
pe oples</w>
macro economic</w>
lov e</w>
fin dings</w>
end it
el e</w>
cle an
cau tioned</w>
c evic</w>
am mer
a ud
T s
St atisti
N im
Lju b
K ath
Cor ridor</w>
Bra z
Barbu tov</w>
Austr alia</w>
Agr ic
2 .5</w>
volun te
under mine</w>
sur g
res cu</w>
re in
pro of</w>
por a</w>
phot ograph
out going</w>
on able</w>
n e</w>
invest or</w>
igh tly</w>
gres sive</w>
fel low</w>
exp endit
ed ing</w>
cor rupt</w>
compe ten
ch e</w>
Y outh</w>
Tu z
Traj kovski</w>
M ad
Islam ist</w>
4 ,000</w>
y i
sy n
subsi dies</w>
sk ills</w>
si bly</w>
sh op
sa v
run s</w>
recor ded</w>
per haps</w>
near by</w>
k y</w>
isol ation</w>
i z</w>
hosp itals</w>
f ying</w>
f al
experi enced</w>
defin itely</w>
ch ampionship</w>
b a
at tribu
as pora</w>
R en
O s
Kovac evic</w>
Fin land</w>
Bel ene</w>
Ar ts</w>
vo ice</w>
tu re
tri partite</w>
sh el
se g
prospec t</w>
produc t</w>
por tion</w>
pay ments</w>
out put</w>
in sufficient</w>
in o</w>
highl ighted</w>
feas ibility</w>
exc ell
dub bed</w>
defe ated</w>
cra ft</w>
bl o
Ric hard</w>
Mar ko</w>
Mar ija</w>
Lju bl
J ov
Ind ia</w>
Corpor ation</w>
4 7</w>
vis ible</w>
v ent
ur ches</w>
tro l</w>
spec ulation</w>
some times</w>
per ce
min utes</w>
man age</w>
m y
he ar
fru str
fos ter</w>
et z</w>
et ing</w>
ess ed</w>
deb ts</w>
d ating</w>
compl i
cle an</w>
c overs</w>
bir th</w>
Un der
Sil ajd
Palestin ian</w>
P en
J ad
Initi ative</w>
Ge oana</w>
Fr amework</w>
Adri an</w>
4 2</w>
war n</w>
un likely</w>
thir ds</w>
sa fe
ren a</w>
re pa
r am
pl edging</w>
organis ing</w>
negoti ate</w>
j ail</w>
is lat
hol id
fr ag
equ ality</w>
end os
des er
cu bic</w>
bri b
bo ys</w>
bo l</w>
barric ades</w>
aspir ations</w>
activis ts</w>
Telec om</w>
Pri z
H ot
Est on
D aily</w>
Boy ko</w>
y es</w>
we ak</w>
to b
ter ial</w>
st y</w>
re fin
rati fied</w>
r i</w>
push ing</w>
origin ally</w>
or ship</w>
man ship</w>
ing ness</w>
in je</w>
func tional</w>
direc tors</w>
connec tions</w>
con ten
cl ass</w>
champ ion</w>
c oc
bom b</w>
attitu de</w>
ash a</w>
ap preh
ammer tz</w>
ad ing</w>
acqu ired</w>
W all</w>
T ro
Silajd zic</w>
Sch illing</w>
Rec on
La bus</w>
Fac ulty</w>
De jan</w>
Br ammertz</w>
will ingness</w>
te l</w>
sim ple</w>
repor ting</w>
provis ional</w>
profession als</w>
passeng ers</w>
ou li
objec tives</w>
m ir
m ach
leg islat
inten tion</w>
hal t</w>
fres h</w>
ent re
end ang
electr onic</w>
el j</w>
dri ving</w>
down town</w>
des ire</w>
decl are</w>
conc entr
che str
c inem
ast ery</w>
agn os
a uc
P res
Jan kovic</w>
Hell enic</w>
En viron
Dimitrov a</w>
D jo
Accor ds</w>
wor d</w>
uc r
tob acco</w>
suggest ing</w>
speak er</w>
sa ges</w>
rhet oric</w>
reser ves</w>
regul ation</w>
proc eed</w>
pro be</w>
pos ts</w>
l ovic</w>
i os</w>
h ec
fail s</w>
er ini</w>
entre prene
emerg ing</w>
dra g</w>
defend ants</w>
contr ast</w>
conf isc
compens ation</w>
collec ted</w>
at ovic</w>
acqu it
W at
Schwar z</w>
R acan</w>
Portug al</w>
Mlad jan</w>
Jad ran
Euro zone</w>
Egy pt</w>
Dav id</w>
2 50</w>
z er</w>
wat ers</w>
ul ate</w>
sti c
se ek
ro b
ri val</w>
re sign</w>
rati fication</w>
ph arm
ore n</w>
man ovic</w>
loc ations</w>
is tic</w>
finan ced</w>
f esti
custom ers</w>
cont acts</w>
bl ing</w>
be half</w>
Pap adop
Iran ian</w>
C ultural</w>
A K</w>
9 m</w>
3 8</w>
wor ry</w>
vuln erable</w>
ulti mat
tion ary</w>
t ant</w>
stu dies</w>
str ict</w>
ri ver</w>
respon ded</w>
re vol
prepar ation</w>
polic emen</w>
o ke</w>
n urs
maxim um</w>
li qu
le ts</w>
ist an</w>
inc enti
g ri
fulf illed</w>
fi xed</w>
fi red</w>
er ated</w>
dri ve</w>
doc tor</w>
consid eration</w>
coast al</w>
cl ar
at y</w>
arri ve</w>
achiev ement</w>
a z</w>
R ed</w>
Nim etz</w>
Lab our</w>
J ak
F oc
wat ch</w>
ut ting</w>
su ic
st em
pre s</w>
op poses</w>
mov ies</w>
magaz ine</w>
ket ing</w>
inten ds</w>
i ze</w>
finis h</w>
fall s</w>
f oundation</w>
eng agement</w>
dy nam
du stry</w>
dig ital</w>
con ven
ast ro
assu me</w>
ag er</w>
adj ust
S ek
Re port</w>
R um
N is</w>
In dustry</w>
G ul
C EC</w>
Bil jana</w>
B it
A eg
transparen t</w>
ste el</w>
sol id</w>
ri f
ret ain</w>
rel atives</w>
pre vention</w>
mar ri
m n
it ems</w>
in n
fund ed</w>
fri end</w>
eval u
etr is</w>
dram atic</w>
crow d</w>
cou p</w>
bur den</w>
bu ying</w>
ay ing</w>
appear ance</w>
app ing</w>
alloc ated</w>
T et
Q u
M eta</w>
F er
Dem etris</w>
D er
C R</w>
Ass istant</w>
Ang ela</w>
Aeg ean</w>
5 3</w>
3 0,000</w>
wh at
tem per
targ eted</w>
syst em
sym bol</w>
se l</w>
sc ep
regis tration</w>
invest ing</w>
im erini</w>
ex ists</w>
en ty</w>
con grat
ch urches</w>
broadc ast</w>
attr acted</w>
at ol
as ic</w>
announ ce</w>
Strateg ic</w>
Sim sek</w>
P C</w>
Mil itary</w>
Lis bon</w>
Kath imerini</w>
Jadran ka</w>
G ab
E le
DP S</w>
CE FTA</w>
198 9</w>
trans l
ti le</w>
scen ar
ren owned</w>
prof its</w>
od ed</w>
objec tions</w>
n av
m ly</w>
law yers</w>
langu ages</w>
j azz</w>
it ate</w>
if ying</w>
g ames</w>
foreig ners</w>
fle x
excell ent</w>
def end</w>
chan nel</w>
bri ef</w>
as sa
arg o</w>
archae ological</w>
ad ol
Tuz la</w>
S oren</w>
Priz ren</w>
No bel</w>
M r
Leban on</w>
Kem al</w>
K ra
F e
Dnevn ik
D on
An dre
An atol
12 44</w>
un certain
solid arity</w>
se em</w>
rov ic</w>
ro s</w>
ris h</w>
re pu
preced ented</w>
postpon ed</w>
newsp apers</w>
lat ko</w>
j ur
ef ul
ech o
c ore</w>
bigg er</w>
ben ch
anc y</w>
a ult</w>
Tur k</w>
Sto j
S es
N ed
I rish</w>
Direc torate</w>
D ora</w>
Ay han</w>
y al</w>
un anim
than ks</w>
te sts</w>
sh ut</w>
sem in
seek ers</w>
or ts</w>
inter ven
il legally</w>
govern mental</w>
foc using</w>
fel t</w>
en on</w>
emerg ed</w>
di aspora</w>
cust ody</w>
consul tations</w>
co red</w>
c ic</w>
abl ed</w>
a h</w>
Pri v
Papadop oulos</w>
O C</w>
Mlad en</w>
ER B</w>
B ook</w>
1, 500</w>
veter an</w>
un rest</w>
sh oc
sensi tive</w>
second ary</w>
request s</w>
rap id</w>
ra ises</w>
p act</w>
identi fy</w>
holid ays</w>
ex ac
enc ing</w>
cha in</w>
cer ti
cal m</w>
c ash</w>
c ard</w>
bl ame</w>
bas ketball</w>
associ ations</w>
air craft</w>
S ab
R em
P ir
L eg
J usuf</w>
G ERB</w>
war ns</w>
un precedented</w>
thin ks</w>
strong est</w>
six th</w>
ro und
r atings</w>
proper ties</w>
preser ve</w>
pharm ac
ph en
op e</w>
m id
lim its</w>
ish ment</w>
hag en</w>
exc av
ev ening</w>
endos je</w>
do m</w>
ca ught</w>
bon ds</w>
ber t</w>
W omen</w>
V o
Rom an</w>
Dnevnik .bg</w>
Cath olic</w>
A ir</w>
z ak</w>
w ine</w>
tr ained</w>
ten s</w>
te en</w>
st al
roc k</w>
research ers</w>
qu es</w>
obt ained</w>
nurs es</w>
n er
man ip
m its</w>
lat ter</w>
conduc ting</w>
ch er</w>
cent uries</w>
c il
begin s</w>
b ourg</w>
b ases</w>
W ol
Tre aty</w>
Sr bi
S RS</w>
P IC</w>
O li
Im pl
ver sion</w>
v is</w>
ul ts</w>
ug en</w>
sl ightly</w>
sh aring</w>
sav ings</w>
reflec ts</w>
re ci
pur poses</w>
po l</w>
per cep
mon uments</w>
mes sages</w>
in formed</w>
hon oured</w>
gu ests</w>
g ar</w>
g aining</w>
feat ured</w>
elec tric</w>
e tic</w>
contr ary</w>
carri er</w>
capac ities</w>
ash ed</w>
Wh ite</w>
Tet ovo</w>
SN SD</w>
P ul
Nor way</w>
Luk ic</w>
Journ al</w>
Ex ecu
Con gress</w>
B SP</w>
Al f
6 ,000</w>
val u
ul ar</w>
ti ous</w>
th ering</w>
st ro
rebel s</w>
legitim ate</w>
k al
join tly</w>
inaugur ated</w>
er ly</w>
ek a</w>
e es</w>
do zen</w>
complain ts</w>
compe ting</w>
comp ly</w>
celebr ations</w>
ce a</w>
break ing</w>
bl ack</w>
as p
ail ing</w>
V ar
Tel egr
Sci ences</w>
S l
R az
K ol
Fu ture</w>
Execu tive</w>
E K</w>
Dj ord
wel comes</w>
sw im
sti mul
st aged</w>
shar p</w>
s cul
renew ed</w>
rel and</w>
pro hib
priv il
privil eg
prison ers</w>
pos sibilities</w>
phen om
nom inated</w>
la sting</w>
iti ous</w>
influ ential</w>
every body</w>
envision ed</w>
discus sing</w>
compli ance</w>
campaig ns</w>
ap preci
am il
air e</w>
Sul ej
Rom e</w>
Ras im</w>
M e
K SF</w>
As sad</w>
3 ,
tre ated</w>
sugg es
su res</w>
si vely</w>
shar ply</w>
sh ad
s la
ro wing</w>
p ping</w>
ouli as</w>
m erg
ic op
ha bil
ex tra
doub ts</w>
ch ann
att acked</w>
ation alist</w>
arrang ements</w>
adol u</w>
ad ium</w>
We b</w>
W e</w>
Selim aj</w>
Sand zak</w>
Mar k
K ing</w>
Co alition</w>
An adolu</w>
6 2</w>
week ly</w>
ud e</w>
tren ds</w>
trans formation</w>
tor ies</w>
tiv ity</w>
ti gh
t ex
shi ft</w>
s ound</w>
ren t</w>
present ing</w>
perpetr ators</w>
out standing</w>
opin ions</w>
ol e
investig ators</w>
investig ated</w>
hel icop
gre w</w>
ga ther</w>
follow s</w>
fl ed</w>
fin e</w>
eng aged</w>
employ ers</w>
cip al</w>
bir d</w>
ap est</w>
V uc
S DA</w>
Proc ess</w>
Pap oulias</w>
P ow
P a
Nor thern</w>
Net work</w>
I reland</w>
Er gen
Arti cle</w>
200 m</w>
w on
w er</w>
respec tive</w>
re alise</w>
ra p</w>
peti tion</w>
perform ers</w>
on ews</w>
ograph ic</w>
met i</w>
ing u
guarante ed</w>
fin ds</w>
ev ac</w>
dri vers</w>
defe at</w>
con fron
compu ters</w>
can cel
bur g</w>
barri ers</w>
av ic</w>
av a</w>
attr active</w>
ar ova</w>
am ended</w>
R os
Pol ish</w>
P am
Ljubl jana</w>
H os
Eur onews</w>
Clu b</w>
B ag
200 ,000</w>
20 14</w>
what ever</w>
up grade</w>
u rement</w>
trigg ered</w>
tel ic</w>
speak s</w>
signific ance</w>
projec ted</w>
pos sibly</w>
oc al</w>
n i</w>
legislat ure</w>
l acks</w>
k ova</w>
igh ters</w>
h us
gen der</w>
e on</w>
ang e</w>
and ic</w>
ag u
affor d</w>
Z u
Ter zic</w>
Sch ool</w>
Cri me</w>
Con stan
ut ely</w>
thu si
su gar</w>
st one</w>
siz ed</w>
sch ol
s wi
reli ef</w>
questi oned</w>
ou ldn</w>
n ings</w>
la id</w>
ik e</w>
ha ven</w>
fulf illing</w>
f air
ey e</w>
econom ists</w>
dest inations</w>
contribu ting</w>
consum er</w>
ch amber</w>
ca using</w>
bom b
bl es</w>
behavi our</w>
arri val</w>
apar tment</w>
abs or
abl es</w>
Wel le</w>
Ramad anovic</w>
R ev
Nov ak</w>
Kos tov</w>
K or
Her itage</w>
Ci vil</w>
Chris ti
8 5</w>
4 9</w>
y n
with draw
ultimat ely</w>
th y</w>
st yle</w>
re min
produc ing</w>
mur ders</w>
monopol y</w>
inclu sion</w>
i b
exten sion</w>
comp on
br ary</w>
beau ti
att ini</w>
arg uments</w>
amb itious</w>
Str as
Sim eon</w>
Pre drag</w>
N D</w>
Mold ovan</w>
Il ic</w>
Fr attini</w>
Dimit ri
B I
Ar ch
worri ed</w>
victi m</w>
ur s</w>
typ es</w>
tur mo
turmo il</w>
suff ering</w>
streng th</w>
situ ations</w>
pres sing</w>
pl ed</w>
pl astic</w>
parti al</w>
oz ar</w>
out lined</w>
oper ators</w>
oj evic</w>
monit ors</w>
mil k</w>
mat urity</w>
investig ating</w>
har m</w>
fro zen</w>
exp anded</w>
exhib itions</w>
en thusi
di visions</w>
demonstr ations</w>
d aug
credi bility</w>
contin uation</w>
collec t</w>
business man</w>
b ars</w>
activ ely</w>
UN IC
St .</w>
Nic hol
L ie
L at
C er
Ar med</w>
zer o</w>
w rest
threat ening</w>
tan k</w>
tan e
specific ally</w>
scul p
ret ail</w>
restaur ants</w>
res istance</w>
pos iti
o tic</w>
maint ained</w>
lu x
lin king</w>
introduc ing</w>
immig ration</w>
extra ordinary</w>
ethn ically</w>
en ica</w>
ek on</w>
ef s</w>
econom ics</w>
cr ack
corpor ate</w>
contro ls</w>
connec t</w>
coh ol</w>
broadc asting</w>
bl amed</w>
b ound
as n</w>
accel erate</w>
Z ar
Vl ora</w>
UNIC EF</w>
T at
Svet la</w>
Stras bourg</w>
Recon struction</w>
P i
Li thu
Fu ele</w>
Ergen ekon</w>
Elec tr
Djo kovic</w>
D I</w>
D I
Bit ola</w>
B N
5 4</w>
wid er</w>
un clear</w>
tro ika</w>
tin y</w>
survi ve</w>
super vised</w>
si mul
pro ud</w>
present ation</w>
par amil
org e</w>
org an</w>
me at</w>
l eng
in tim
ic ic</w>
hol ders</w>
gir ls</w>
fe es</w>
ev al</w>
est one</w>
ed s</w>
der ly</w>
conting ent</w>
c af
b ish
air ports</w>
ad s</w>
a x
S up
S af
Ro han</w>
Republ ican</w>
Pal ace</w>
J ames</w>
Impl em
H ox
Gab ri
Con d
C el
B DP</w>
z ones</w>
up grad
t asked</w>
suic ide</w>
succ eeded</w>
struc k</w>
st ant</w>
st alled</w>
rem ember</w>
proc essing</w>
pro motion</w>
pre condition</w>
por ters</w>
plan es</w>
parti tion</w>
overha ul</w>
ol der</w>
negoti ator</w>
multi ple</w>
milit ants</w>
la im
l or
l ers</w>
i o
fl ags</w>
f ile</w>
es cal
enjo yed</w>
educ ated</w>
econom ically</w>
e z</w>
chair manship</w>
ch ose</w>
bi om
al cohol</w>
Svet ozar</w>
S ur
P as
Gr and</w>
G lob
E I
Den mark</w>
Ban ka</w>
Alf red</w>
5 7</w>
3 9</w>
um i</w>
ul tran
t ang
rest ore</w>
rec ru
old est</w>
minis terial</w>
mig rants</w>
m ar</w>
j ury</w>
in struc
i ric</w>
he ugen</w>
fir mly</w>
fe wer</w>
f ish</w>
expl ain</w>
em entary</w>
e ast</w>
cover age</w>
bomb ings</w>
b in
an ese</w>
ampion ships</w>
affec ting</w>
ad d</w>
ach ed</w>
Ver heugen</w>
Ses elj</w>
Oper ation</w>
K oz
K l
Jel ena</w>
J ord
Iv an
Implem entation</w>
H aj
G ashi</w>
Ang el
us ual</w>
success or</w>
st ore</w>
st er</w>
secu red</w>
receiv es</w>
propos e</w>
phys ical</w>
ot e</w>
k id
jur is
inn oc
hus band</w>
house holds</w>
fre edoms</w>
fall ing</w>
f low</w>
f ederation</w>
extre me</w>
ev ac
eng age</w>
en der</w>
em ate</w>
el derly</w>
ec es</w>
earthqu ake</w>
comp ris
coc aine</w>
bl ow</w>
b y
an ting</w>
T ok
Mar ia</w>
K oc
C e
Bur gas</w>
B ay
5 6</w>
4 0,000</w>
199 4</w>
- -
w w
w ood</w>
viol ated</w>
tu als</w>
techn ologies</w>
teach er</w>
sou theastern</w>
pro vision</w>
pre dec
penal ties</w>
org an
ol os</w>
lif ting</w>
le t
is n</w>
her o
gr ave</w>
ed ev</w>
cap it
bl ood</w>
author s</w>
ai jan</w>
S qu
L ad
Kos telic</w>
Glob al</w>
Er lis</w>
D ra
5 2</w>
wr ite</w>
vari ety</w>
v ation</w>
testi mony</w>
sti c</w>
re habil
obvi ous</w>
moun tain</w>
manag ing</w>
l jevic</w>
intellec tuals</w>
indic ate</w>
i ers</w>
happ ens</w>
go s</w>
fulf ill</w>
fre ely</w>
fin es</w>
fin alised</w>
con gress</w>
c utting</w>
beauti ful</w>
b aijan</w>
apparen t</w>
Sulej man</w>
St av
S ad
Montenegr ins</w>
Kos ov
Kom sic</w>
K ad
Azer baijan</w>
Ash ton</w>
Armen ia</w>
3 .5</w>
withdraw al</w>
ti ed</w>
ther mal</w>
stal emate</w>
short ages</w>
safe guard</w>
sa ke</w>
s un
pursu e</w>
prov id
on ged</w>
observ ed</w>
nation als</w>
n on
may ors</w>
intim id
f i</w>
expec ting</w>
exp anding</w>
exhib it</w>
en n
docum entation</w>
demonstr ation</w>
deep ly</w>
d ates</w>
d ated</w>
cred its</w>
crack down</w>
clu bs</w>
categ ories</w>
burea ucr
broad er</w>
at tor
Z v
S ha
Pro ject</w>
MP A</w>
F DI</w>
Au thor
00 km</w>
wel fare</w>
vent ure</w>
under taken</w>
ta res</w>
sub jec
ro ut
pi eces</w>
ne sty</w>
mun ition</w>
leg acy</w>
k il
inj uries</w>
ing er</w>
il jana</w>
ic als</w>
hel ps</w>
hec tares</w>
f arm</w>
ext ent</w>
exc essive</w>
ex it</w>
e a</w>
docum entary</w>
dis appointment</w>
demonstr ators</w>
cel l</w>
ball ots</w>
appl ic
Sa x
P ek
N en
N az
K uk
F ena</w>
C ob
Bogd anovic</w>
B oc</w>
we alth</w>
ven ted</w>
uncertain ty</w>
trad itionally</w>
ten ant</w>
star ts</w>
s ex
rel uc
prov en</w>
proper ly</w>
poll ution</w>
pass port</w>
or al</w>
on el</w>
oc cu
mon ument</w>
medi eval</w>
med ics</w>
mat ches</w>
li b
lib eral</w>
it ch</w>
it ations</w>
isol ated</w>
g ent
g ains</w>
fa ith</w>
ey es</w>
equ ally</w>
em ig
el os</w>
e c</w>
deteri or
cont ain</w>
confir m</w>
bal lot</w>
ath on</w>
a un
Vet ev
Trans paren
T z
T P</w>
Sou theastern</w>
P ot
M ill
M em
L o
In de
Bur ns</w>
B ut
1. 2</w>
wh ite</w>
war rant</w>
unve iled</w>
te sted</w>
sign als</w>
shop ping</w>
ro unds</w>
renew able</w>
regis ter</w>
recor ds</w>
proc urement</w>
ordin ated</w>
occu r</w>
motiv ated</w>
mod erate</w>
k eri</w>
juris dic
hi kes</w>
hand over</w>
friend ship</w>
exten ding</w>
bo x
bin ding</w>
adop ting</w>
academ ic</w>
ac on
absol utely</w>
a u</w>
a be
V ec
Transparen cy</w>
Tel evision</w>
Sum mit</w>
Squ are</w>
Sim ic</w>
Pop e</w>
Pat ri
J as
Hol keri</w>
Armen ians</w>
9 5</w>
to m</w>
sus pension</w>
statisti cal</w>
st abilisation</w>
spon s
sol ar</w>
repu tation</w>
repe at</w>
recomm end</w>
pro p
pre vented</w>
ple ased</w>
ole ez
obt aining</w>
meth ods</w>
la k
ie ties</w>
ic evic</w>
head scar
head ing</w>
finan ci
ex clud
ethn icity</w>
ess ors</w>
enc la
eh ood</w>
e x</w>
dist ance</w>
determin ing</w>
bran ches</w>
be ar</w>
b ru
attemp ted</w>
assum ed</w>
ash ion</w>
appl ications</w>
amoun ted</w>
after wards</w>
af ia</w>
ad a</w>
S o
Pr ague</w>
H R
Gall ery</w>
Dis trict</w>
D ob
Cond oleez
6 7</w>
writ ers</w>
vir us</w>
view ing</w>
ustr ation</w>
un like</w>
un earth
unearth ed</w>
trou ble</w>
stem ming</w>
separ ati
s al</w>
read ing</w>
rang ing</w>
pl ane</w>
pen sioners</w>
n it
monit ored</w>
frequ ently</w>
f ec
extremis t</w>
expendit ures</w>
dis appointed</w>
construc ted</w>
connec ting</w>
cl ock</w>
chec k
bl ack
b at
ar bit
an ony
am munition</w>
air line</w>
af raid</w>
af ax</w>
ach ing</w>
T od
T I</w>
Pam uk</w>
Medi afax</w>
Med v
Lim aj</w>
Kos ova</w>
Gen eva</w>
Bl ag
An dri
2, 500</w>
y ar
wh el
un resolved</w>
tol l</w>
thin king</w>
s ort</w>
ro l</w>
requ is
repe ated</w>
reli able</w>
rea u</w>
over whel
neighbour hood</w>
ne u
medi ator</w>
ma z</w>
la u
l ic</w>
k l
h u</w>
grow n</w>
ex tra</w>
enterpris e</w>
enjo ys</w>
ec ker</w>
dri ven</w>
draf ting</w>
d ign
cris es</w>
chem ical</w>
be govic</w>
abs ence</w>
St amb
Sp iric</w>
Se zer</w>
S I
Mir cea</w>
Jo int</w>
F o
Em il</w>
Chil dren</w>
C iv
Agric ulture</w>
4 .5</w>
3 0m</w>
youn ger</w>
wat ch
w ars</w>
trav elled</w>
tion ally</w>
t ling</w>
t les</w>
surpris ed</w>
strength ened</w>
sec uring</w>
re form
re alised</w>
po etry</w>
perce ived</w>
occ as
ob struc
nom ination</w>
no ti
neu tr
liter ature</w>
id ly</w>
ga thering</w>
fl ight</w>
f ly</w>
ed e</w>
de par
cont ains</w>
care fully</w>
cap abilities</w>
author ised</w>
am ing</w>
acc using</w>
Str ug
S A</w>
Rom pres</w>
Rob er
Re form</w>
R au
N IS</w>
K ot
Jap anese</w>
Belg ian</w>
A l</w>
4 0m</w>
we ather</w>
ur g</w>
ter y</w>
set tle</w>
rejec t</w>
qu anti
prin cipal</w>
popul arity</w>
pi ece</w>
open hagen</w>
oblig ed</w>
munic ation</w>
li ft</w>
li ed</w>
k ings</w>
im pass
ill ance</w>
fo res
extremis ts</w>
elimin ate</w>
daug hter</w>
d il
cir cul
cam ps</w>
bom bing</w>
arrest ing</w>
aim ing</w>
ad ap
W is
S ut
N ec
Lj iljana</w>
L ake</w>
K y
I NA</w>
F E
E ven
CE O</w>
C ust
C openhagen</w>
Bu reau</w>
An dy</w>
A cc
6 3</w>
w ounded</w>
val id</w>
temper atures</w>
techn ological</w>
su ffer</w>
si eg
sieg e</w>
row n</w>
ri g
re forming</w>
r are</w>
pres ti
pre domin
pir acy</w>
perform ing</w>
per su
pa ve</w>
our selves</w>
ograph y</w>
moun tains</w>
industri es</w>
in ska</w>
iev ski</w>
f ought</w>
f ar
det ailed</w>
comb ating</w>
cal cul
bro ken</w>
av ljevic</w>
V la
V it
R og
Oli ver</w>
Nov in
Kos umi</w>
Kore a</w>
K ing
Iv ana</w>
F ul
EI B</w>
Dimit rov</w>
Condoleez za</w>
C an
und erg
sup posed</w>
sol ving</w>
s cored</w>
s ac
run off</w>
rest oration</w>
re vised</w>
oun ds</w>
ori ented</w>
oper ated</w>
on n
nation alism</w>
may be</w>
m ab
k an</w>
issu ing</w>
ic ial</w>
i ber
he ating</w>
govern or</w>
f aster</w>
explos ion</w>
er up
e ze</w>
describ es</w>
deleg ations</w>
defic its</w>
cons ists</w>
comm and
bloc ks</w>
bir th
awa iting</w>
at ab
appe aled</w>
Wis ner</w>
P os
M ah
J on
Inv estig
I r
Fran k</w>
Environ ment</w>
Cust oms</w>
Bos kovski</w>
B ed
5 00m</w>
z z
yar bak
uni fied</w>
un g</w>
u b
targ eting</w>
surve illance</w>
su red</w>
slow ly</w>
s s</w>
reti rement</w>
pos ted</w>
paramil itary</w>
op posing</w>
mab on</w>
ish es</w>
impass e</w>
he ar</w>
finan ces</w>
fil es</w>
f f</w>
exerc ises</w>
en ko</w>
cri p
conc essions</w>
cle ared</w>
charg ing</w>
associ ate</w>
amend ment</w>
Ti to</w>
Sek er
Sax e</w>
Ru pel</w>
Ru ecker</w>
M ag
Liber ation</w>
Ker mabon</w>
Inde x</w>
G y
Eston ia</w>
Di yarbak
D ai
Cob urg</w>
C ur
C am
B amir</w>
B B
Ah meti</w>
AI DS</w>
ud i</w>
trad ing</w>
tr e</w>
t es
speci alists</w>
resul ting</w>
publ ishing</w>
ph il
open ly</w>
nation wide</w>
mar keting</w>
hel m</w>
f oo
d atab
co inc
cancel led</w>
brid ges</w>
bot tom</w>
bloc k
bl u
as c
apar tments</w>
ak i</w>
ag ers</w>
ab st
S DS</w>
R ud
N B
Laz arova</w>
K uc
K ou
K at
IC G</w>
F ir
E li
E M
Com m
6 4</w>
vol ume</w>
subsi di
sh ed</w>
ren ce</w>
rap idly</w>
pul l</w>
pres sures</w>
predic ted</w>
por te
ound ations</w>
investig ative</w>
in qu
hero in</w>
g if
fl at</w>
experi ences</w>
dri ver</w>
con stant</w>
com pos
chec k</w>
adver ti
W ar
W al
Vetev endosje</w>
Ste ph
Statisti cs</w>
Seker inska</w>
P s</w>
O S</w>
Nov os
Lithu ania</w>
K az
Europe ans</w>
EU observer</w>
Djord jevic</w>
D om
B TA</w>
6 6</w>
w il
vehic le</w>
us al</w>
trav elling</w>
sy l
str uggling</w>
st ret
regul arly</w>
reas onable</w>
r on
protest ors</w>
post p
postp one</w>
po et</w>
oc k
mus icians</w>
mot or
manufac ture
m i</w>
m ation</w>
kn ows</w>
k ul
iz ation</w>
iti s</w>
idd en</w>
func tions</w>
for get</w>
f ate</w>
dr o</w>
don or</w>
design ated</w>
d oll
cop e</w>
consid er
conclud e</w>
conclu sions</w>
associ ated</w>
ab or
U D
Strug a</w>
Strateg y</w>
Stein er</w>
N es
M W</w>
L av
Cris is</w>
Con vention</w>
Bud apest</w>
B re
7 8</w>
7 2</w>
5 8</w>
u tenant</w>
st ages</w>
spo t</w>
scand als</w>
sc ope</w>
s log
ro ots</w>
ref usal</w>
ran k</w>
ran a</w>
purch ased</w>
produc tive</w>
proc laim
person ally</w>
pass es</w>
od a</w>
mit ting</w>
mil estone</w>
manag ers</w>
licen ses</w>
instr uments</w>
inst all
indic tments</w>
il ian</w>
h o
h at
gr y</w>
g ren
fe eling</w>
enti rely</w>
dev ast
dead lock</w>
cons istent</w>
ca uses</w>
answ ers</w>
an ka</w>
ag g
acqu ire</w>
Un it</w>
UN H
UNH CR</w>
S hal
S PS</w>
Priv atisation</w>
Miha j
Lie utenant</w>
I on</w>
Canad ian</w>
Bri g
Bri d
Braz il</w>
Ar gent
Afr ican</w>
y cl
un certain</w>
ultran ationalist</w>
ti ght</w>
stat ehood</w>
s election</w>
ru m
ro utes</w>
reg ret</w>
recommend ation</w>
ra ids</w>
pu ts</w>
p raising</w>
od ds</w>
mus sen</w>
journ alism</w>
initi ate</w>
im ported</w>
hi ke</w>
hand ling</w>
et ric</w>
ear n</w>
ear marked</w>
do g</w>
destro y</w>
d in</w>
cont em
complet ing</w>
bench marks</w>
bank rup
ap h</w>
ac tress</w>
The od
Ras mussen</w>
P ak
N ew
Kra j
Foc us</w>
Ex change</w>
Elec tions</w>
EC B</w>
E mp
E di</w>
D z
Br c
20 20</w>
20 15</w>
1. 6</w>
writ es</w>
wor ker</w>
us eful</w>
un c
to ol</w>
surve yed</w>
sm ugg
simul tane
sid elines</w>
si t</w>
si ding</w>
sh ape</w>
semin ar</w>
secular ism</w>
s port</w>
s in
s at</w>
ro u
ref use</w>
re l</w>
phenom enon</w>
on to</w>
lux ury</w>
iti me</w>
ir s</w>
h ing
gr anting</w>
frequ ent</w>
f oundations</w>
f ishing</w>
exac tly</w>
el i
el ed</w>
eful ly</w>
dim en
d am</w>
conc e
comm it</w>
cli ents</w>
chann els</w>
cap ita</w>
c ens
bro thers</w>
as signed</w>
acqu is
acc ident</w>
Z em
Telegr aph</w>
S he
S cot
Ko ha</w>
In tell
H us
Fat os</w>
Diyarbak ir</w>
Dai anu</w>
D oc
Brc ko</w>
Ar ab
197 4</w>
with drew</w>
win ners</w>
tic kets</w>
than ked</w>
t son</w>
surg ery</w>
st ress</w>
set tled</w>
scenar io</w>
s essions</w>
refin ery</w>
ref erred</w>
re act</w>
ra il</w>
pre requis
pas sage</w>
ot h</w>
ol en</w>
neighbour ly</w>
nation alists</w>
mn as
k new</w>
join s</w>
integr ate</w>
i res</w>
happen ing</w>
h ot</w>
g ers</w>
ff s</w>
fair ly</w>
f ts</w>
es cape</w>
ere ly</w>
en th</w>
dis abled</w>
demonstr ates</w>
constitu te</w>
cinem a</w>
bel ong</w>
attribu ted</w>
ann ing</w>
S em
Rober tson</w>
Nicol as</w>
L uc
L ati
Kal et
F iat</w>
Emp ire</w>
Com munications</w>
A C
6 0m</w>
15 ,000</w>
10 .
writ ing</w>
veter ans</w>
trans mission</w>
trans formed</w>
trad itions</w>
th row</w>
rog lu</w>
reflec ted</w>
recogn ising</w>
ra v
pres sion</w>
oll i</w>
ne z
invol ve</w>
in sp
hydro power</w>
gu ards</w>
grad ually</w>
exc eed</w>
enabl ing</w>
don ated</w>
del iber
charac ter</w>
bro ther</w>
ast le</w>
ass os</w>
architec ture</w>
ag ging</w>
Wol f
Under secretary</w>
Q at
P ower</w>
Mu am
Gabri el</w>
Din k</w>
D NA</w>
B us
wal k</w>
tic ket</w>
ti st</w>
ti se</w>
ten ed</w>
tang ible</w>
subsequ ently</w>
stipul ates</w>
st ores</w>
s pre
respon ding</w>
rejec tion</w>
poin ting</w>
pe red</w>
pain ful</w>
or chestr
off ensive</w>
n ic
mor al</w>
modern ise</w>
men tion</w>
liqu id
jo bl
is a</w>
ig or
i efs</w>
hos t
great ly</w>
extrad ited</w>
ex changes</w>
ev asion</w>
ers ity</w>
ep r
em o
em be
e ases</w>
dr in
defin e</w>
cl assi
c entr
br and</w>
bankrup t
ac a</w>
Ram ush</w>
R C</w>
Pul aj</w>
Mi rol
M other</w>
L ut
J azz</w>
I S
Gj orge</w>
G os
Bed rana</w>
Ar di</w>
Ad nan</w>
where ab
whereab outs</w>
ven ues</w>
ust ed</w>
tran che</w>
sym b
symb ols</w>
sur plus</w>
subsequ ent</w>
sim pl
sh r
s oc
ro oms</w>
reser ve</w>
qual ified</w>
qu o</w>
porte ur</w>
pharmac eu
pe trol</w>
oper ates</w>
m afia</w>
k in
is m
indic ators</w>
in adequate</w>
impl ications</w>
id en</w>
hi ja</w>
gr and
fre eze</w>
fo rest</w>
ev ol
e at</w>
div ersity</w>
des ign</w>
dead lines</w>
comm ent
com for
bur ied</w>
bankrupt cy</w>
ast er
an ovac</w>
al ive</w>
Z e
U z
T K</w>
Sam ard
Pro gress</w>
Mon itor</w>
Mirol jub</w>
Mil os</w>
Maj or</w>
K ES
Hungar ians</w>
H is
G h
Ass istance</w>
5 km</w>
volunte ers</w>
under take</w>
tr uly</w>
tow ard</w>
t ary</w>
symbol ic</w>
sol e</w>
re affirmed</w>
ple a</w>
mil a</w>
mean ing</w>
m ail</w>
le aves</w>
jurisdic tion</w>
inter ference</w>
id is</w>
heav ily</w>
h ing</w>
h es
f ill</w>
f at
exper tise</w>
exc eed
evac u
emphas is</w>
dre am</w>
correc t</w>
blu epr
biom etric</w>
are vic</w>
ar te
ain t</w>
acquit ted</w>
acknowl edging</w>
W inter</w>
Vas il
T ud
Sut anovac</w>
Ste ering</w>
R N</w>
Pro di</w>
O v
King dom</w>
KES H</w>
K ri
Iz mir</w>
Gord ana</w>
C la
B asha</w>
Author ity</w>
Al b
A li
A S</w>
2 5m</w>
x ing</w>
truc ks</w>
tax ation</w>
sust ained</w>
sen i</w>
sch em
rest ored</w>
push ed</w>
presti g
prestig ious</w>
po p</w>
plo t</w>
penal ty</w>
os lav</w>
nom in
k able</w>
jeopardis e</w>
hurd le</w>
h ly</w>
gu n</w>
fl edged</w>
expen ses</w>
discus ses</w>
dest abil
de tain
cour ses</w>
confisc ated</w>
com ings</w>
challeng ing</w>
celeb ration</w>
bud get
brief ed</w>
b it</w>
arch ing</w>
an x
ak ovic</w>
advoc ates</w>
S tra
Pet rovic</w>
Mu sic</w>
E roglu</w>
Democr at</w>
D al
Commun ist</w>
Be th</w>
Austr al
Anatol ian</w>
Al bert</w>
4 00m</w>
wat ching</w>
ur ge</w>
truc k</w>
threat en</w>
speci alised</w>
spec ies</w>
short comings</w>
schedul e</w>
respec ts</w>
pun ishment</w>
prov oc
prov es</w>
predomin antly</w>
predec essor</w>
per mits</w>
our ney</w>
occ asion</w>
negoti ators</w>
mus ical</w>
min or</w>
m ic
m el
lif ted</w>
jan in</w>
j i</w>
ic h
he ated</w>
he at</w>
financi ally</w>
festi vals</w>
fac tories</w>
ew ish</w>
emplo y</w>
emb assi
embassi es</w>
ell s</w>
el ement</w>
decre ased</w>
datab ase</w>
conv ers
constitu ent</w>
cond itional</w>
compris ed</w>
cat ch</w>
cat astro
care ful</w>
bluepr int</w>
be ating</w>
appe als</w>
ann ul
ac es</w>
Traj kov</w>
St at
Sr d
Sav a</w>
S asa</w>
Raz van</w>
Novos ti</w>
N ez
Medv edev</w>
Lav rov</w>
K amp
J ur
J ewish</w>
J ar
I N
Hol ding</w>
Fir st</w>
D ays</w>
6 0,000</w>
5 00,000</w>
15 0,000</w>
we ight</w>
w rap</w>
the w</w>
testi fy</w>
susp end</w>
sex ual</w>
serv ants</w>
scre ening</w>
remov ing</w>
ref using</w>
re ference</w>
pen al</w>
on a</w>
isl ands</w>
inten se</w>
in tent</w>
in ev
hy dro</w>
feren ces</w>
extrad ite</w>
en kovic</w>
dis ease</w>
democr atisation</w>
defe ating</w>
de t</w>
cla use</w>
cha os</w>
bi o
ater ally</w>
acknowl edge</w>
ac ies</w>
V an</w>
Th rac
Samard zic</w>
Re porting</w>
R oc
Pow ell</w>
Pop ovic</w>
Po or</w>
Pet rov</w>
P ah
P N
N 1</w>
Met o
Mad rid</w>
L am
J acqu
J AT</w>
Ili r</w>
H arr
G un
D iv
C ovic</w>
Bla ir</w>
B ek
An a</w>
6 9</w>
5 9</w>
un known</w>
tr il
th west</w>
te k</w>
super vision</w>
separ ately</w>
se emed</w>
s op
pun ished</w>
preser vation</w>
pl edges</w>
pl edge</w>
pil ot</w>
per fec
ow ns</w>
oun ced</w>
os oph
ong s</w>
n ative</w>
may oral</w>
l ay</w>
k t
j el
incenti ves</w>
im pe
ik u</w>
ic it</w>
hol der</w>
gro und
gre es</w>
fre ez
foun ding</w>
for cing</w>
et begovic</w>
echo ed</w>
e igh
dynam ic</w>
disc overy</w>
de grees</w>
belong ing</w>
at ell
assess ed</w>
asp ian</w>
as i</w>
an ica</w>
Vic tor</w>
V ir
V id
Slov ak</w>
SE EC
SEEC P</w>
Rad ovanovic</w>
Or han</w>
O S
Kar olos</w>
Iz etbegovic</w>
I o
G ates</w>
D s</w>
C aspian</w>
A AK</w>
vi able</w>
tal ked</w>
tack ling</w>
syl v
soc ieties</w>
sev enth</w>
sec ession</w>
sc ru
s now</w>
ro oted</w>
re cip
pol i</w>
phot os</w>
p al
off s</w>
mon astery</w>
memor ial</w>
lear ning</w>
infec ted</w>
ig no
fun eral</w>
equ iv
enti tled</w>
en em
dis agreements</w>
deal t</w>
class es</w>
character ised</w>
cens orship</w>
break through</w>
bish op</w>
b o</w>
ass istant</w>
any more</w>
Zem un</w>
R A</w>
Qat ar</w>
Pah or</w>
Nichol as</w>
M ob
K a
Jud ge</w>
Jacqu es</w>
I cel
H all</w>
G od</w>
Fran co</w>
F ati
C avic</w>
198 0s</w>
volun tary</w>
vo ices</w>
v ast</w>
tot ally</w>
tar ily</w>
str ain</w>
st olen</w>
soldi er</w>
s inc
ro les</w>
restaur ant</w>
rel ation</w>
recogn ises</w>
prof itable</w>
pe ak</w>
o o</w>
new est</w>
med icine</w>
marg in</w>
loc als</w>
lear ned</w>
la sted</w>
kin ds</w>
instr ument</w>
indic ates</w>
im ag
hard ly</w>
h d
g lo
expl oration</w>
end ers</w>
el ementary</w>
dist inc
disc our
dis tr
dep ending</w>
d t</w>
contin ent</w>
cont aining</w>
ci vic</w>
cha ired</w>
cap tured</w>
bud gets</w>
blog gers</w>
ap point</w>
anticip ated</w>
accoun t
a rena</w>
Sup port</w>
Stef anovic</w>
Par k</w>
N M
Intell igence</w>
H igh
H S
F am
E A</w>
Ch ampionships</w>
C itiz
By ty
Asi an</w>
volun tarily</w>
vi ation</w>
under ground</w>
un covered</w>
tur ns</w>
thous and</w>
sha re
sch ror</w>
s .
res orts</w>
qu est</w>
purch asing</w>
pro stitu
pref er</w>
ph ones</w>
per mission</w>
p ra
p ill
p ices</w>
obvi ously</w>
n y</w>
jum p</w>
innov ation</w>
i ro
hund red</w>
ha z
gu id
form erly</w>
fal se</w>
exam ples</w>
eval uation</w>
equip ped</w>
engine ering</w>
el ite</w>
el in</w>
ear ned</w>
critic ising</w>
condem ning</w>
compl ained</w>
comp ati
col um
bound aries</w>
bl ast</w>
bir ds</w>
aus pices</w>
attemp ting</w>
ass isting</w>
apparen tly</w>
a e</w>
Ves na</w>
Val ley</w>
T assos</w>
Sim itis</w>
Pek usic</w>
N ine</w>
Mit ev</w>
Mill er</w>
M emb
Kamp schror</w>
K ir
In sight</w>
Col onel</w>
Cap ital</w>
C em
12 .
1. 3</w>
ti ming</w>
survi val</w>
sub ur
stan tly</w>
st ories</w>
st an</w>
sh ow
sen ds</w>
s le
res a</w>
re build</w>
re actors</w>
questi oning</w>
prop ag
promp ting</w>
pres sed</w>
passeng er</w>
negoti ated</w>
legitim acy</w>
leg e</w>
keep s</w>
j ourney</w>
ic ip
har der</w>
h at</w>
g a</w>
f an</w>
exten sive</w>
et e</w>
er re</w>
ep tion</w>
de tec
construc t</w>
co tics</w>
c as
bu yers</w>
atell ite</w>
ast ed</w>
an is</w>
am ent</w>
acquis ition</w>
O ld</w>
O L</w>
Mun icip
Mo ody</w>
Mat thew</w>
Mar tin</w>
FE NA</w>
Beq iri</w>
B iden</w>
A D
4 ,
where as</w>
ul ting</w>
uc k</w>
tri um
t une</w>
sugges tions</w>
strateg ies</w>
sp ots</w>
sn ap</w>
ship ping</w>
shi eld</w>
regul atory</w>
re acted</w>
pu r</w>
promot ed</w>
proclaim ed</w>
prac tically</w>
port fol
port al</w>
plac ement</w>
p apers</w>
overn ight</w>
out break</w>
ong side</w>
man n</w>
log is
le um</w>
law suit</w>
land mark</w>
invol ves</w>
intensi fied</w>
ha bit
g ot
g n
g all
fundam ent
fol k</w>
fi ref
fav ours</w>
er b
electr ical</w>
ec ological</w>
e over</w>
def ending</w>
contem porary</w>
co al
cho os
celeb rates</w>
bud sman</w>
back ground</w>
b ound</w>
ass em
al ongside</w>
adverti sing</w>
add resses</w>
accep ting</w>
acc ur
Yil maz</w>
St ock</w>
Srd jan</w>
Srbi ja</w>
Sa udi</w>
P ack
Oper a</w>
Mar k</w>
M ul
L ocal</w>
Ili escu</w>
Fati h</w>
Eur as
Em plo
Egy p
Dra zen</w>
Cor ps</w>
Brid ge</w>
9 8</w>
9 00</w>
8 1</w>
7 3</w>
3 00m</w>
3 00,000</w>
y an</w>
vir tually</w>
valu able</w>
v ess
vess els</w>
su its</w>
prov in
prof essors</w>
pre mi
ou d</w>
onn aire</w>
ob serve</w>
nation ality</w>
inv ite</w>
influ x</w>
il a</w>
if e</w>
ic i</w>
highl ights</w>
gr av
gr ad</w>
gener ations</w>
g as
forec ast</w>
f illed</w>
estim ate</w>
ep ing</w>
en ters</w>
dra v
deplo y</w>
den ies</w>
dec ides</w>
dead ly</w>
cons isting</w>
cigaret te</w>
c eas
b ags</w>
at er</w>
ast ava</w>
arti cles</w>
ar c
ant ine</w>
ag ents</w>
ag e
advis ory</w>
Z drav
Z astava</w>
V ass
Tran sylv
Tok y
S ah
RT K</w>
Novin ite</w>
Kar ic</w>
C E</w>
B a
6 8</w>
1 40</w>
under mining</w>
tw enty</w>
t ext
sin ki</w>
sa m
s h</w>
rup ted</w>
roug hly</w>
ro polis</w>
regar ded</w>
prepa res</w>
parliam ents</w>
ordin ate</w>
or row</w>
od es</w>
occ er</w>
o rest</w>
nor theast</w>
moun ting</w>
met al</w>
mar itime</w>
k ill</w>
jobl ess</w>
it t
impres sive</w>
impres sion</w>
ic o</w>
hun ger</w>
gun s</w>
g est
g ang
fru it</w>
f oglu</w>
entreprene urs</w>
employe e</w>
el and</w>
dis man
depos its</w>
depar ture</w>
deb ates</w>
competi tors</w>
che aper</w>
cam er
bre ad</w>
bal anced</w>
b ond</w>
all i</w>
al a</w>
adv ice</w>
Vel chev</w>
Ser ge
S vil
Rad mila</w>
O br
Nec det</w>
Man agement</w>
Kalet ovic</w>
Hy seni</w>
Hel sinki</w>
Ele k
Alexand rou
Acc ession</w>
A lak
8 3</w>
7 6</w>
6 ,
2 5,000</w>
&apos; d</w>
yi eld</w>
under lined</w>
ul ic</w>
trans form</w>
trag edy</w>
ten ance</w>
suspic ion</w>
su n</w>
stre am
st aun
st ars</w>
sec tions</w>
s cor
s atellite</w>
ri vers</w>
rel ess</w>
rehabil itation</w>
reach es</w>
re la
pu y</w>
pos ters</w>
po orest</w>
per mit</w>
ov ica</w>
n i
man i</w>
l y
l is
interest ing</w>
inten sive</w>
inten d</w>
i as</w>
for th</w>
f ish
explos ives</w>
excep tion</w>
enh anced</w>
en se</w>
em is
e e</w>
dis appeared</w>
def ault</w>
confir ms</w>
classi fied</w>
belong s</w>
b ad
atur k</w>
at ories</w>
account ability</w>
aband oned</w>
a vis
Ukr ain
Ts vet
Sec ur
Rom puy</w>
PN L</w>
Obr ad
Mr .</w>
Lat via</w>
J ovan</w>
J er
I t</w>
I A</w>
Hos p
Georg ievski</w>
D og
D it
C enter</w>
Bag hd
B ern
Alexandrou polis</w>
Alak bar</w>
Accor d</w>
1 30</w>
un ite</w>
tim ate</w>
ti a</w>
sub sid
sub s
stat ue</w>
stabil ise</w>
st ems</w>
s pur</w>
reve al</w>
reluc tant</w>
read s</w>
pa th
p aving</w>
oper ative</w>
oper a</w>
on er</w>
ol jub</w>
n ica</w>
mu tually</w>
mos ques</w>
kl ore</w>
jud g
ine fficient</w>
ig nor
hat red</w>
ham pered</w>
hal ted</w>
ha j</w>
got ten</w>
glob alisation</w>
g olden</w>
frag ile</w>
fos tering</w>
fil m
fe e</w>
fav oured</w>
fall en</w>
f ashion</w>
exc eeded</w>
ex act</w>
erup ted</w>
em an</w>
du al</w>
dra ws</w>
don ations</w>
dict ator</w>
decl aring</w>
collec ting</w>
cle aring</w>
cl ash</w>
cere mon
can in</w>
budget ary</w>
bu yer</w>
brib ery</w>
ar ic</w>
approv es</w>
ann ier</w>
ag uj
Z annier</w>
X h
Wolf gang</w>
Wat ch</w>
Vec ern
Rau foglu</w>
Rad manovic</w>
P ic
P ers
Luk ovic</w>
Kr aguj
Kosov ars</w>
Kos anovic</w>
J ah
Icel and</w>
I on
H oll
Dit ore</w>
Dar ko</w>
D am
Austral ian</w>
Anton ela</w>
An n
1. 4</w>
war nings</w>
v acc
unanim ously</w>
trans actions</w>
them e</w>
tex tile</w>
subsidi ary</w>
ran kings</w>
prerequis ite</w>
popul ated</w>
ou tr
nam ely</w>
mis takes</w>
m al
leg end</w>
j anovic</w>
intensi fy</w>
intellec tual</w>
inst alled</w>
ic tion</w>
ha m</w>
f in</w>
excav ations</w>
er ine</w>
elimin ating</w>
e ums</w>
e fire</w>
competen cies</w>
broadc aster</w>
bro oke</w>
be aches</w>
ar ts</w>
ann es</w>
accel erated</w>
ac he</w>
a g</w>
T A
R ul
R ij
R aj
Pet rescu</w>
Nen ad</w>
Mil ic</w>
Meto hija</w>
Mar ket</w>
L ul
Kraguj evac</w>
K an
Hol brooke</w>
H 5
H5 N1</w>
Go og
Fe ith</w>
Er hard</w>
C red
C re
By z
Bosn ians</w>
B ec
Argent ina</w>
8 2</w>
worri es</w>
watch dog</w>
un necessary</w>
transl ated</w>
t ings</w>
t edly</w>
super vis
sem i</w>
se ar
ri ot</w>
ri gor
publ ish
produc tivity</w>
pre mis
positi vely</w>
pharmaceu tical</w>
persu ade</w>
percep tion</w>
parti ally</w>
par tly</w>
o ked</w>
lo u</w>
leg ality</w>
l ing
institu te</w>
in th</w>
hurd les</w>
hon est</w>
gen u
forec asts</w>
foc uses</w>
fam ili
facilit ating</w>
extremis m</w>
ex tr
est yle</w>
er r
eas ing</w>
e able</w>
dro pping</w>
div ide</w>
div ersi
distribu ted</w>
dem ol
cy cle</w>
confir mation</w>
colum n
coal itions</w>
cigaret tes</w>
ceas efire</w>
cau tious</w>
b arg
attor ney</w>
ass ur
ang er</w>
an gry</w>
add itionally</w>
acknowl edges</w>
Vo ice</w>
Te resa</w>
T or
T ol
T ah
T C</w>
Stamb olic</w>
Shal a</w>
Ser ge</w>
Russi ans</w>
R od
Pro gressive</w>
P lav
Or der</w>
Obrad ovic</w>
Hosp ital</w>
Goog le</w>
Econom ics</w>
D TP</w>
C ode</w>
B on
youn g
we aring</w>
w asn</w>
ut inovic</w>
un ification</w>
ten se</w>
te sting</w>
surve ys</w>
so oner</w>
sk y</w>
sig h
s ongs</w>
repa ir</w>
remar kable</w>
rejec ts</w>
recip i
pris ons</w>
premi ere</w>
pati ent</w>
ordin ating</w>
ol ine</w>
od ra</w>
necess arily</w>
nar cotics</w>
n esses</w>
maint ains</w>
justi fied</w>
innoc ent</w>
im posing</w>
igno red</w>
hn e</w>
emb argo</w>
earthqu akes</w>
dis asters</w>
din ar</w>
compar ison</w>
che ap</w>
c ad
bel ief</w>
beau ty</w>
b us
b os
audi ences</w>
ati cs</w>
ass isted</w>
air space</w>
affec ts</w>
accept ance</w>
Rij eka</w>
RT S</w>
Pro eski</w>
P P</w>
M emor
K am
I OC</w>
G reg
Fri ed</w>
En ver</w>
Der vis</w>
Dan ish</w>
Byty ci</w>
Br anis
B ad
At aturk</w>
A tom
8 4</w>
198 4</w>
1 10</w>
unil aterally</w>
um in
tri ght</w>
top oulos</w>
tic ism</w>
te en
surren dered</w>
suppor ter</w>
s wit
s an</w>
reci proc
re building</w>
rati fy</w>
prosecu te</w>
propag anda</w>
pro lif
popul ations</w>
polic y
p a</w>
ou tright</w>
osoph y</w>
mov ements</w>
main tenance</w>
m all</w>
le y
laun ches</w>
la h</w>
k ap
it an</w>
influ enced</w>
in form</w>
hur t</w>
helicop ters</w>
har b
gl ass</w>
favour ite</w>
exam ine</w>
ex ported</w>
ex ec
ev ident</w>
ed it
dis tur
dis eases</w>
dim inis
di agnos
detain ees</w>
dem arc
counter fe
condem n</w>
command ers</w>
column ist</w>
collap sed</w>
char ter</w>
burea u</w>
bit ter</w>
b i</w>
an ian</w>
am ation</w>
Z latko</w>
Telec ommunications</w>
Sy stem</w>
Stand ard</w>
S in
Phil ip</w>
Jord an</w>
H ome</w>
G rac
G ar
E f
Don ald</w>
Car lo</w>
Air ways</w>
A 1</w>
9 9</w>
7 0,000</w>
5 ,
0 .5</w>
wor n</w>
witn essed</w>
web sites</w>
we igh
we g
w oes</w>
w ishes</w>
w all</w>
viol ating</w>
un changed</w>
the ft</w>
territ ories</w>
stre am</w>
seg ment</w>
se arching</w>
ret ail
requ iring</w>
rel ative</w>
rap porteur</w>
pun ish</w>
preser ving</w>
polic ing</w>
ple aded</w>
p raise</w>
org ans</w>
nj ak</w>
mo di
mo bil
me tre</w>
mand ates</w>
m o</w>
loo ked</w>
lo du
lodu y</w>
liter ary</w>
lis ten</w>
is tr
ion ally</w>
intimid ation</w>
inaugur ation</w>
im i</w>
im ages</w>
ic ting</w>
hon our
h idden</w>
gre y</w>
freez ing</w>
fle e</w>
ent ar
enh ancing</w>
down turn</w>
dispu ted</w>
de emed</w>
dam ages</w>
d ark</w>
consolid ation</w>
bo y</w>
b og
am end</w>
ad mit</w>
T ru
S or
O il</w>
Nor weg
Memb ership</w>
M en
Le ak
Kraj ina</w>
Koz loduy</w>
E FA</w>
Dj ur
Comm and</w>
Char les</w>
Cath erine</w>
C old</w>
6 1</w>
1, 200</w>
&apos; clock</w>
viol ate</w>
v o</w>
v eg
veg et
und ers
tu de</w>
ti met
termin al</w>
t ops</w>
t one</w>
su d
str a
step ping</w>
stead y</w>
satis factory</w>
s occer</w>
ro ll</w>
resid ence</w>
reg ards</w>
re placing</w>
r ation
qu i
privati se</w>
pre jud
per secution</w>
p ers</w>
or ious</w>
no on</w>
mar red</w>
mar athon</w>
manufac turing</w>
m ale</w>
l ad
i y
h ence</w>
flo od</w>
expl aining</w>
dismis sal</w>
den y</w>
deliv ery</w>
conc ession</w>
con stantly</w>
bru tal</w>
athle te</w>
at en</w>
appro aching</w>
anim al</w>
an ski</w>
al ike</w>
ak ed</w>
W ith
Ukrain ian</w>
Tod or
Techn ical</w>
Sl j
Sen ate</w>
R a
Pop ovski</w>
Pet kovic</w>
P M</w>
Olymp i
Norweg ian</w>
M ig
Leak ey</w>
K ap
K PC</w>
Iv anic</w>
Ind ustri
Hox ha</w>
Eng land</w>
ES M</w>
Dnevn i</w>
Cris tian</w>
C auc
Byz antine</w>
Bar ack</w>
B ot
7 4</w>
z im</w>
ulla ku</w>
traffic kers</w>
tic a</w>
th western</w>
th r
ten d</w>
separati st</w>
s enti
s as</w>
ro pol
ri an</w>
re pl
ra g</w>
prosper ous</w>
projec tions</w>
pe t</w>
pa ir</w>
over coming</w>
out lets</w>
or gos</w>
meth od</w>
ley ball</w>
ins ula</w>
in os</w>
in ing</w>
import antly</w>
ill ary</w>
i deal</w>
gre en
gener ated</w>
floo ding</w>
exec ution</w>
ex emp
en force</w>
e ased</w>
dis ban
dec lining</w>
cre ates</w>
consider ably</w>
confir ming</w>
con trad
com posed</w>
cha ir</w>
certi fic
campaig ning</w>
brib es</w>
be aring</w>
avo ided</w>
aspec t</w>
arte facts</w>
am nesty</w>
al p
abol ished</w>
abil is</w>
Z enica</w>
Yil di
W ith</w>
Tri poli</w>
Shk ullaku</w>
SN S</w>
S it
P assy</w>
On line</w>
Nes ovski</w>
Mil enkovic</w>
M el
Lad en</w>
K um
Jar inje</w>
Grac anica</w>
Gh ana</w>
G ent</w>
E g
D abilis</w>
Cred it</w>
Coun ty</w>
Com petition</w>
B ah
13 .
12 ,000</w>
ven ue</w>
upgrad ed</w>
u ph
tu s</w>
trou bled</w>
timet able</w>
til la</w>
text books</w>
teach ing</w>
survi ved</w>
st ones</w>
st at</w>
some what</w>
sev erely</w>
scep tical</w>
s is
ri es</w>
revol ution</w>
rem itt
remitt ances</w>
rejec ting</w>
reciproc ity</w>
rec ycl
quot ing</w>
prostitu tion</w>
propos ing</w>
p an</w>
ou f
mat ure</w>
m aster
low ered</w>
long standing</w>
law ed</w>
j ovic</w>
in her
in habit
ific ations</w>
health y</w>
gradu ate</w>
gir l</w>
gener ate</w>
f ti</w>
expl an
expen se</w>
ev i
er ce</w>
encla ves</w>
emphas ising</w>
ed ed</w>
discipl ine</w>
di ffer</w>
cur ric
cur b</w>
coun ting</w>
cl in
chec ks</w>
celeb rating</w>
c asting</w>
block ade</w>
bl ue</w>
ben ik</w>
ass ure</w>
any where</w>
an ovo</w>
al ties</w>
aff ili
V od
Thrac ian</w>
Tan ja</w>
Si benik</w>
Roc en</w>
Patri arch</w>
Organis ed</w>
ME Ps</w>
M om
La w
H illary</w>
F ou
Bor islav</w>
An d
An agnos
Ag ainst</w>
7 7</w>
15 0m</w>
uro vic</w>
under stood</w>
un fair</w>
u sage</w>
su m</w>
str ained</w>
scru tiny</w>
scho ol
resum ed</w>
r on</w>
mus eums</w>
mnas tics</w>
li e</w>
let ters</w>
l ying</w>
ic ian</w>
ic ans</w>
h ide</w>
gr aves</w>
flex ibility</w>
fel d</w>
ev ska</w>
et te</w>
egr ad</w>
demarc ation</w>
deleg ates</w>
deep er</w>
d ur
crow ds</w>
coun ted</w>
complain t</w>
co al</w>
choos ing</w>
camer as</w>
c m</w>
c able</w>
ap olog
amb itions</w>
al together</w>
ag gres
advant ages</w>
accoun table</w>
W ah
V ol
UD F</w>
T ose</w>
T op</w>
Svil anovic</w>
Serge i</w>
Ser v
SA F</w>
S t</w>
S om
R an
Pi erre</w>
P D</w>
Mil anovic</w>
L ip
Koc i</w>
Kaz ak
K PS</w>
Jo hn
H il
F itch</w>
E X
C ic
Av az</w>
A z
3 50</w>
y ard</w>
underg o</w>
under p
tre es</w>
the ory</w>
termin ation</w>
ten ing</w>
ten ders</w>
ta il</w>
stor age</w>
stan tin
sh e
sem i
reg ain</w>
publ ish</w>
provid er</w>
pro mo
pl ur
pl eas
pip elines</w>
pain tings</w>
occup ied</w>
o grap
nar row</w>
mod els</w>
m ates</w>
lob b
land s
la y
k ids</w>
insp ired</w>
in comes</w>
i est</w>
hand ball</w>
g ate</w>
frustr ation</w>
flex ible</w>
fi erce</w>
f ighters</w>
explo itation</w>
expl ore</w>
endang ered</w>
distr icts</w>
dis closed</w>
dev ices</w>
deep ening</w>
dam aging</w>
d ent</w>
conclud es</w>
compe tent</w>
cap ability</w>
c old</w>
bom bs</w>
b urs
autonom ous</w>
anis t</w>
an tek</w>
an ou</w>
al bu
ad ar</w>
absol ute</w>
a ison</w>
We ek</w>
U S
Tro ika</w>
Tat l
Tal ks</w>
S ing
Re f
Petro leum</w>
P ula</w>
N o</w>
Mon it
M od
Li brary</w>
Lati n</w>
L ag
I SAF</w>
H en
F lor
E ide</w>
D C</w>
C C</w>
Bil dt</w>
B orders</w>
Al ina</w>
7 1</w>
2 5
1. 7</w>
wor sen
wi reless</w>
war m</w>
w alls</w>
view ers</w>
vac ation</w>
un official</w>
tou ch</w>
ti tles</w>
tem por
su ffici
stud ying</w>
st akes</w>
spre ading</w>
slow down</w>
simultane ously</w>
sh ock</w>
s ke
retur ne
regis try</w>
reform ist</w>
questi onnaire</w>
profession alism</w>
pre dict</w>
po ets</w>
p oc
p ages</w>
or ph
od will</w>
occas ions</w>
nor ms</w>
mis sed</w>
marri ed</w>
marg in
m ak</w>
less ons</w>
land sli
l ustration</w>
l an</w>
j ek</w>
j ag
interven e</w>
interpre ted</w>
har sh</w>
ha r</w>
h an
glo be</w>
fu sion</w>
fol klore</w>
fl ows</w>
fac to</w>
ev ade</w>
es el</w>
dis agree</w>
devast ating</w>
descri be</w>
deliv eries</w>
cy ber</w>
control ling</w>
bri g
bre ach</w>
bo ards</w>
attitu des</w>
an ovski</w>
al an</w>
ack ers</w>
abol ish</w>
Y ves</w>
W h</w>
V an
U EFA</w>
T O</w>
Secur itate</w>
S ays</w>
Ren ew
Pak istan</w>
P R
N ad
N A
Mlad en
Mihaj lovic</w>
Mar ty</w>
Inter pol</w>
Fou ere</w>
F est</w>
F ederal</w>
Ex press</w>
D an</w>
Bud va</w>
Branis lav</w>
B road
ul ations</w>
trigg er</w>
thor ough</w>
th rown</w>
t apped</w>
t ape</w>
swim ming</w>
sust ain</w>
surro und
st adium</w>
soci alist</w>
sk e</w>
sac rif
s ul
ro p
regul ate</w>
protest ed</w>
pre conditions</w>
postpon ement</w>
pos al</w>
pl ates</w>
pl agu
p m</w>
on i</w>
od rag</w>
m em
law maker</w>
jan ovski</w>
j ak</w>
inv itations</w>
ik ov</w>
identi fication</w>
id a</w>
i que</w>
host age</w>
hi red</w>
har m
h in</w>
gro ss</w>
ge ograph
fin alise</w>
fi x</w>
experi encing</w>
ex isted</w>
environ ment
ed ict</w>
don ation</w>
dis agrees</w>
dang ers</w>
compon ent</w>
co ffe
bus y</w>
box es</w>
boo m</w>
bid der</w>
bi ased</w>
ban ds</w>
ag m
advoc ate</w>
ad is</w>
accoun ting</w>
ac him</w>
W i
V latko</w>
Tal eski</w>
Sy d
Ste el</w>
Shk odra</w>
S ret
Pe tr
Pav kovic</w>
P hot
P az
P att
N av
N S</w>
Luk oil</w>
Le hne</w>
L iter
L ife</w>
H on
Elek tro
Egyp tian</w>
Boris s
Anagnos topoulos</w>
AR M</w>
9 6</w>
8 8</w>
work shop</w>
v owing</w>
ty co
tur bul
tou gh
tom b</w>
te ar</w>
stret ch</w>
stead ily</w>
st ag
sol ely</w>
shel ter</w>
sha ke</w>
se x</w>
se iz
ris en</w>
ri vals</w>
repor ter</w>
ref uses</w>
r ated</w>
pursu ing</w>
protest ing</w>
prin t</w>
preced ent</w>
prec au
portfol io</w>
pol o</w>
pic tures</w>
p oul
poul try</w>
oppon ent</w>
ol ig
norm alisation</w>
mis take</w>
mic ro
mat h</w>
manufacture r</w>
j man</w>
inter f
indic ation</w>
im prison
il ovic</w>
ik ovic</w>
ignor ing</w>
house hold</w>
hand led</w>
h its</w>
h es</w>
gu est</w>
gas oline</w>
fu els</w>
for tress</w>
fle et</w>
execu ted</w>
ess ence</w>
enti onal</w>
emb ar
el abor
di ff
design ate</w>
defend ant</w>
def ended</w>
de av
d z
d ian</w>
coun cil
cont ain
consequ ence</w>
cons ent</w>
congrat ulated</w>
cir cles</w>
char ity</w>
ch iefs</w>
c oo
brief ing</w>
ati s</w>
at e
assur ances</w>
architec t</w>
ar as</w>
appro aches</w>
appl ies</w>
am i</w>
acqu is</w>
a e
Transylv ania</w>
Stu dy</w>
St or
St adium</w>
Roman o</w>
Rad icals</w>
P li
Offic ial</w>
O M
NM S</w>
Monit oring</w>
Mal ta</w>
Kur ti</w>
Jo achim</w>
J ews</w>
I A
Gord on</w>
G on
FI FA</w>
ES S</w>
D es
Coun tries</w>
Citiz ens</w>
Cauc as
Beq aj</w>
Bar b
Bar an</w>
BN N</w>
15 .
1 5m</w>
1 4.
young est</w>
we ar</w>
we alth
w ouldn</w>
w an
tempor arily</w>
tel ev
system atic</w>
swi ft</w>
sustain ability</w>
spec tac
smo ke</w>
sl ight</w>
sl ated</w>
sh ouldn</w>
s feld</w>
ro ot</w>
reiter ating</w>
ref rain</w>
re y</w>
re viewed</w>
re patri
prosecu ted</w>
ph or
peri ods</w>
om e
not ably</w>
neg lec
moun tain
mand atory</w>
le g</w>
k in</w>
ivers al</w>
inhabit ants</w>
in cur
imprison ment</w>
il da</w>
i ing</w>
i ation</w>
ha c</w>
h r</w>
gr ades</w>
gr ace</w>
genu ine</w>
ful fil
fl ying</w>
fic ial</w>
fe els</w>
exper im
exp elled</w>
every where</w>
entr ance</w>
enjo ying</w>
emp ty</w>
emis sions</w>
elim inated</w>
edit orial</w>
dign ity</w>
dev oted</w>
dec ree</w>
de m</w>
d um
d rought</w>
cul tures</w>
cred itors</w>
cour age</w>
cou ldn</w>
con vention</w>
compl ain</w>
compe ted</w>
av ian</w>
arm ies</w>
alloc ate</w>
adequ ately</w>
Tatl ises</w>
Tah iri</w>
Sh antek</w>
S nez
S ev
Rum sfeld</w>
Ref uge
P TK</w>
O k
N ok
Muam mar</w>
M ot
M ol
M ESS</w>
Kum anovo</w>
Kuc i</w>
Kal fin</w>
Jon ilda</w>
I n</w>
H a
E S</w>
Ben edict</w>
B ay</w>
7 0m</w>
wr ong
we ight
up rising</w>
under going</w>
u el</w>
tot alling</w>
techn ically</w>
t rem
t ab
sp ur
smo kers</w>
sion ed</w>
sign atures</w>
s elec
rout sas</w>
rel s</w>
regul ated</w>
read ers</w>
re trial</w>
re m</w>
re ath</w>
prolif eration</w>
pro por
premis es</w>
pol ar
parliam entar
p ays</w>
ow ers</w>
objec ts</w>
o ara</w>
min ers</w>
milit ant</w>
ling ering</w>
le f
l acking</w>
iz elos</w>
iti c</w>
iro k
io tis</w>
inter n
il s</w>
ie i</w>
hu b</w>
harm ful</w>
gren ades</w>
gang s</w>
fore sts</w>
foot age</w>
elim ination</w>
democr acies</w>
dec iding</w>
coun ty</w>
conv inc
contr acted</w>
comm enting</w>
coffe e</w>
cl inic</w>
check point</w>
cap itals</w>
break s</w>
break away</w>
benef icial</w>
bel onged</w>
be aten</w>
b uses</w>
associ ates</w>
as ti
as ov</w>
appl ying</w>
an ch
al ent</w>
accompl ished</w>
aband on</w>
Zar ko</w>
Z uk
With out</w>
War saw</w>
W H
WH O</w>
Vuk cevic</w>
Vis egrad</w>
Ven izelos</w>
Vel es</w>
Ter ror
T E</w>
Syd ney</w>
S O</w>
Pli va</w>
Pers ons</w>
PA CE</w>
P ac
O si
Mo bil
Mit rev
Mis ko</w>
Miha i</w>
Mi odrag</w>
Jos ip</w>
In f
H or
Gj irok
G ra
Del ta</w>
D routsas</w>
C amp</w>
Bes a</w>
B ou
B ill</w>
Andri ja</w>
Al ph
Al kal
8 6</w>
1 00
yi el
wrest ling</w>
work shops</w>
u tionary</w>
tax pay
t g
substan ti
su e</w>
sit ting</w>
shoc ked</w>
sho ot
sen s
sc r
revi ve</w>
referend a</w>
re ate</w>
qu ake</w>
psych ological</w>
promot es</w>
privileg ed</w>
preser ved</w>
pre m
por ter</w>
ovi ć</w>
ot ted</w>
on ds</w>
om munication</w>
oc ic</w>
not orious</w>
neutr al</w>
ner ships</w>
n el
mur dered</w>
mean time</w>
m ity</w>
k ick</w>
iv an
it ting</w>
ist ently</w>
ir on</w>
gre eted</w>
gr ants</w>
form ula</w>
ffic king</w>
expl oded</w>
exc ise</w>
es cap
ed ding</w>
dram atically</w>
doll ars</w>
dist ingu
dis content</w>
di ja</w>
di esel</w>
defin ing</w>
cos tly</w>
convinc ing</w>
continu ous</w>
compati ble</w>
bu g</w>
boycot ted</w>
bor rowing</w>
ay a</w>
av ed</w>
arbit ration</w>
appoin ting</w>
al ert</w>
absor ption</w>
Tra fficking</w>
T un
S us
S mil
Pol t</w>
Patt en</w>
O DI
Nok ia</w>
Mis s</w>
M ex
M es
M as
Journ alists</w>
Jan kul
Jan ica</w>
J ones</w>
J ol
J and
Ind ian</w>
IC C</w>
I sm
H o
Gaz a</w>
G he
Ev ang
EX IT</w>
D eb
D OS</w>
Cic ek</w>
Ass oci
7 .5</w>
5 0th</w>
3 01</w>
1. 5m</w>
w aves</w>
w an</w>
vol leyball</w>
us tin</w>
un paid</w>
ul ating</w>
trans ported</w>
tax i</w>
tal ity</w>
suffici ently</w>
subjec ts</w>
spir it
sof t</w>
s worn</w>
rum ours</w>
resid ential</w>
research er</w>
rem ote</w>
reduc tions</w>
re placement</w>
r ush
prof ession</w>
prec ise</w>
pr agm
ou l</w>
medi ated</w>
leng thy</w>
l am
jun ior</w>
j o</w>
ish ness</w>
ir rever
g ates</w>
fr ame</w>
explos ive</w>
exclud ed</w>
exclu sively</w>
est i</w>
em atic</w>
ell ers</w>
drin king</w>
dis agreement</w>
den ying</w>
demonstr ating</w>
del aying</w>
dec or
credi ble</w>
cont ained</w>
compos er</w>
compon ents</w>
comfor table</w>
comb ination</w>
can t
c astle</w>
birth day</w>
ati can</w>
are ly</w>
ar iat</w>
amoun ting</w>
al om</w>
Z il
Z adar</w>
W est
Vass il
Var na</w>
V atican</w>
T o
Scot sman</w>
S M
Pro per
P D
O sl
O EC
OEC D</w>
Ned j
Moun tain</w>
Mak edon
M eg
L ef
Jan sa</w>
I B
Gen c</w>
E k
E ar
Dj urovic</w>
Col in</w>
Caucas us</w>
A tan
8 0m</w>
4 00,000</w>
1, 800</w>
ww w
un usual</w>
tom orrow</w>
the at
stag nation</w>
spok en</w>
spec t
sha kes</w>
sh ore</w>
scre ened</w>
scienti st</w>
s an
round up</w>
ro kovic</w>
regis tering</w>
re bel</w>
qu it</w>
predic ts</w>
ph y</w>
p h</w>
ore r</w>
om budsman</w>
n inth</w>
n ight
leg end
legend ary</w>
kt ash</w>
ke red</w>
ivan canin</w>
integr al</w>
in ski</w>
ign ore</w>
hop eful</w>
ha zi</w>
h ovic</w>
gu ide</w>
gall ery</w>
f ies</w>
evalu ate</w>
ess entially</w>
erg ence</w>
end ar
emerg e</w>
elec torate</w>
ed ia</w>
dil em
d ering</w>
cul tiv
cr ash</w>
contr actors</w>
cond ol
comment ator</w>
bid ding</w>
be ach</w>
assum ing</w>
ar che
appreh ended</w>
appreci ation</w>
anti qu
amb ers</w>
agre eing</w>
acc idents</w>
ab uses</w>
Zdrav ko</w>
Y ou
Wah hab
Te am</w>
T as
Slj ivancanin</w>
Si bi
Oc alan</w>
Nedj eljko</w>
Mar ian</w>
M ile</w>
M OL</w>
Kad are</w>
K ristina</w>
Jos ep
Jand rokovic</w>
Has an</w>
G el
G N
Dog an</w>
Den ktash</w>
D aci</w>
Con temporary</w>
Baj ram
B A</w>
An tal
A E</w>
A D</w>
9 ,000</w>
6 .5</w>
5 .5</w>
1. 1</w>
www .
vill agers</w>
util ities</w>
un happy</w>
ul escu</w>
tril ateral</w>
tr ains</w>
to ols</w>
tin ational</w>
tes y</w>
ten ure</w>
t ty</w>
swe eping</w>
suspic ious</w>
survi v
sp ite</w>
slog an</w>
sign alled</w>
si m</w>
shoc ks</w>
set back</w>
separ ation</w>
seas ide</w>
schem e</w>
resum ption</w>
renov ation</w>
renov ated</w>
re ward</w>
re per
quar ter
publ ication</w>
prov oked</w>
privati sed</w>
pos s
par ks</w>
ov ei</w>
op pos
oo ds</w>
om ing</w>
my self</w>
mod est</w>
m our
low ering</w>
log ical</w>
li brary</w>
la d</w>
k ovska</w>
ir y</w>
inv ent
inc i</w>
ij evic</w>
harmon isation</w>
go odwill</w>
fulf ill
ex agg
eu v
equiv alent</w>
em ic</w>
ed er</w>
dou bled</w>
di e</w>
conv entional</w>
consul ting</w>
commun icate</w>
challeng ed</w>
ch ner</w>
caf es</w>
c argo</w>
c ann
bur ned</w>
boos ted</w>
bo asts</w>
be t</w>
astr a</w>
as evic</w>
arg ument</w>
arch y</w>
anony mous</w>
an th
ae us</w>
adem os</w>
accommod ation</w>
acc es
academ ics</w>
ac le</w>
Y as
W TO</w>
Vir g
V in
Top alli</w>
T eh
Stor m</w>
Sibi u</w>
Rud ovic</w>
Renew al</w>
Pir aeus</w>
Pap ademos</w>
Osi jek</w>
Os se
Olympi ad</w>
Mon astery</w>
Man ager</w>
Le ad
L ov
L and</w>
K en
Gi orgos</w>
G en</w>
F is
EU PM</w>
D amir</w>
Christo s</w>
C inem
C ec
Boriss ov</w>
Bl ue</w>
Barb u</w>
B H</w>
Ar b
Antal ya</w>
7 5m</w>
2 50m</w>
. hr</w>
y wood</w>
v est</w>
ul timate</w>
tro op</w>
threat ens</w>
telev ised</w>
suppl iers</w>
st aying</w>
spect ators</w>
so il</w>
sk iing</w>
sh ale</w>
separ ated</w>
seg ments</w>
sec onds</w>
scor ing</w>
res titu
regim es</w>
po ol</w>
part nerships</w>
pain ter</w>
p yr
over throw</w>
occup ation</w>
neg atively</w>
medi ation</w>
la ke</w>
is oara</w>
is ely</w>
inv al
ins ulting</w>
infec tion</w>
incenti ve</w>
in deb
impres sed</w>
imp ly</w>
ill ustr
id able</w>
i ou</w>
human e</w>
high ways</w>
harmon ic</w>
h all</w>
gr ati
ga z</w>
fulfill ment</w>
flo tilla</w>
flo or</w>
ex ha
er se</w>
enthusi as
end i</w>
ed g
dog s</w>
dic ts</w>
destabil ise</w>
d ar
d able</w>
convic tion</w>
convers ation</w>
compar atively</w>
commit tees</w>
coh es
cau tion</w>
carri ers</w>
bureaucr acy</w>
bo x</w>
awa its</w>
avo iding</w>
aus escu</w>
atten dance</w>
assa ult</w>
arri ves</w>
ar ming</w>
anc ement</w>
ag gressive</w>
after noon</w>
aff air</w>
af t</w>
abol ition</w>
V I</w>
Te od
T ony</w>
T ob
Sy n
St ol
Represent atives</w>
Po etry</w>
Plav sic</w>
ODI HR</w>
Mitrev a</w>
Maj a</w>
Mac ovei</w>
M B
L es
L A
K un
K ok
K il
K ac
Josep h</w>
J ul
J ocic</w>
I bar</w>
I P</w>
H ax
Gjirok astra</w>
Fran k
F or</w>
Euro pol</w>
Euras ian</w>
En ter
Emplo yment</w>
EC HR</w>
Dimitri j</w>
Dimit ar</w>
Den is</w>
D r</w>
D mit
Cl ark</w>
Ar hin</w>
An na</w>
Ac ropolis</w>
9 1</w>
9 ,
8 7</w>
z abe
wind ow</w>
v est
under taking</w>
u ese</w>
tr y
t ree</w>
stic k</w>
sil ent</w>
s pl
s per</w>
road map</w>
restitu tion</w>
res ource</w>
ref er</w>
re vision</w>
r y
prov ing</w>
polic eman</w>
pic k</w>
percep tions</w>
opol iti
oc a</w>
o od
nov el
nav ig
ment ality</w>
m ati
le tin</w>
lands cape</w>
kid n
k al</w>
hu ff
helicop ter</w>
headscar ves</w>
h ad
fore ver</w>
firef ighters</w>
famili ar</w>
exp ul
ex posed</w>
every day</w>
ent aries</w>
eng ine</w>
enabl ed</w>
en i</w>
embe zz
eigh th</w>
disban ded</w>
dev ice</w>
crow ded</w>
con str
con ferences</w>
clean sing</w>
civil isation</w>
cep anovic</w>
bro kered</w>
bank rupt</w>
awa ited</w>
autom atically</w>
auth enti
attr action</w>
ass ment</w>
arti stic</w>
ak ing</w>
V N</w>
Tud jman</w>
Teh ran</w>
Steph en</w>
Serv ices</w>
Sad iku</w>
S pr
S ok
S P
R I</w>
Portug uese</w>
Par av
Osse tia</w>
Osl o</w>
M obile</w>
M HP</w>
Lul zim</w>
L ou
Kou chner</w>
Investig ative</w>
Invest ments</w>
Inter nal</w>
I PA</w>
Hum an
Ghe org
Euro stat</w>
En voy</w>
Eli zabe
Direc t</w>
D re
D ick</w>
Con trol</w>
Ce ausescu</w>
C ed
Bern ard</w>
B ug
B eg
B e</w>
Ap pe
An ti
An ders</w>
20 km</w>
12 m</w>
weak nesses</w>
wat ched</w>
un stable</w>
ul ted</w>
trav ellers</w>
tou ched</w>
tot alled</w>
thre w</w>
taxpay ers</w>
t um
surpris ing</w>
succ eed
stric tly</w>
stabil ising</w>
st ers</w>
st amp</w>
sm oo
sl owed</w>
shad ow</w>
sh ap
s y</w>
s lim</w>
rob ust</w>
ri m</w>
ri ft</w>
reser ved</w>
res huff
remin ded</w>
relation ships</w>
re alisation</w>
rad ar</w>
propos es</w>
prohib ited</w>
pos session</w>
po ised</w>
phil osophy</w>
p acked</w>
overwhel m
overwhelm ingly</w>
or lic</w>
noti ced</w>
ne red</w>
mir al</w>
mem ory</w>
me ters</w>
m ood</w>
lov di
lovdi v</w>
loc ked</w>
lim iting</w>
labor atory</w>
irrever sible</w>
inev itable</w>
impe tus</w>
il o</w>
igh ter</w>
i ffs</w>
i at
high light</w>
headscar f</w>
he t</w>
gu r</w>
gr and</w>
exp ires</w>
et on</w>
es si
en forced</w>
dist ant</w>
dis burs
din ars</w>
destro ying</w>
des per
de but</w>
d ay
cul min
crip ts</w>
compl ex
co ff
be er</w>
bad ly</w>
appreh end</w>
anim als</w>
alloc ation</w>
all evi
al ty</w>
affor dable</w>
adjust ment</w>
acqu iring</w>
Zuk orlic</w>
Ze al
Z i
Vl asic</w>
T es
Sret en</w>
S on
S is
S cepanovic</w>
S R</w>
R ou
R ail
R W
R O
R EC
P lovdiv</w>
N ap
Mark ac</w>
Mar in</w>
M echanis
M atic</w>
Ku z
Kr st
J av
Her man</w>
H rant</w>
H at
For d</w>
Fo ot
Em ir</w>
E th
E aster</w>
E VN</w>
D uk
D owner</w>
D ac
Christi ans</w>
Bel ar
Baghd ad</w>
B uk
Alph a</w>
Alkal aj</w>
9 7</w>
z es</w>
y ach
with drawn</w>
vol ati
ver dicts</w>
us s</w>
un law
un a</w>
uc a</w>
tre at</w>
tis m</w>
than k</w>
tan ks</w>
tak eover</w>
succ esses</w>
st resses</w>
st ays</w>
smo oth</w>
sil es</w>
se ism
s or
ro ls</w>
ri ble</w>
ret ariat</w>
resign ations</w>
reflec ting</w>
recomm ends</w>
re vo
rac es</w>
ra rely</w>
produc es</w>
per cent</w>
peac efully</w>
pati ence</w>
pat rols</w>
par ad
og h</w>
nor theastern</w>
nit ure</w>
mis siles</w>
long est</w>
lo ose</w>
liquid ity</w>
leng th</w>
lay offs</w>
lav a</w>
k ind
jun c
ill u
il ity</w>
if f</w>
ide ology</w>
h anding</w>
for gotten</w>
for ged</w>
fin ed</w>
film makers</w>
f ran
f ast
effec tiveness</w>
docum entaries</w>
dem ographic</w>
cre w</w>
clash ed</w>
ca ve</w>
c ites</w>
bra in</w>
bo at</w>
ber to</w>
b one</w>
b TV</w>
appoin tments</w>
ag og
advis ed</w>
a to</w>
V ran
V j
Tran si
Statisti cal</w>
Sk ender</w>
Sh ort</w>
Selim i</w>
Sch ook</w>
Rem ikovic</w>
Phil harmonic</w>
P oc
P ie
Or chestr
O sc
O sa
Nov a</w>
Nicol ae</w>
Naz i</w>
N as
Mom cil
Man j
Man aging</w>
MR F</w>
M t</w>
M ail</w>
Jan ez</w>
J u
J ag
In surance</w>
I sa
He ad
Gul er</w>
Fre edoms</w>
Foot ball</w>
F ar
Doc um
Di Carlo</w>
D E
Coun try</w>
C ra
C annes</w>
B ar</w>
Amer icans</w>
Abd ul
A mar
9 3</w>
7 9</w>
18 0</w>
won der</w>
wind ows</w>
weap on</w>
war ming</w>
umb rel
transf erring</w>
trag ic</w>
traffic ked</w>
tor n</w>
tion ality</w>
there by</w>
th coming</w>
tar iffs</w>
tac tics</w>
suspic ions</w>
suppl ier</w>
st um
sl alom</w>
shi f
satis fy</w>
returne es</w>
r ying</w>
pu mp
prosecu ting</w>
probl ematic</w>
pro portion</w>
pri anou</w>
pic ked</w>
photograph s</w>
pers istent</w>
p ed
or ian</w>
objec t</w>
nov el</w>
nom ine
ne ys</w>
mot to</w>
modern ising</w>
min ed</w>
main stream</w>
m ere</w>
m aps</w>
l un
justi fy</w>
j ar</w>
is en</w>
is ations</w>
inspec tors</w>
indic ating</w>
ic iary</w>
ic ating</w>
harmon ise</w>
guid elines</w>
grad ual</w>
gr am</w>
gov ern</w>
geograph ical</w>
g s</w>
for ums</w>
for thcoming</w>
fe et</w>
f asc
enthusias m</w>
ed icine</w>
dr ink</w>
difficul ty</w>
dict at
di o</w>
d an</w>
commer ce</w>
cohes ion</w>
catastro ph
bur ning</w>
bl aming</w>
barri er</w>
ath em
argu ably</w>
announ ces</w>
analy se</w>
an kov</w>
al arm</w>
ain ts</w>
after math</w>
af one</w>
activis t</w>
Z og
X VI</w>
Vod afone</w>
T his</w>
Sec ond</w>
Sam ir</w>
S hi
S M</w>
Refuge es</w>
Ran ko</w>
R et
Pri x</w>
PD L</w>
Ob serv
N uclear</w>
Momcil o</w>
Mir anda</w>
Mar shall</w>
M an</w>
M AP</w>
Ky prianou</w>
Kot or</w>
Kos ovar</w>
K el
K av
Il ly
I F
His tory</w>
H r
El ena</w>
EM O</w>
Di alogue</w>
D um
Clu j</w>
Civ ilian</w>
C K</w>
Bu y
Bas bug</w>
B ir
A wards</w>
A ut
A j
3. 6</w>
2 50,000</w>
1 7.
z i
y ards</w>
wil d</w>
ur i</w>
ur an
unanim ous</w>
un realistic</w>
trium ph</w>
t ancy</w>
surround ed</w>
stand by</w>
situ ated</w>
schol ar
sch inger</w>
scep ticism</w>
s i</w>
run ner</w>
ro i</w>
rev ic</w>
renew al</w>
regul ator</w>
regul ating</w>
re affir
questi onable</w>
qual ifying</w>
qual ify</w>
prec isely</w>
pre siding</w>
perfec t</w>
over ing</w>
oul gar
oulgar akis</w>
oppos ite</w>
o je</w>
mo thers</w>
mid night</w>
me rely</w>
me ga
mega wat
lo yal</w>
l ap
l agging</w>
kic ks</w>
ke en</w>
k u
j ed
in ery</w>
in direct</w>
il i</w>
hon ours</w>
hear ings</w>
h stan</w>
guarante eing</w>
grati tude</w>
gest ure</w>
ge opoliti
fur t</w>
explan ation</w>
exp ed
ex pos
et t</w>
er ating</w>
enem y</w>
enabl es</w>
ed es</w>
echo ing</w>
domin ant</w>
dis satisfaction</w>
dis cre
den om
consolid ate</w>
bog ar</w>
bi ological</w>
barr acks</w>
bal let</w>
b ab
assess ing</w>
ass er
as set</w>
are well</w>
applic ants</w>
anc ic</w>
al i
ab used</w>
a viation</w>
a ust</w>
Z one</w>
Ves elin</w>
V oulgarakis</w>
Turk ishness</w>
Tim e</w>
Th om
Terror ism</w>
T ha
St ar</w>
Sar ic</w>
Ro ad</w>
Presid ential</w>
Orchestr a</w>
NB S</w>
Mil utinovic</w>
Mechanis m</w>
Mar ic</w>
Mar i
M ik
Liter ature</w>
Kazak hstan</w>
K yr
IC O</w>
I schinger</w>
Head quarters</w>
F ogh</w>
Even ings</w>
Econom ist</w>
E ve</w>
Dav inic</w>
Ch ange</w>
Ced omir</w>
C AR
Bus ek</w>
Bor ut</w>
Belar us</w>
Bay kal</w>
B eng
B B</w>
Ang el</w>
Afgh an</w>
7 ,
5 50</w>
1 6.
y m
work force</w>
wat er
vir tual</w>
v as
urg ently</w>
under stands</w>
un named</w>
ul ovic</w>
ul atory</w>
them es</w>
subs cri
stri king</w>
st ayed</w>
spirit ual</w>
speci fied</w>
sop his
sophis tic
sk illed</w>
sh oul
secular ists</w>
sa ved</w>
round table</w>
ros sed</w>
rol led</w>
roc ket</w>
resol utions</w>
rec overed</w>
r allies</w>
pri de</w>
pref erred</w>
policy makers</w>
po t</w>
phot ograp
part ments</w>
par ade</w>
pack ages</w>
p o</w>
out lines</w>
os is</w>
oc ked</w>
necess ity</w>
nar row
n u
marri age</w>
manip ulation</w>
lobb ying</w>
lat eral</w>
landsli de</w>
l ending</w>
j et</w>
inten tions</w>
inspec tion</w>
im ent
hon y</w>
h ate</w>
gradu ates</w>
fur niture</w>
fru it
follow ers</w>
f arewell</w>
eth ical</w>
escal ation</w>
er ad
ell er</w>
ec o</w>
deser ve</w>
d are</w>
cru ise</w>
cro ft</w>
coun try
cou ples</w>
class ical</w>
clar ify</w>
ch ick
ce ase</w>
carri es</w>
cap tain</w>
bri be</w>
bom ir</w>
bil l
auc tion</w>
arri ving</w>
arr ay</w>
an in</w>
am en</w>
albu m</w>
ad ults</w>
ad ier</w>
accur ate</w>
accommod ate</w>
Z bogar</w>
Vla hovic</w>
Ven ice</w>
Tz anis</w>
Tu be</w>
Tra v
T ax</w>
St am
Sel f</w>
Sch ro
R is
P ur
P uk
P and
Oper ations</w>
O ver</w>
N ex
Mus li
Mir jana</w>
Mex ico</w>
M ass
L y
J an</w>
J NA</w>
Ion ian</w>
Hot el</w>
Holl ywood</w>
Harr i</w>
Gu enter</w>
Gre ater</w>
Frank furt</w>
F ro
F ood</w>
Enter pris
E L
E F
Dmit ry</w>
Ch ris</w>
Ch er
C NA</w>
Beng hazi</w>
Be h
Bal let</w>
B oc
Arab ia</w>
An ast
Amar iei</w>
Ad miral</w>
2. 9</w>
upgrad ing</w>
up set</w>
top ped</w>
su bor
st aff
ske p
sign atories</w>
set tling</w>
second ly</w>
scre en
relig ions</w>
r ings</w>
r as</w>
qui et</w>
quanti ties</w>
privileg es</w>
priv acy</w>
pre gn
pre feren
preferen tial</w>
pl enty</w>
ph ases</w>
pan ic</w>
out lining</w>
out dated</w>
ous ness</w>
ori entation</w>
o id</w>
o euv
nic kn
neigh bor
min ds</w>
le ague</w>
k sic</w>
it aries</w>
ins istence</w>
inqu iry</w>
inher ited</w>
indic ator</w>
iment ul</w>
imag ine</w>
histor ians</w>
gar nered</w>
fu n</w>
frustr ated</w>
f it</w>
f illing</w>
est er</w>
employ s</w>
emphas ises</w>
emphas ise</w>
e tery</w>
dis bur
dimen sion</w>
di l</w>
deliber ately</w>
cru de</w>
conclu ding</w>
con voy</w>
con sp
con front</w>
com position</w>
coast line</w>
c rossed</w>
c em
bureaucr atic</w>
broad band</w>
bol ster</w>
blo g</w>
black mail</w>
bid ders</w>
ban s</w>
ann i</w>
an os</w>
an it</w>
ab ide</w>
Z eri</w>
You Tube</w>
Y oun
Wat er</w>
W W
V ik
T og
Srp ske</w>
Schro eder</w>
Sav ings</w>
Sah in</w>
Saf et</w>
S NA</w>
Pres evo</w>
Paz ar</w>
P lat
P la
Osc ar</w>
On e</w>
OM V</w>
Mor at
Mo on</w>
Mar mar
Man ch
M im
M andic</w>
Lju be</w>
Laz arevic</w>
Kuk es</w>
K ust
K us
K ris
John son</w>
Jak up</w>
J oz
I FI
HR T</w>
Gord an</w>
F lo
Even imentul</w>
Em erg
Elec toral</w>
Constan ta</w>
Cla ude</w>
Christi e</w>
But mir</w>
Bon n</w>
B in
B ere
B at
Andre as</w>
A rena</w>
8 9</w>
3 5,000</w>
2. 2</w>
1 60</w>
wal ked</w>
w n</w>
vo kap
vokap ic</w>
uran ium</w>
un constitutional</w>
umbrel la</w>
u ous</w>
ti p</w>
sur face</w>
sugges tion</w>
st e</w>
squ ad</w>
spectac ular</w>
sh ots</w>
sacrif ice</w>
ro yal</w>
re places</w>
re es</w>
re consider</w>
r u</w>
pul led</w>
provid ers</w>
promo tional</w>
pres cri
precau tionary</w>
pos ter</w>
plagu ed</w>
pl un
pl janin</w>
perman ently</w>
pat ter
parliamentar ians</w>
par ame
p ce</w>
ou b
ot y
mis use</w>
merg ed</w>
meas uring</w>
mean ing
mach ine</w>
m ourn
li am</w>
l aration</w>
l ana</w>
keep er</w>
k ok</w>
ir responsible</w>
integr ating</w>
inis t</w>
independ ently</w>
in directly</w>
in ability</w>
im per
ie w</w>
ic ted</w>
histor ian</w>
hing es</w>
h asn</w>
gy mnastics</w>
gif t</w>
geopoliti cal</w>
g ue</w>
g lad</w>
fr ing
foo t</w>
flo oded</w>
fi xing</w>
feas ible</w>
fe aring</w>
fat al</w>
fac tions</w>
expos ure</w>
explos ions</w>
es sel</w>
envision ing</w>
endang er</w>
en ovski</w>
en acted</w>
def ense</w>
cor ner</w>
consul ate</w>
cons istently</w>
condol ences</w>
con secu
competen ce</w>
commit ting</w>
cla uses</w>
chair s</w>
car di
bur den
break up</w>
bo ar
bat tal
b age</w>
ast eries</w>
appe aling</w>
anony mity</w>
annul led</w>
ang ered</w>
and af
ak a</w>
advoc ating</w>
adv ancing</w>
acc um
ac ademy</w>
Zu pljanin</w>
Zil ei</w>
Wil liam</w>
Vik tor</w>
V r
V e
Traj kovic</w>
Tes la</w>
T em
Snez ana</w>
S pa
R i
Pot oc
Pl anning</w>
Phot os</w>
Pack ett</w>
N u
N af
Morat inos</w>
Mladen ov</w>
M itic</w>
Luk sic</w>
L iv
Kri vokapic</w>
Kr ush
K as
K AD
Ivan ovski</w>
Hol y</w>
H om
H ay
H ari</w>
Gu ard</w>
Gheorg he</w>
G ok
G as</w>
Evang elos</w>
Eng ine
Dec laration</w>
D or
Com b
CAR DS</w>
C uk</w>
Bu jar</w>
Br un
Boj an</w>
Ad vis
AT P</w>
3. 8</w>
1. 9</w>
z ed</w>
viol ates</w>
v ar</w>
un aware</w>
typ ical</w>
trans plants</w>
tim ely</w>
t ast
swim mer</w>
sur ge</w>
su es</w>
su b</w>
sti r</w>
st ak
ss on</w>
spons ors</w>
spec ulate</w>
soci ally</w>
smoo thly</w>
sing ers</w>
sigh ts</w>
short age</w>
share holders</w>
s elect</w>
road blocks</w>
revi val</w>
rev ski</w>
respon ses</w>
rel ating</w>
recycl ing</w>
re str
re r</w>
re built</w>
re anu</w>
rap e</w>
pu pil
pupil s</w>
proceed s</w>
pr on
por tr
p in
p ain</w>
os k
ord ering</w>
op es</w>
onom y</w>
ne o</w>
mour ning</w>
mon asteries</w>
man oeuv
lef tist</w>
l onged</w>
judg ment</w>
is i</w>
in c</w>
ik o</w>
ig a</w>
ho olig
har mony</w>
for warded</w>
fir ing</w>
finis hing</w>
exp ired</w>
excep tional</w>
exceed s</w>
enti a</w>
en erg
en deav
em edicine</w>
effici ently</w>
dr ama</w>
deser ves</w>
den ounced</w>
de tail</w>
de partments</w>
d ire</w>
d ir
cy cl
comp rising</w>
cl er
cl amation</w>
circul ation</w>
c ells</w>
awa it</w>
as sic</w>
arti ficial</w>
are n</w>
an try</w>
al arming</w>
ag ged</w>
accoun ted</w>
Youn g</w>
V il
Tr andaf
Sec tor</w>
Sar anda</w>
S ven</w>
S ong</w>
REC OM</w>
R ak
Par ti
P el
P an</w>
O ri
N et</w>
Med iu</w>
M eth
M en</w>
KAD EK</w>
K la
Jankul ovska</w>
Inter im</w>
Hil mi</w>
H and
G av
Ex port</w>
E T</w>
Div ac</w>
Cre te</w>
C et
Buy uk
Broad casting</w>
Brig adier</w>
Brig ade</w>
Bak ir</w>
B is
Ath le
A ge</w>
8 0,000</w>
2 40</w>
198 0</w>
1. 8</w>
war rants</w>
v ig
ut most</w>
und oub
un t</w>
ul tra</w>
tun nel</w>
trem end
treas ures</w>
transi tional</w>
tr ans</w>
testi fied</w>
t ag
sum mon
substanti ally</w>
stu died</w>
stimul ate</w>
stat ute</w>
st ops</w>
spar e</w>
sis ter</w>
sh ut
senti ment</w>
s q</w>
ru b
ropol itan</w>
ro of</w>
ric h
respec ting</w>
reper c
rein force</w>
re payment</w>
re a</w>
protoc ols</w>
pra yer</w>
popul ist</w>
pi anist</w>
overha ul
organis er</w>
on ics</w>
oc aust</w>
norm ally</w>
nav al</w>
mul tinational</w>
mor tg
mon t</w>
minim al</w>
man if
man ent</w>
mach ines</w>
m ans</w>
lo ad</w>
law suits</w>
j ailed</w>
it ly</w>
ish ments</w>
intern ally</w>
inter rupted</w>
in mates</w>
in hab
harmon ised</w>
gif ts</w>
g ol
fo ren
fi re
fac ulty</w>
f old</w>
ev il</w>
eli hood</w>
el ings</w>
e ager</w>
dr illing</w>
dis agreed</w>
deep en</w>
cul ovski</w>
cr y</w>
cour tro
council s</w>
coun ties</w>
consequ ently</w>
consecu tive</w>
cond iti
con tention</w>
con te
comm ended</w>
coinc ided</w>
autom atic</w>
aud it</w>
au to</w>
att le</w>
att ached</w>
anis m</w>
an ja</w>
al lied</w>
advis ers</w>
ad in</w>
accompl ish</w>
acces sible</w>
a ide</w>
a f</w>
Zeal and</w>
Z o
Y ou</w>
Ul em
Trandaf ir</w>
Tog ether</w>
Tar culovski</w>
Sur roi</w>
St ev
S har
R ed
Proper ty</w>
Pro sper</w>
Pr ince</w>
P R</w>
Oz kok</w>
O g
Nez avis
Moun t</w>
Mic ic</w>
In dependence</w>
IB M</w>
Hox haj</w>
Hol ocaust</w>
Haj red
Gul f</w>
Greg orian</w>
F ab
Er wan</w>
Ear th</w>
Dal mati
D ulic</w>
Con test</w>
Con serv
Com munication</w>
Ch ir
Cer mak</w>
CE RN</w>
C u
C at
Ban croft</w>
B un
B ol
Ar chae
Al lied</w>
8 00,000</w>
3. 3</w>
3. 2</w>
20 .
2. 6</w>
14 ,000</w>
. net</w>
z h
ye v</w>
wr apping</w>
wor ship</w>
w ood
v ity</w>
v igor
undoub tedly</w>
un ovic</w>
un identified</w>
toler ate</w>
tigh tening</w>
th war
th um
subur b</w>
stop ping</w>
stic king</w>
soci ologist</w>
small -</w>
sec re
scre en</w>
schol ars</w>
s ity</w>
reun ite</w>
restric ted</w>
red ness</w>
re vis
rati o</w>
purch ases</w>
provin ces</w>
pro longed</w>
pris oned</w>
pr ic
pill ars</w>
parame ters</w>
overwhel ming</w>
o on</w>
not able</w>
mountain ous</w>
lim bo</w>
k Wh</w>
iv al</w>
it em</w>
is in
isin au</w>
interpre tation</w>
instruc tions</w>
ins ult</w>
individ ually</w>
inaug ural</w>
in coming</w>
impl ies</w>
hom et
hom eland</w>
hel p
hal is</w>
h ackers</w>
gro up
go al
fe elings</w>
escap ed</w>
engine ers</w>
disc over</w>
dam s</w>
critic ise</w>
conv ergence</w>
contr actor</w>
conten ts</w>
consul tation</w>
concentr ation</w>
con spir
commis sions</w>
comm ented</w>
cat aly
cas u
brig ade</w>
bo ats</w>
ba by</w>
b right</w>
b a</w>
ati es</w>
as z
ann ul</w>
an them</w>
amp s</w>
ag ic</w>
ad minis
acquit tal</w>
abst en
abs entia</w>
ab duc
Zv on
Z or
Vecern je</w>
Ur ges</w>
Turk men
Tom ic</w>
Toky o</w>
Tob acco</w>
T own</w>
T ask</w>
Stoj kovic</w>
Sci enti
S ME
SME s</w>
R ol
R af
R IA</w>
Pr in
P DP</w>
Osa ma</w>
O TE</w>
Nikol ay</w>
Kore an</w>
Human itarian</w>
Hal a</w>
H az
Ex ternal</w>
Eston ian</w>
Cl an</w>
Ch an
Car l</w>
CE Z</w>
C ent
But ler</w>
Bor der</w>
Balk an
BI RN</w>
B our
Appe als</w>
8 00m</w>
4. 4</w>
18 .
1, 0
1 70</w>
wrong doing</w>
wr aps</w>
val id
v ows</w>
v ent</w>
up per</w>
unlaw ful</w>
under mined</w>
un iversal</w>
typ ically</w>
turn over</w>
treas ure</w>
tre aties</w>
to x
telep hony</w>
sur ge
succ essive</w>
sub mitting</w>
stan ts</w>
stak e
speci alist</w>
spe eding</w>
some where</w>
sl ugg
sing ing</w>
simil arly</w>
sign aled</w>
secular ist</w>
sch i</w>
scenar ios</w>
ris ky</w>
ri de</w>
rever se</w>
reperc ussions</w>
rem emb
reflec tion</w>
reas ing</w>
ra w</w>
pri zes</w>
prepa redness</w>
pre tty</w>
politi x</w>
op t</w>
nor thwest</w>
n ur
n ow
n hac</w>
n ance</w>
mon d</w>
med ic
mag istr
long time</w>
lo d
liber alising</w>
li ra</w>
li ja</w>
lev er
k ins</w>
jan ic</w>
j evo</w>
j ev
is ia</w>
ir o</w>
inter views</w>
inf low</w>
indic ations</w>
im prisoned</w>
hy th
hun t</w>
help ful</w>
ha f
h ind
gu reanu</w>
gr aft</w>
g rid</w>
fro ze</w>
ffe isen</w>
fav or
f ed</w>
expendit ure</w>
exclud e</w>
ex porting</w>
et i</w>
endor se</w>
emb rac
elim ir</w>
el low</w>
e ye
div iding</w>
deterior ated</w>
deteri oration</w>
depend ency</w>
dec reasing</w>
dec ent</w>
d or
d ia</w>
cr ack</w>
counter terrorism</w>
coun tered</w>
conf ig
competi tions</w>
commis sioned</w>
commemor ate</w>
cli ent</w>
check points</w>
certific ates</w>
ceremon ies</w>
calcul ated</w>
bal ances</w>
b reaches</w>
b al</w>
b ail</w>
atten ds</w>
atro city</w>
are r</w>
ap ology</w>
adv ers
adop tions</w>
adminis tered</w>
ad mitting</w>
accor ds</w>
accompan ying</w>
acc red
Z el
Vuk ovic</w>
Val ent
Un gureanu</w>
Turkmen istan</w>
Tr ust</w>
T ren
Stat us</w>
S la
S I</w>
Re forms</w>
Raj ko</w>
Rad u</w>
R us
R ai
Pro motion</w>
Per manent</w>
Pat ric
N em
N ations</w>
Mar nhac</w>
Mar in
Manj ola</w>
Mah m
Ma x
L au
K ul
Jud iciary</w>
Ili ja</w>
Gel u</w>
G SM</w>
Fran jo</w>
Fran c
F i
Dr .</w>
Col lege</w>
Chan nel</w>
Cem il</w>
Braz ilian</w>
Bi g</w>
Arch bishop</w>
Ann ual</w>
Anatol ia</w>
An tic</w>
Am nesty</w>
7 00m</w>
6 0th</w>
6 00,000</w>
3 G</w>
. The</w>
z an</w>
wood en</w>
weak ened</w>
w ounds</w>
tw el
ten th</w>
teen agers</w>
tec h</w>
te ach</w>
suppl ied</w>
subjec ted</w>
st ation
spar k</w>
si a</w>
shor ter</w>
sear ched</w>
scen es</w>
sam ples</w>
sa ving</w>
s wa
request ing</w>
recipi ent</w>
rec over</w>
rad ic
r ush</w>
quot as</w>
qual ifications</w>
program ming</w>
pro clamation</w>
present ations</w>
prejud ice</w>
per vas
over seeing</w>
ol ive</w>
o ath</w>
ne ft</w>
mod er
mo tives</w>
medi ate</w>
m aster</w>
m .</w>
logis tics</w>
loc ate</w>
la im</w>
jo y</w>
ith ic</w>
it sa</w>
interf ere</w>
innoc ence</w>
in corpor
in appropriate</w>
ill icit</w>
ill a</w>
ik os</w>
i for
hydro electric</w>
homet own</w>
hol e</w>
happ iness</w>
ham per</w>
h iring</w>
h ill</w>
g iu</w>
form ations</w>
fish er
f ake</w>
exceed ing</w>
ex porter</w>
emp t</w>
emig rants</w>
el u
el even</w>
ec i</w>
deterior ating</w>
deliv ering</w>
defin es</w>
de portation</w>
d ic</w>
d ar</w>
courtro om</w>
contribu tes</w>
consul tant</w>
conf id
con ver
con tested</w>
con qu
clos est</w>
cir cle</w>
cho ices</w>
che ese</w>
c ents</w>
c ell
bul lets</w>
bu t
blo ody</w>
blo od
bl az
b od
b ac
audi o</w>
att acking</w>
ann a</w>
am med</w>
age ous</w>
affili ated</w>
adv ances</w>
acc use</w>
Y i
Vet on</w>
Un der</w>
Thom as</w>
Sto jan</w>
St even</w>
Sam i</w>
Sam aras</w>
S T
R iz
R id
Puk anic</w>
Pro secution</w>
Pe ac
N TV</w>
Mur at</w>
Mun giu</w>
Moun tains</w>
Mon etary</w>
Mo ham
M erc
Lut ovska</w>
Kos tic</w>
K ovac</w>
Jan jic</w>
J SO</w>
Ism ail</w>
I s</w>
I K
I II</w>
Hajred in</w>
Gre en</w>
Gall up</w>
F A
Electr onic</w>
EU SR</w>
Dav is</w>
Con tin
Co op
Ch isinau</w>
C OM</w>
C .</w>
Bul letin</w>
B olog
B et
B acon
Arb en</w>
Al l</w>
5 0
2. 7</w>
2. 3</w>
19 .
y ou
worsen ing</w>
win ds</w>
where ver</w>
wa ited</w>
veget ables</w>
valu ed</w>
v ities</w>
under stand
um a</w>
tw in</w>
treas ury</w>
trans lat
trans forming</w>
the tic</w>
ter med</w>
swe red</w>
ste ep</w>
staun ch
st un
ss man</w>
sophistic ated</w>
som eb
someb ody</w>
sh elling</w>
se in</w>
saf er</w>
rol ling</w>
ri l</w>
reun ify</w>
reser v
res ist</w>
ref ers</w>
red a</w>
pref ec
pervas ive</w>
pat rol</w>
or d</w>
op ted</w>
ome ter</w>
off ences</w>
oc ks</w>
not ch</w>
networ king</w>
mag n
mach inery</w>
m ad
liter acy</w>
le aked</w>
l uc
l ement</w>
jed or</w>
je wel
it alisation</w>
innov ative</w>
in humane</w>
impl icated</w>
highl ighting</w>
hib ition</w>
hear ts</w>
gun ned</w>
foo ds</w>
fl owers</w>
fi erc
festi vities</w>
fast est</w>
fa ult</w>
f ing
f ights</w>
exam ined</w>
exam ination</w>
exagg erated</w>
evacu ated</w>
ev i</w>
es cor
encla ve</w>
en comp
ef ina</w>
ed on</w>
ech tel</w>
ear ning</w>
dra in</w>
distribu tor</w>
distingu ished</w>
discipl inary</w>
dis trust</w>
dilem ma</w>
de tection</w>
cop y
contribu tor</w>
concentr ate</w>
con ve
capit alism</w>
be tr
bar red</w>
b arely</w>
ation ary</w>
aspir ing</w>
ash ing</w>
architec tural</w>
arch ives</w>
ar ul</w>
ar ise</w>
an swered</w>
alis es</w>
adop ts</w>
adap t</w>
a res</w>
Yildi z</w>
Vuk otic</w>
V ide
V RS</w>
Ulem ek</w>
UN O
Todor ovic</w>
Sou thern</w>
Sim on
Sil vi
Rev iew</w>
Reg ulatory</w>
Rai ffeisen</w>
R ing
Pri jedor</w>
Per isic</w>
Pac olli</w>
P anc
P ack</w>
Op position</w>
O K</w>
O IC</w>
N ight</w>
Mu j
Mer on</w>
Mal ay
Kr stic</w>
K hal
K ai</w>
Jol ie</w>
Is sues</w>
Her ce
H ris
H ak
H OC</w>
Gro ssman</w>
Ger mans</w>
Georg ian</w>
G lo
Fis cher</w>
F ore
F en
F aj
Ex it</w>
E N
Dum it
D ance</w>
Chil d</w>
Bro z</w>
Bre z
Bas har</w>
Bacon schi</w>
B ish
B echtel</w>
Anton escu</w>
Al tern
Ag enda</w>
Ac t</w>
AT HOC</w>
3 ,500</w>
1 20m</w>
ur t</w>
ur ship</w>
ur ica</w>
up dated</w>
underp in</w>
un favourable</w>
un expected</w>
ul um</w>
ub a</w>
twel ve</w>
tri ps</w>
thir ty</w>
theat res</w>
t ables</w>
swi f
surviv ors</w>
sub stance</w>
su ed</w>
strugg les</w>
stri ve</w>
stipul ated</w>
station ed</w>
stand off</w>
st agn
specif y</w>
spec tr
some how</w>
soci o</w>
smugg lers</w>
slog ans</w>
sk o</w>
sk iers</w>
sinc ere</w>
sign ature</w>
si us</w>
sh ou
se ize</w>
rul ings</w>
rest oring</w>
reshuff le</w>
reserv ations</w>
repa irs</w>
ren ts</w>
rel oc
re pay</w>
quanti ty</w>
promp t</w>
prin ting</w>
pl en
pen sioner</w>
pain ting</w>
p aved</w>
outr age</w>
oun ding</w>
ot a</w>
os a</w>
oo t</w>
om on</w>
o j</w>
o i</w>
negoti able</w>
neg l
n ice</w>
multi lateral</w>
motor way</w>
motiv ation</w>
mor tality</w>
mo tive</w>
mac ro</w>
log ic</w>
lau dija</w>
l ights</w>
l ery</w>
l en</w>
l ani</w>
l an
k ov
ju ven
it ch
inc iting</w>
in form
il ic</w>
i je</w>
hum ans</w>
hing e</w>
her o</w>
he rent</w>
fu elled</w>
facil itation</w>
execu tives</w>
excep tionally</w>
ex porters</w>
enthusi astic</w>
engine er</w>
enfor cing</w>
endor s
ell ation</w>
el ev
dismis s</w>
dis solution</w>
dis rup
direc torate</w>
dictat orship</w>
ded ication</w>
d ingly</w>
cro ps</w>
construc ting</w>
con fusion</w>
cl oth
cl o
chec ked</w>
ch enko</w>
business people</w>
brief ly</w>
br aries</w>
bor row
bl ames</w>
bil lions</w>
ban ning</w>
astro us</w>
ass ed</w>
arbit r
anx i
anticip ates</w>
analy ses</w>
allevi ate</w>
ak os</w>
accor dingly</w>
accep ts</w>
Z lat
Yas ar</w>
Vi ol
Vel jovic</w>
Vas ile</w>
V elimir</w>
Theod or</w>
T us
Stein berg</w>
Stav revski</w>
Sam uel</w>
Sal i
S uk
Rog ge</w>
Ren ault</w>
Rail ways</w>
Pro xim
Pro v
Pro duc
Pet kov</w>
Pe res</w>
Nezavis ne</w>
Musli u</w>
Mob tel</w>
Mitrov ic</w>
Mar ie</w>
Mar athon</w>
M EP</w>
Le on
Kust urica</w>
K os</w>
K laudija</w>
K andic</w>
J un
G ur
G ora</w>
Environ mental</w>
Elektro priv
EU politix</w>
Den iz</w>
DS B</w>
D ou
Cy ril</w>
C G</w>
Buyuk anit</w>
Bul atovic</w>
Bolog na</w>
Bar cel
Bajram i</w>
8 ,
6 00m</w>
4 5m</w>
3. 4</w>
3 0
wh eat</w>
wal ks</w>
volunte er</w>
volati le</w>
v it
v end
under world</w>
un ify</w>
un de
um ental</w>
um dz
tribu te</w>
tri ple</w>
tox ic</w>
toler ated</w>
th al</w>
tar iff</w>
swit ch</w>
suff ers</w>
stum bling</w>
stric ter</w>
stri ving</w>
stor m</w>
spectr um</w>
sil ence</w>
separati sts</w>
sculp ture</w>
s orts</w>
run ners</w>
rop oulos</w>
rev el
remin der</w>
reduc es</w>
reci pro
recipro cal</w>
re integration</w>
re constructed</w>
re actor</w>
pu s</w>
privati sing</w>
pres um
pragm atic</w>
pop e</w>
po orer</w>
pl anted</w>
photograph y</w>
per secu
patri arch</w>
parti tioning</w>
p essi
pessi mis
over see</w>
ouf is</w>
ou lou</w>
osk oufis</w>
or ary</w>
op her</w>
og oskoufis</w>
o di
no tice</w>
me z</w>
mag nit
m p</w>
m ad</w>
lif estyle</w>
lever age</w>
l enders</w>
it ated</w>
ir a</w>
indeb ted</w>
imp unity</w>
im porting</w>
ign ite</w>
ig ned</w>
identi ties</w>
ic i
hor iz
honour ing</w>
hin ted</w>
hand ful</w>
h ang
grad ed</w>
gener ating</w>
g r</w>
fer til
fe ed</w>
fa ith
exten ds</w>
exac erb
enti ve</w>
enti als</w>
ens em
endors ement</w>
ell a</w>
ear th</w>
e rec
domin ate</w>
dis posal</w>
dis par
dis astrous</w>
diff ering</w>
deb ated</w>
cru el</w>
cross roads</w>
cred ited</w>
continu ity</w>
constr aints</w>
constitu ted</w>
cons ult</w>
colle ague</w>
col ony</w>
col lege</w>
co ol
clin ics</w>
clar ified</w>
casu alties</w>
bab ies</w>
attor neys</w>
at l
appreci ate</w>
anticip ate</w>
an ova</w>
al em</w>
ag ent</w>
ad o</w>
ad just</w>
ad am
ach s</w>
ach ment</w>
accel erating</w>
a qu
a ided</w>
Zv ec
Y P</w>
Wahhab i</w>
Under standing</w>
UN IFI
UNIFI L</w>
Tri al</w>
Tour ist</w>
Top ic</w>
To day</w>
T on
Stand art</w>
Spr ing</w>
Sol omon</w>
Sit el</w>
Scienti fic</w>
SE C</w>
S C</w>
Rol and</w>
Reg is
Qu een</w>
Pe oples</w>
P lev
Nav y</w>
N ag
Mis sing</w>
Min ority</w>
Mil li
Memor andum</w>
Marmar a</w>
Mag y
M R</w>
Ljub icic</w>
Laz ar</w>
L ak
L DP</w>
Kla us</w>
Joz efina</w>
Iv ay
In ter</w>
In dic
I la
I OM</w>
H od
G ol
G lav
Ful lani</w>
Ful e</w>
F ol
Emerg ency</w>
Elektropriv reda</w>
E PS</w>
Cinem a</w>
Chir ac</w>
Cet inje</w>
C en
C PI</w>
Barcel ona</w>
B rown</w>
B I</w>
Atan as
Al ogoskoufis</w>
Agr on</w>
A ud
9 4</w>
198 6</w>
100 th</w>
1 20,000</w>
z y</w>
wrest ler</w>
w right</w>
w ary</w>
vir tu
v oc
v at
ust a</w>
under water</w>
un iting</w>
trans late</w>
tough er</w>
ti e</w>
th ol
tack led</w>
syn agog
swa p</w>
subur bs</w>
sp aces</w>
sli pped</w>
sk el
shr ink</w>
sha ken</w>
sel ls</w>
sel born</w>
seiz ure</w>
se as</w>
sculp tures</w>
s porting</w>
rush ed</w>
ris es</w>
retail er</w>
rec alled</w>
re viewing</w>
r hyth
r ain
publish ers</w>
prin ted</w>
po or
poor ly</w>
pl ot
photograph ers</w>
pen insula</w>
pan els</w>
p aves</w>
out lawed</w>
organ iz
on ia</w>
om b
olog ically</w>
occur s</w>
obstruc ting</w>
no tion</w>
n ia</w>
n a
mun itions</w>
mis s</w>
min i</w>
medic ines</w>
mar ch</w>
m iti
m endi</w>
lit re</w>
lic ence</w>
liber alise</w>
li ke
like wise</w>
leg alisation</w>
l ingu
l ena</w>
kid ney</w>
jan ska</w>
ir ts</w>
inhab ited</w>
in struction</w>
in complete</w>
il ia</w>
if ies</w>
ic itly</w>
i fi
hosp it
hi u</w>
har assment</w>
ha iling</w>
gradu ated</w>
g er
ff ed</w>
faith ful</w>
f ighter</w>
expul sion</w>
ever in</w>
ess ness</w>
encour ages</w>
en vision</w>
embezz lement</w>
embe red</w>
e or
e h</w>
dr ill</w>
dr agging</w>
dom ain</w>
doll ar</w>
disburs ement</w>
dis tor
dis satisfied</w>
dis per
dis close</w>
diplom as</w>
differen tly</w>
defic i
d anc
cu is
cor p
conven tions</w>
constitu tes</w>
condem nation</w>
concentr ated</w>
compl aining</w>
cloth es</w>
ce iling</w>
cataly st</w>
cant ons</w>
canc el</w>
c ements</w>
burden ed</w>
bran ds</w>
bol lah</w>
bl an
bench mark</w>
believ ers</w>
barg aining</w>
atis ations</w>
assess ments</w>
appro ached</w>
anti corruption</w>
ag usta</w>
advoc ated</w>
administr ator</w>
administr ations</w>
ab sur
a iding</w>
Z ag
Xh em
Wal ter</w>
V ul
V ard
V ac
Tr ans</w>
Techn ologies</w>
T reas
T R
Stra w</w>
Str pce</w>
Sto y
S v
Rod ri
RT RS</w>
Proxim a</w>
Potoc ari</w>
Politi ka</w>
Pl amen</w>
Nov ine</w>
Nik sic</w>
Municip ality</w>
Milos avljevic</w>
Mig ration</w>
Mem ija</w>
M y</w>
M and
Lam berto</w>
Kyr gy
Kus ari</w>
Isl and</w>
H ear
GN P</w>
G as
Fro m</w>
Fam agusta</w>
Ex hibition</w>
E L</w>
Drag oljub</w>
Dom in
Dj ankov</w>
Dimitri jevic</w>
D rit
D as
D C
Cel sius</w>
C ik
C ern
C as
Bour gas</w>
Bere ts</w>
Bek im</w>
Bag is</w>
As selborn</w>
A C</w>
3. 7</w>
2. 8</w>
2. 1</w>
1 09</w>
z o</w>
wh en
when ever</w>
wealth y</w>
vic tories</w>
us con
uscon i</w>
under went</w>
under lying</w>
un successful</w>
transf ers</w>
trans plant</w>
trans national</w>
trans action</w>
tr ac
ti les</w>
ti f
thou se</w>
th rowing</w>
ten ts</w>
ta ught</w>
t sun
sud den
struc tured</w>
staun ch</w>
stat es
st ly</w>
st ating</w>
spur red</w>
spe ech
sou thwest</w>
sn ow
smugg led</w>
slugg ish</w>
shi fts</w>
school ing</w>
scholar ships</w>
s ory</w>
s in</w>
s ick</w>
ro me</w>
ro bo
restr aint</w>
re tal
re structure</w>
re fe
re alities</w>
rail ways</w>
rac ial</w>
ra ided</w>
quot a</w>
qual ification</w>
qu e
publish er</w>
prov oke</w>
protec torate</w>
pro g
priv atisations</w>
predic table</w>
pol led</w>
pl ing</w>
phys ically</w>
pen etr
pe p
p he</w>
ou gh
orph an
organis ational</w>
organ ized</w>
o y</w>
norm alise</w>
nomin ate</w>
nickn amed</w>
new com
nel iev</w>
nation alistic</w>
nam ing</w>
mourn ers</w>
moun t</w>
mi x</w>
memor ies</w>
me ter</w>
magnit ude</w>
lov ed</w>
logis tical</w>
lo aded</w>
lin ka</w>
la ying</w>
l usconi</w>
jeopardis ed</w>
jag a</w>
it ement</w>
inter governmental</w>
install ation</w>
infl ows</w>
infl ationary</w>
im partial</w>
im a</w>
ill ustration</w>
iev a</w>
identi fying</w>
ide ological</w>
hol m</w>
hel l</w>
hard est</w>
h ler</w>
guaran tor</w>
graph ic</w>
g aps</w>
func tionality</w>
for ci
far mer</w>
f est</w>
exha usted</w>
es ka</w>
es h</w>
erg e</w>
ent ren
encour agement</w>
en larg
ek se</w>
educ ate</w>
domesti cally</w>
discrimin atory</w>
dis appointing</w>
detec ted</w>
desig ner</w>
der ail</w>
dep th</w>
d os
cri tic</w>
cor ridor</w>
cor dia</w>
consolid ated</w>
cons ist</w>
concer ted</w>
conc ep
collec tions</w>
ch ement</w>
catastroph ic</w>
catastro phe</w>
boycot ting</w>
bound ary</w>
bas ically</w>
av is</w>
assass inated</w>
ard z
archae ologist</w>
ar ising</w>
appro chement</w>
applic able</w>
appe aring</w>
ap ore</w>
anxi ety</w>
anx ious</w>
an tes</w>
am big
advis or</w>
Zu bin</w>
Tz vet
Tsvet anov</w>
Trav el</w>
Trans portation</w>
Sti p</w>
Sp as
Sing apore</w>
San ta</w>
SE EMO</w>
S ite</w>
S an</w>
Re porters</w>
R h
R ap
R ade</w>
Pre vention</w>
Plev neliev</w>
Phil ip
P ip
P ale</w>
O RA</w>
New s
N i
N er
N atural</w>
Mon t
Milli yet</w>
Mil etic</w>
Men ekse</w>
MB O</w>
Leg al</w>
Lef t</w>
Leban ese</w>
Kuz manovic</w>
K op
K ong</w>
K CK</w>
Jo h
Jah jaga</w>
J i
I dri
I R
I P
Hus sein</w>
H ong</w>
H K</w>
Fil ipovic</w>
Fam ily</w>
E c
Dav id
Das kal
Cro ss</w>
Coop er</w>
Con cordia</w>
Car los</w>
C an</w>
C ag
Bu jan
Bes imi</w>
Ber lusconi</w>
Ber at</w>
Bal tic</w>
Bab ic</w>
B od
B P</w>
At t
7 50</w>
197 0s</w>
16 ,000</w>
,00 0
z yn
zyn ski</w>
x ture</w>
work place</w>
weak ening</w>
weak en</w>
vo ys</w>
veter inary</w>
up es</w>
underg one</w>
umdz ija</w>
tro upes</w>
trav els</w>
tor ch</w>
thor ny</w>
swif tly</w>
summon ed</w>
sudden ly</w>
subor din
su rely</w>
str ing</w>
st uck</w>
st aging</w>
st ad
speak ers</w>
sid ed</w>
settl ements</w>
s acked</w>
rec eption</w>
re views</w>
re tro
r onic</w>
r ational</w>
r approchement</w>
qual ifi
protec tive</w>
produc tions</w>
plen ary</w>
pill ar</w>
par aly
p ap
oz a</w>
over turned</w>
out door</w>
os ka</w>
o tive</w>
nor thwestern</w>
medi ating</w>
me ier</w>
mar ket
manufacture rs</w>
mand ated</w>
man ages</w>
magistr ates</w>
lob by</w>
less on</w>
lau reate</w>
land mines</w>
l isten
l igh
jum ped</w>
it ably</w>
inv asion</w>
in surg
in ka</w>
in ity</w>
in al</w>
im minent</w>
ic ities</w>
iat ric</w>
i ques</w>
hom eless</w>
hol es</w>
her self</w>
he igh
gren ade</w>
fle w</w>
f ati
fati gue</w>
ex istent</w>
ex ert</w>
evalu ated</w>
ethn icities</w>
establish es</w>
ep id
en sured</w>
elu sive</w>
elabor ate</w>
eg er</w>
ed er
dynam ics</w>
don ate</w>
distur bing</w>
dis played</w>
curric ulum</w>
cul ar</w>
cuis ine</w>
critic ises</w>
cos ting</w>
confron tation</w>
comp ul
commemor ation</w>
comb ine</w>
co s</w>
clos es</w>
clo thing</w>
char ities</w>
champ ions</w>
ch ronic</w>
ch ambers</w>
centr alised</w>
car maker</w>
c us</w>
c in
bul k</w>
bos s</w>
blog s</w>
b ick
authenti c</w>
attr actions</w>
at oes</w>
arg e</w>
any body</w>
altern atives</w>
al ize</w>
advis e</w>
adjust ments</w>
a vier</w>
Vic tor
Un ity</w>
Toky ay</w>
Teod or</w>
T reb
T ier</w>
Stein meier</w>
St ock
Serb ians</w>
S uc
S ap
S ak
Ro yal</w>
Rad ulovic</w>
RW E</w>
R iga</w>
Pol anc
Pav le</w>
Pav el</w>
P es
P aj
Organis ing</w>
Nik os</w>
N is
Mu fti</w>
M ost</w>
M ore</w>
M O</w>
Lut fi</w>
Leg ija</w>
Lag umdzija</w>
L ar
Kun eva</w>
Ku wait</w>
Kel mendi</w>
Jo e</w>
Ivay lo</w>
Investig ation</w>
IF C</w>
High er</w>
Hat ay</w>
Har t
HR W</w>
H av
Gro w
Gl igor
Foc a</w>
Faj on</w>
F ur
F BI</w>
En er
Em ir
Electr icity</w>
E s
Daskal aki</w>
D ow</w>
Commun ities</w>
Bu il
Brez ovica</w>
Bogd an</w>
Boc evski</w>
Barro t</w>
Atom stro
Anton is</w>
A w
A ustin</w>
A MBO</w>
6 50</w>
4 50</w>
3. 9</w>
3 5m</w>
198 7</w>
0. 2</w>
0. 1</w>
wil d
weigh ed</w>
vuln er
ver bal</w>
vacc ine</w>
ur ation</w>
un sustainable</w>
ug l
tremend ous</w>
trav eling</w>
tr acks</w>
tiv ar</w>
ti ll</w>
ter rible</w>
tal ent</w>
t t
t ful</w>
system ic</w>
sub stitu
su ms</w>
staunch ly</w>
st ocks</w>
speech es</w>
spe ar
spar ks</w>
sor ry</w>
sl ashed</w>
siz ing</w>
sc rap</w>
s ounds</w>
s ics</w>
ru ins</w>
rif le</w>
ret ained</w>
rest art</w>
ren der</w>
rem embered</w>
reluc t
ref uge</w>
recogn itions</w>
re rs</w>
re opening</w>
r ay</w>
r al</w>
pursu it</w>
provin cial</w>
proced ural</w>
prev entive</w>
postpon ing</w>
pos ium</w>
par king</w>
pal ace</w>
ow es</w>
or g</w>
od ic</w>
observ ing</w>
observ atory</w>
o ard</w>
now ad
nowad ays</w>
ne t
mos a
minim ise</w>
meas ured</w>
mar ched</w>
m ol
m ers</w>
li braries</w>
lec ture
l acked</w>
kn owing</w>
ir d</w>
ing ual</w>
inf antry</w>
im bl
imbl edon</w>
hos til
hin der</w>
harb our</w>
glob ally</w>
g al
form idable</w>
fl ock</w>
fierc ely</w>
fer ry</w>
explo it</w>
exp edition</w>
exclu ding</w>
enem ies</w>
en ue</w>
embar ked</w>
emb arr
eg ation</w>
educ tion</w>
down sizing</w>
down graded</w>
disbur sed</w>
din ner</w>
der iv
democr atically</w>
defin ition</w>
def use</w>
decla res</w>
decl ar
decis iv
de pri
de es</w>
d enti
cur bing</w>
counterfe it</w>
cou pled</w>
corpor ation</w>
cor ner
conven e</w>
conte stants</w>
cont am
con su
con junc
compu ter
compens ate</w>
commis sioners</w>
co ins</w>
clim bed</w>
cle ars</w>
ch ron
ch ers</w>
broadc asters</w>
bick ering</w>
bel t</w>
battal ion</w>
batt ling</w>
bar rels</w>
ban kers</w>
b righ
b ic
b es</w>
b eds</w>
b as</w>
author itarian</w>
arrang ed</w>
ar ov</w>
am az
al umin
ak ov</w>
advis ing</w>
adv ent
adv ancement</w>
add am</w>
absten tions</w>
absor b</w>
abol ishing</w>
Z a
Wil liam
W imbledon</w>
W ik
Vas ic</w>
Tun isia</w>
Tra y
Tr p
Techn ological</w>
T ak
Su per</w>
Str um
Stojan ovski</w>
Som alia</w>
Sh o
S re
S how</w>
S addam</w>
Rog anovic</w>
Pr v
Pow ers</w>
Polanc ec</w>
Pie ter</w>
Par th
P H
Or ban</w>
O ut
N ig
Mos que</w>
Mor ina</w>
Mir ror</w>
Mil j
Mil i
Meth odi
Mem eti</w>
Med ical</w>
Mark os</w>
Makedon ija</w>
M y
M ine</w>
M av
M aur
Ljub isa</w>
Lju bomir</w>
L ila</w>
L and
Kac zynski</w>
Jel asic</w>
Jas en
J ack
Io an</w>
Harr y</w>
Ham za</w>
HD I</w>
H u
Gos tivar</w>
Gon ul</w>
Gaz ette</w>
G rigor
G od
Fri end
F l
F eas
Elizabe th</w>
E rol</w>
E P
Del egation</w>
Dec ani</w>
Clin ical</w>
Cer ic</w>
C ey
C astle</w>
Bu z
Br do</w>
Bl anka</w>
B jel
Atom ic</w>
Andri c</w>
Aleks ander</w>
A ri
5. 2</w>
4. 6</w>
2 9
1 7,000</w>
0. 3</w>
ye arly</w>
xim ity</w>
wor rying</w>
win es</w>
weak ness</w>
us alem</w>
unc ker</w>
tyco on</w>
tsun ami</w>
tro phy</w>
trav eled</w>
transl ation</w>
trans porting</w>
tr acted</w>
tr acking</w>
tot aling</w>
toler ant</w>
ti me
thou gh
ther ap
techn iques</w>
sw ept</w>
substan tive</w>
subscri bers</w>
su itable</w>
sti g
sla ug
sent encing</w>
semi finals</w>
se wage</w>
sculp tor</w>
revi ving</w>
retail ers</w>
ret t</w>
re at</w>
rad io
pyr amid</w>
pro ximity</w>
pre mature</w>
po is
overhaul ing</w>
ord nance</w>
ol ithic</w>
off set</w>
od ina</w>
nj i</w>
n ival</w>
n atur
min ors</w>
mil es</w>
marg ins</w>
m ill</w>
lik elihood</w>
le asing</w>
la sts</w>
l ighting</w>
l end</w>
k os</w>
inter rog
inter oper
inter cep
instr umental</w>
influ ences</w>
inev itably</w>
ind en</w>
in stances</w>
i ana</w>
i .
hy gi
hop eful
hopeful s</w>
h oods</w>
h ills</w>
gun men</w>
gg ing</w>
g in</w>
fre estyle</w>
foun ders</w>
fl our
fisher men</w>
fif teen</w>
far ming</w>
facilit ated</w>
f asting</w>
f ant
f ab
ex er
ern ity</w>
erb ah
enn ium</w>
elec ting</w>
e keeping</w>
dr astic</w>
diversi fication</w>
div erse</w>
distribu te</w>
disman tling</w>
discour age</w>
dir ty</w>
diminis h</w>
dest abilisation</w>
der ful</w>
del icate</w>
cust om</w>
cul tur
cre ative</w>
cop ies</w>
contain ers</w>
conspir acy</w>
confron ting</w>
confid ential</w>
con tests</w>
compul sory</w>
commun ists</w>
commemor ating</w>
collabor ated</w>
co in</w>
clean ing</w>
chil d
ch i</w>
ch ampionships</w>
cal end
caf e</w>
c odes</w>
bu ffer</w>
blood shed</w>
ben a</w>
batt les</w>
ba g</w>
b ou
atten dees</w>
atl antic</w>
asc us</w>
architec ts</w>
an ovska</w>
am o</w>
aly mp
alp ine</w>
all otted</w>
al li
al in</w>
ag on</w>
adver tis
ad here</w>
a is
a ides</w>
We ek
Vl ach</w>
V ek
Uz an</w>
Treas ury</w>
T am
Stock holm</w>
Sp ace</w>
Sav ic</w>
S cand
S S</w>
Ret ur
Rel ig
R ist
Pr il
Pot ok</w>
Pip eline</w>
Par alymp
PH AR
PHAR E</w>
P erc
P ent
P antic</w>
O ver
Memor ial</w>
M J
MJ AF
MJAF T</w>
Li aison</w>
L os</w>
Kon stantin
Kl an</w>
K n
K ey</w>
Jud icial</w>
Jer usalem</w>
Jav no
J uncker</w>
I st
I H
High way</w>
Herce g</w>
Haz iri</w>
Har vest</w>
HS BC</w>
Grow th</w>
Gj erg
G rad
Friend ship</w>
Fen erbah
Feas ibility</w>
Fac ility</w>
Er z
Engine ering</w>
Emir ates</w>
ES I</w>
E thnic</w>
De puties</w>
Dam ascus</w>
Con s
Co ast</w>
Ch ang
C it
Bes im</w>
Bar rett</w>
B atic</w>
Av ni</w>
An aly
Al bena</w>
A dem
5. 8</w>
2. 4</w>
2 8
ve z
v endosje</w>
ur c
unfortun ate</w>
unders cored</w>
und ant</w>
u ously</w>
u ding</w>
turbul ent</w>
tri m</w>
tre ating</w>
ti er</w>
telec ommunication</w>
te am
t less</w>
t ap
t abled</w>
system atically</w>
sym pa
sur pass</w>
sud den</w>
succ ession</w>
stra ight</w>
ste in</w>
stantin ou</w>
spir ation</w>
sp ot
sp ell</w>
sop ran
ship yards</w>
set backs</w>
seism ic</w>
sear ches</w>
sci ences</w>
sa ble</w>
s. ro</w>
rein forced</w>
reconc ile</w>
rec re
re pression</w>
re opened</w>
re lies</w>
re formed</w>
re config
r in</w>
r amp
r ains</w>
pu mp</w>
provis ionally</w>
pron ounced</w>
proceed ing</w>
pre val
pir ated</w>
per ing</w>
p es</w>
over sight</w>
over ly</w>
ot opoulos</w>
organ ization</w>
objec ted</w>
novel ist</w>
neutr ality</w>
nav y</w>
min ef
met a</w>
mar ble</w>
loc ally</w>
lo g</w>
li fe
li aison</w>
la b</w>
kill ers</w>
k as</w>
jum ping</w>
j ust
iv at</w>
is tics</w>
is avljevic</w>
inter viewed</w>
inspec tions</w>
inspec t</w>
in spiration</w>
in er</w>
implem ents</w>
imp acts</w>
ifor nia</w>
hum ili
hoolig ans</w>
hes itate</w>
he res</w>
hard line</w>
gy mn
guar ding</w>
ground work</w>
gri ev
govern ors</w>
go v</w>
g i</w>
g en</w>
fre ight</w>
fores ees</w>
for tune</w>
foot ing</w>
fl u
fin alising</w>
f ence</w>
exhib ited</w>
exerc ised</w>
exclu sion</w>
exc ess</w>
ex changed</w>
ev en
en i
emerg ence</w>
distribu tors</w>
depos it</w>
demol ition</w>
decor ated</w>
de grad
de eds</w>
d aw
crit er
cont empt</w>
consul t
conserv atives</w>
conserv ation</w>
confisc ation</w>
compar e</w>
car to
cann ab
cannab is</w>
canc ellation</w>
bos ses</w>
bod y
bill boards</w>
bi as</w>
be ings</w>
be atings</w>
be ars</w>
barr ing</w>
bar ometer</w>
av ica</w>
atis m</w>
at tered</w>
at ri
asti mir</w>
assu mes</w>
assem bled</w>
ass esses</w>
ass es</w>
ash es</w>
arm ament</w>
alli ances</w>
al ic</w>
air lines</w>
ack a</w>
ac o</w>
Z vez
W reath</w>
W ay</w>
Vlad an</w>
Vla d</w>
Vl astimir</w>
Viol ence</w>
Vek aric</w>
Valent ina</w>
Tra ikov</w>
Th ere</w>
T ig
T U
Strum ica</w>
Slav ica</w>
S eb
Ring as</w>
Res pon
R on
R ep
Pril ep</w>
Pl an
Parth enon</w>
Nor ac</w>
Nex hat</w>
N ot</w>
Mod ern</w>
Mir o</w>
Mili band</w>
Mic halis</w>
Meg lena</w>
Mahm oud</w>
M am
Law rence</w>
L oz
L asz
Kon janovski</w>
Kal inic</w>
K rem
K re
K ran
K oc</w>
Javno .hr</w>
Jasen ovac</w>
J ut
Is a</w>
Ila zi</w>
I linka</w>
H an
G ate</w>
Fenerbah ce</w>
Far uk</w>
F ashion</w>
Dus ko</w>
Dr ina</w>
D v
Cra i
Cour tesy</w>
Con struction</w>
Ci or
Ch alleng
Cam er
Cal ifornia</w>
C ak
Bujan ovac</w>
Bu hler</w>
Bro thers</w>
Bran kovic</w>
Bar thol
B ob
B TC</w>
B S</w>
Ar dian</w>
Angel opoulos</w>
Angel es</w>
Al sat</w>
Al p
A F</w>
9. 9</w>
6. 7</w>
3 5th</w>
2. 5m</w>
yiel ded</w>
wid ening</w>
wh e
weight lifting</w>
ver ification</w>
v erge</w>
ust er</w>
urc s
urcs any</w>
up held</w>
un solved</w>
un decided</w>
ul ous</w>
ul e</w>
trou bles</w>
tr usted</w>
tor tured</w>
tor ial</w>
time frame</w>
th es
temper ature</w>
tag ma</w>
t ent
struc tive</w>
stri des</w>
stream line</w>
ste re
st all</w>
sou thwestern</w>
sou l</w>
small est</w>
skel eton</w>
sh ame</w>
separ ating</w>
screen ings</w>
s phere</w>
s our
rout ine</w>
ret aining</w>
restric tive</w>
restric ting</w>
recor ding</w>
recipi ents</w>
rec alls</w>
reas sured</w>
read mission</w>
re ins</w>
re bu
radio active</w>
rad iation</w>
publ ications</w>
provoc ation</w>
prosecu tions</w>
positi oned</w>
plur alism</w>
phor us</w>
perce ive</w>
per forms</w>
p ion
out line</w>
ou sted</w>
orig inated</w>
orchestr a</w>
off ence</w>
ob struction</w>
o ever</w>
n os
mig rant</w>
mi xture</w>
merg er</w>
me al</w>
lim itations</w>
lat ely</w>
la ug
l ung</w>
l doz
k om</w>
k aya</w>
k aj</w>
jud o</w>
jud ged</w>
iy e</w>
inst all</w>
inclu sive</w>
in tolerance</w>
in king</w>
imp ede</w>
ig ent</w>
hy per
hot line</w>
hor se</w>
hop efully</w>
head lines</w>
h ire</w>
govern ed</w>
g am
fulfil s</w>
frag m
fr ac
fore most</w>
fe ast</w>
fail ures</w>
expl icitly</w>
expec tation</w>
evalu ating</w>
eth no</w>
et c</w>
establish ments</w>
eng e</w>
en countered</w>
emb race</w>
du o</w>
dis pat
dis hes</w>
des ired</w>
de pot</w>
d al</w>
curric ula</w>
cur t
criter ion</w>
cri pt</w>
corner stone</w>
cop y</w>
convers ations</w>
conven ed</w>
conve yed</w>
connec ts</w>
conjunc tion</w>
confl icting</w>
compl ied</w>
compl icity</w>
commun al</w>
comment ators</w>
com promises</w>
com edy</w>
cl an</w>
cem etery</w>
calend ar</w>
c up</w>
c asts</w>
br ink</w>
bl asts</w>
bil isi</w>
bil ingual</w>
ban ners</w>
ati vity</w>
athem atics</w>
answ ering</w>
ann ed</w>
air y</w>
aff iliation</w>
adjust ed</w>
ad y</w>
acon stantinou</w>
accommod ations</w>
absur d</w>
abst ained</w>
ab oard</w>
Zvec an</w>
Y ord
Y an
W ill</w>
W eb
Vl achs</w>
Vide anu</w>
Vi j
Vassil is</w>
V at
Tor onto</w>
Tol imir</w>
Telegr afi</w>
T om</w>
T ivat</w>
T bilisi</w>
Syn tagma</w>
Slav ko</w>
S mall</w>
S igh
S id
Res ources</w>
Reg ion</w>
R eduction</w>
Q ad
Pen insula</w>
Pen al</w>
Patric k</w>
Pap aconstantinou</w>
Pan ay
P U
OS T</w>
O m
Na um
N ord
N in
N aim</w>
N C</w>
Mun ich</w>
Mi ke
Methodi us</w>
Mer dare</w>
Mar ine</w>
Maj ko</w>
M ati
M TV</w>
Le pos
Lasz lo</w>
L t
L it
Kar ab
Kal meta</w>
K e
K EK</w>
Jut ar
Jag odina</w>
In nov
IA EA</w>
I f</w>
Gy urcsany</w>
Ger hard</w>
Gen er
Gal ic
F our
F F</w>
El enovski</w>
Dre ws</w>
Djur ic</w>
Djuk ic</w>
D RC</w>
Constan tin
Com peti
Ch o
Ch en
C uba</w>
C anc
Bur k
Br njak</w>
Br asov</w>
Bas ketball</w>
B -</w>
Ath an
An ton</w>
Al ic</w>
Agre ements</w>
Administr ative</w>
A viation</w>
A tal
A rif
A id</w>
7 00,000</w>
5. 9</w>
4. 7</w>
4. 1</w>
3 6
3 00km</w>
198 1</w>
196 3</w>
14 m</w>
13 m</w>
11 m</w>
1 7m</w>
1 00km</w>
0. 8</w>
ü r
yach t</w>
y u</w>
y export</w>
y ellow</w>
wor thy</w>
wit ter</w>
w ished</w>
w ire</w>
unde res
un popular</w>
un cover</w>
um p</w>
ucr ative</w>
u z
tu n</w>
tour s</w>
though ts</w>
the ore
termin als</w>
tel emedicine</w>
su ing</w>
stro m</w>
stem med</w>
ste ering</w>
stake holders</w>
sopran o</w>
sm el
sho e</w>
share holder</w>
se em
s pa
roc ked</w>
rigor ous</w>
rever sed</w>
revel ations</w>
rel ying</w>
rel l</w>
rec k
re new</w>
re alising</w>
rac ism</w>
quar rel</w>
provoc ative</w>
prof ound</w>
pro tracted</w>
prev ail</w>
pregn ant</w>
pleas ant</w>
perfec tly</w>
pat rolling</w>
particip ant</w>
paren t</w>
par don
pain ters</w>
pa ths</w>
p ure</w>
p raises</w>
p ack</w>
on jic</w>
oj an</w>
off shore</w>
off enders</w>
oc king</w>
observ ation</w>
no s</w>
nation alities</w>
moun ted</w>
mis management</w>
market place</w>
manip ulated</w>
lo op
liber ties</w>
liber alised</w>
le u</w>
la bel
l ucrative</w>
l uck</w>
l isting</w>
l ignite</w>
j er
j en
in ness</w>
imp over
im on</w>
il es</w>
il an</w>
id o</w>
i ence</w>
i adis</w>
hor ses</w>
hon orary</w>
hom e
he ed</w>
hal ting</w>
green house</w>
ge ographic</w>
g ala</w>
fu eled</w>
foren sic</w>
for d</w>
for cement</w>
fl ats</w>
fir stly</w>
f lawed</w>
f its</w>
f arms</w>
ez bollah</w>
execu tions</w>
ex ile</w>
ex changing</w>
environment alists</w>
environ ments</w>
eng iz</w>
endar ovski</w>
en berg</w>
emp ow
em in
electr onics</w>
ed itors</w>
e up</w>
e an
distinc tion</w>
disper se</w>
discrimin ated</w>
discipl ines</w>
dis advant
dimen sions</w>
dign itaries</w>
desper ate</w>
defici encies</w>
de fi
danc ers</w>
d ency</w>
cred entials</w>
cre ws</w>
cr ashed</w>
conten ders</w>
consul ar</w>
consp ic
con sci
compl ying</w>
comp rise</w>
comp iled</w>
cinem at
centr ist</w>
cau tioning</w>
capit alise</w>
bur ge
bl e
be st
ban ner</w>
at or
ass nik</w>
ar ini</w>
anch or</w>
an ta</w>
am ending</w>
am ate
aggres sion</w>
acc uses</w>
a v</w>
Z h
Z er
Y R
Wor k</w>
Vuc kovic</w>
Vuc ic</w>
Vis o
Vecern ji</w>
V se
Un ions</w>
U p</w>
Tud or</w>
Th ird</w>
T witter</w>
T en
Sus pec
Su per
Stol ojan</w>
Stand ards</w>
Stamb ol
So fi
Slav ic</w>
Simon ovic</w>
Silvi o</w>
Sigh isoara</w>
Sen ior</w>
Sel mani</w>
Se eks</w>
Sand ra</w>
S med
Rum en</w>
R ot
R ally</w>
Pop ov</w>
Pon ta</w>
Pl assnik</w>
Parav antes</w>
Panc evo</w>
P up
P endarovski</w>
P asha</w>
O sman</w>
Nord ic</w>
Nik o</w>
N am
N ada</w>
Municip al</w>
Mr ksic</w>
Mon uments</w>
Mil ica</w>
Mike revic</w>
Met ropolitan</w>
Me eting</w>
Mal ovic</w>
Ma xim
M ary</w>
M D</w>
Lj up
Le h
LA OS</w>
L yn
L ug
L id
L a</w>
Kar at
Jack son</w>
Isl ands</w>
Illy rian</w>
I stri
I f
Hot i</w>
H ezbollah</w>
Gu inness</w>
Gr ab
Gligor ov</w>
G ran
F eh
Euro barometer</w>
El bas
E PP</w>
Dr ac
Do ha</w>
Di ana</w>
Dan ilo</w>
Cos ta</w>
Con federation</w>
Competi tiveness</w>
Chen ey</w>
Cath ol
C lock</w>
C ir
C ig
C engiz</w>
Bro d</w>
Br atis
Bosn a</w>
Blag ojevic</w>
B reg
B ond
B aku</w>
Azer i</w>
Atomstro yexport</w>
Athle tics</w>
Ag er
Adem i</w>
A str
9 .5</w>
7. 3</w>
6. 6</w>
6. 4</w>
4. 3</w>
3. 1</w>
3 8.
2 8.
11 ,000</w>
0. 7</w>
ze able</w>
z ad</w>
ye ster
yester day</w>
with drawing</w>
weight lif
war ding</w>
ver ify</w>
vac u
v ary</w>
v anis
uph old</w>
up i</w>
un willing</w>
un fol
u tin</w>
tyco ons</w>
turbul ence</w>
trium ph
tri o</w>
tr o</w>
tot als</w>
tot al
top ple</w>
to l</w>
ti red</w>
ten dency</w>
tem ple</w>
tal ented</w>
t emp
t ari</w>
succeed s</w>
stream lining</w>
stere oty
sp ends</w>
sn i
sl ammed</w>
simultane ous</w>
sign atory</w>
si zeable</w>
shoot out</w>
ship yard</w>
ship ments</w>
ship building</w>
semi final</w>
seem ingly</w>
seas onal</w>
scar ce</w>
roug h</w>
ri fl
ri dic
revol utionary</w>
revo ked</w>
res em
rem ain
rel ates</w>
reg ret
re warded</w>
re open</w>
re k</w>
re fu
rac ist</w>
quar tered</w>
psych ologist</w>
prohib its</w>
pro active</w>
plot ting</w>
ple ase</w>
pl ight</w>
photograp her</w>
patter n</w>
parti san</w>
organiz ations</w>
or ds</w>
om ew</w>
ol o</w>
ol ds</w>
oc curren
obstruc t</w>
o g</w>
non eth
noneth eless</w>
ne a</w>
mus ician</w>
multi media</w>
min ded</w>
mig r
merg e</w>
lov ers</w>
liber ty</w>
la hu</w>
kil om
k haz
interpre tations</w>
instruc ted</w>
infl am
in fring
in ely</w>
im m
ific ent</w>
iev ska</w>
i. e
i.e .</w>
hol y</w>
hin as
hinas to</w>
heigh tened</w>
guil t</w>
gar ner</w>
fulfil ment</w>
fron ts</w>
form at</w>
for ge</w>
f la
explo iting</w>
exp atri
exhib itors</w>
excav ation</w>
ex tor
ex hum
eth ics</w>
ers on</w>
er ance</w>
equ ity</w>
eng ines</w>
en act</w>
emplo ying</w>
emo tional</w>
emig ration</w>
edn ess</w>
ed ral</w>
ech an
e ering</w>
e ag
dre ams</w>
dismis sing</w>
dis appear</w>
dis abilities</w>
des c
depos itors</w>
declar ations</w>
de ter</w>
de structive</w>
d ys
custom er</w>
cri ti
counter productive</w>
convic ts</w>
convic tions</w>
continu ally</w>
consider ations</w>
conce ived</w>
comp ound</w>
comp at
clar ification</w>
c evski</w>
c enter</w>
br ac
bot tles</w>
bon uses</w>
bl asted</w>
behavi or</w>
b ust</w>
avis ki</w>
at us</w>
arr y</w>
are t</w>
appl i
amb ition</w>
af iotis</w>
accel eration</w>
ac ute</w>
a o</w>
Zv or
Z ana</w>
Y al
Week ly</w>
Virg il</w>
Vij esti</w>
UD MR</w>
U 2</w>
Tr aining</w>
Theod or
Th ree</w>
T el</w>
T anovic</w>
St aviski</w>
Srbi je</w>
Sr na</w>
Smil janic</w>
Sk y</w>
Sec retariat</w>
Scand in
SI PA</w>
S port</w>
S everin</w>
S corp
Rev ol
R istic</w>
Prv oslav</w>
Pet rov
Peac ekeeping</w>
P un
P re</w>
O mer</w>
O ffici
N EK</w>
Med icine</w>
Mar c</w>
M ust</w>
Lou is</w>
Lo an</w>
Liber als</w>
Lepos avic</w>
Lead ers</w>
L ine</w>
Kos t
Kan al</w>
K oci
K nez
J ovic</w>
Ig man</w>
Hear t</w>
Hax hinasto</w>
H ans</w>
Galic nik</w>
Fran z</w>
Elec tric</w>
Ele f
Eg mont</w>
Ed ita</w>
E j
E ag
Du b
Di acon
Den kova</w>
Dec ade</w>
David ovic</w>
Dar ik</w>
D own</w>
D et
D V
Cy r
Commer cial</w>
Boris ova</w>
Bond steel</w>
Barthol omew</w>
Bah rain</w>
BI A</w>
Azer ba
Arch itec
Ar m
Ali ja</w>
Agr afiotis</w>
Ager pres</w>
Ab out</w>
Ab khaz
AN I</w>
5. 3</w>
4. 2</w>
3 0km</w>
2 4
2 2m</w>
13 ,000</w>
10 km</w>
z stan</w>
z el</w>
y og
won derful</w>
we igh</w>
w reath</w>
viol ators</w>
vacu um</w>
vac ation
v s</w>
v ocal</w>
us er</w>
urg ency</w>
tu ition</w>
trav el
tr inski</w>
tor turing</w>
ti ble</w>
thor ough
t ower</w>
t abl
sym posium</w>
subsid y</w>
stri pped</w>
stimul us</w>
stand still</w>
st on</w>
spons or</w>
sm en</w>
sk ating</w>
six ty</w>
simpl ified</w>
shoul der</w>
shad owed</w>
serv ic
semin ars</w>
se y</w>
ru m</w>
righ tist</w>
rifl es</w>
rid ors</w>
ri val
ri ties</w>
ri ans</w>
rev enge</w>
res cu
rem edy</w>
refin eries</w>
recru it
rec ur
re siding</w>
re organisation</w>
re acting</w>
rav aged</w>
ra h
pru dent</w>
protec ts</w>
proc essed</w>
present ly</w>
pres sive</w>
pre historic</w>
pre ferences</w>
pr one</w>
por k</w>
pleas ure</w>
pil ots</w>
phys icians</w>
ph r
perspec tives</w>
per or</w>
ot to</w>
ot ov</w>
os avljevic</w>
on ically</w>
om ed</w>
o z</w>
nomine e</w>
no tic
n ovo</w>
n is
mu d</w>
minef i
medi ators</w>
mat ernity</w>
manif est
luc ky</w>
lo y
licen sed</w>
li van</w>
li on
less er</w>
le thal</w>
la ku</w>
l ots</w>
k ing
k er
it ating</w>
inv iting</w>
interpre t</w>
install ment</w>
in effective</w>
ill iter
ij ani</w>
if a</w>
i ums</w>
i ths</w>
head way</w>
head quartered</w>
he els</w>
hand les</w>
ham pering</w>
guid ance</w>
gu iding</w>
g el
fri m</w>
fores ee</w>
fore stry</w>
fl own</w>
fl ocked</w>
fl ag
expec tancy</w>
exc use</w>
exam s</w>
exacerb ated</w>
es sional</w>
er ity</w>
er ie</w>
end as</w>
en voys</w>
en or</w>
e .
dur ation</w>
dr as
dras tically</w>
down ward</w>
direc tions</w>
diagnos ed</w>
dest in
der ailed</w>
d airy</w>
crow ding</w>
cour ageous</w>
counter ing</w>
corpor ations</w>
cor n</w>
copy right</w>
cop per</w>
contr actual</w>
consul ted</w>
conditi oned</w>
compris es</w>
compl icating</w>
comm anded</w>
co herent</w>
clim b</w>
cl assic</w>
circul ated</w>
chem icals</w>
che apest</w>
ch anted</w>
cer am
celeb rities</w>
cau tions</w>
can ton</w>
cad astr
c ool</w>
c ard
blog ger</w>
bl ind</w>
bel iefs</w>
bar ak</w>
b old</w>
b ever
autom obile</w>
attr acts</w>
ardz ik</w>
ar ian</w>
any way</w>
annul ment</w>
ah u</w>
ag endas</w>
af er
accompl ishments</w>
a ired</w>
Z af
X avier</w>
Wil son</w>
W ood</w>
Vel iko</w>
Ve ter
U trinski</w>
Tzvet ina</w>
Traj ko</w>
Tel enor</w>
Tas eva</w>
Tan er</w>
T E
Sul tan</w>
Sul livan</w>
St ara</w>
Sok ol
Scorp ions</w>
Sch u
S ed
S c
S FF</w>
Rodri gu
Rec ords</w>
R aff
R AE</w>
Pod rav
Pe c</w>
Pak ist
P E
N ationalist</w>
Mun k</w>
Mu barak</w>
Min ing</w>
M ug
M r</w>
M ou
M ek
Lu is</w>
Ljup co</w>
L up
L ev
L ed
Kyrgy zstan</w>
Jutar nji</w>
In str
Il ker</w>
I k
I Ds</w>
Hom eland</w>
Hart mann</w>
Haj rul
Ha iti</w>
Gor az
Gj ak
G ri
G oj
G ir
For tress</w>
Fe ren
Euro bonds</w>
Elbas an</w>
Ed ward</w>
Drag isic</w>
Djord je</w>
Dis tribu
De janovic</w>
Dac ia</w>
Con tro
Christo dou
Chi arini</w>
Cec ilia</w>
Cathol ics</w>
Car din
C op
C Ds</w>
Busin ess
Brun o</w>
Bri an</w>
B az
B K</w>
Azerba ijani</w>
Av ram
An dr
Abkhaz ia</w>
AR MO</w>
AN S</w>
8 .5</w>
6. 3</w>
5. 6</w>
19 60</w>
19 45</w>
1, 3
0. 6</w>
. gr</w>
z ep
y ana</w>
wi ret
w edding</w>
vide ot
vest ed</w>
v on</w>
us c
up date</w>
under mines</w>
ul l</w>
tu res
tures que</w>
travel ers</w>
tr actors</w>
tr aces</w>
to s</w>
tin en</w>
tex tiles</w>
termin ated</w>
ten or</w>
teach es</w>
tast e</w>
synagog ues</w>
syn dic
sur passed</w>
super ior</w>
su preme</w>
str on
st ored</w>
st ock
specific s</w>
seri ousness</w>
se al</w>
schem es</w>
s por
repl ied</w>
renov ations</w>
remain der</w>
reform ers</w>
recruit ment</w>
recomm ending</w>
rec overing</w>
rec all</w>
read ings</w>
re assure</w>
rad i
pro gres
priv ately</w>
predic tions</w>
predec essors</w>
pr ay</w>
pol lu
pic turesque</w>
patri o
outr aged</w>
out cry</w>
our ing</w>
ouf as</w>
os hi</w>
orig ins</w>
ord erly</w>
ony mous</w>
off rey</w>
o be
num b
noti fied</w>
norm alising</w>
nomin al</w>
neglec ted</w>
natur ally</w>
n atovic</w>
mortg age</w>
megawat t</w>
meaning ful</w>
me thod
mat ory</w>
m ob
m end</w>
m ask</w>
los es</w>
lor d</w>
lev ski</w>
lec tures</w>
l um</w>
l ane</w>
ke ys</w>
k itch
j kovic</w>
j et
j ancic</w>
it ted</w>
it ov</w>
is ki</w>
ir able</w>
inten sity</w>
ins ults</w>
inflam matory</w>
infec ting</w>
incur sion</w>
incre di
in security</w>
in jec
in er
in definitely</w>
impover ished</w>
imper ative</w>
ill ness</w>
ik al</w>
hon est
hol dings</w>
har sh
hand ic
ha il</w>
gun man</w>
gu itar
gu ided</w>
gar bage</w>
fruit ful</w>
frequ ency</w>
for b
fl our</w>
f ications</w>
exp ire</w>
exhib its</w>
exam ines</w>
ex em
exem pl
er gar
epid emic</w>
entren ched</w>
ent ails</w>
endeav our</w>
end er
en rolled</w>
en counter</w>
embrac ed</w>
ed ies</w>
e ars</w>
dow ns</w>
disrup tions</w>
dis solved</w>
dis count</w>
differen ti
deal ings</w>
daw n</w>
dar oglu</w>
d ail
cour thouse</w>
coo k
contain er</w>
cont acted</w>
construc tively</w>
congrat ulate</w>
con quest</w>
compl icate</w>
commer ci
collabor ators</w>
cle arer</w>
che er</w>
character istic</w>
ch eva</w>
certi fied</w>
ceremon ial</w>
ca b</w>
c ara</w>
by passing</w>
bur ial</w>
broadc asts</w>
bish ops</w>
benef ited</w>
be ef</w>
bal lo
az i</w>
av oda</w>
ass uring</w>
ass ing</w>
are v
arche ologists</w>
ang le</w>
amate ur</w>
am in</w>
all ow
ali en
aff lu
ab sent</w>
Zvor nik</w>
Zagre b
Z al
Ves el
Ver hagen</w>
Telec ommunication</w>
Svet lana</w>
Stra uss</w>
Stoj anovic</w>
Stef anovski</w>
Si oufas</w>
Sal z
Sab ah</w>
S eg
Rodrigu ez</w>
Relig ious</w>
Raz natovic</w>
Rau f</w>
Rad ikal</w>
Pop ova</w>
Parti zan</w>
PU R</w>
P it
Ov cara</w>
O res
N ovo</w>
N ac
N ET</w>
Mu har
Mor oc
Mobil kom</w>
Mir sad</w>
Mim oza</w>
Mic unovic</w>
Merc edes</w>
Mar keting</w>
Malay sia</w>
Magy ar</w>
Luc as</w>
L in
L et</w>
L S</w>
Kran j
Kor ca</w>
Koci jancic</w>
Kil ic
Karat z
K edev</w>
K A</w>
Jel eva</w>
J ac
Islam i</w>
Inf rastructure</w>
I an</w>
I G
Hajrul lahu</w>
H omen</w>
Ge offrey</w>
G uca</w>
Fat lum</w>
F az
Enterpris es</w>
Ef for
Ed mond</w>
E ric</w>
E mil
Dub ai</w>
Dj er
Der vis
D en</w>
Commun ists</w>
Com pu
Col omb
Civ ic</w>
Ch amp
Cern avoda</w>
Cap tain</w>
C av
Bun ardzik</w>
Bul ent</w>
Bor a</w>
Blag a</w>
Bi j
Bal a</w>
B oo
Atal ay</w>
Alb telecom</w>
Agric ultural</w>
Adri a</w>
AC TA</w>
A gos</w>
A G</w>
7 ,500</w>
5 6th</w>
5 0km</w>
198 2</w>
1, 400</w>
&apos; Clock</w>
z u</w>
with stand</w>
wh oever</w>
w ishing</w>
vent ures</w>
ur ities</w>
uni forms</w>
unc t</w>
un fairly</w>
un ac</w>
u ations</w>
top pled</w>
tigh ter</w>
tif ete</w>
therap y</w>
telec oms</w>
te a</w>
sup er</w>
stron gh
str ange</w>
sti r
spot light</w>
spec tive</w>
sl ash</w>
sk irts</w>
sinc erely</w>
shif ted</w>
selec ting</w>
scr apped</w>
sa iling</w>
s ounded</w>
s mar
s its</w>
s and
ru ined</w>
rot ation</w>
roc kets</w>
reve als</w>
rev ers
repatri ated</w>
rem inis
reluct ance</w>
rela xed</w>
recru its</w>
re vote</w>
re par
re di
pun ishing</w>
prospec tive</w>
pro pon
prev ents</w>
pres sured</w>
prem ie
preced ed</w>
poss ess</w>
plat forms</w>
pl um
pl ate</w>
person ality</w>
patrio tism</w>
pain t</w>
p is
out skirts</w>
ou ster</w>
ot echn
os ity</w>
orchestr ated</w>
open ings</w>
occur ring</w>
numb ering</w>
nis tri
ne ts</w>
mu t</w>
modern ised</w>
min eral</w>
mer its</w>
mar ine</w>
m ate</w>
lun ch</w>
lo oming</w>
lik es</w>
li bel</w>
la yer</w>
la kes</w>
l anding</w>
l ags</w>
kind ergar
j ani</w>
it ar</w>
interven tions</w>
interven ed</w>
inst al
innov ations</w>
infec tions</w>
imm une</w>
im pro
ill ic</w>
id iu</w>
id arity</w>
i ć</w>
i rovic</w>
i ban</w>
host ages</w>
hospit ality</w>
hi o</w>
h o</w>
gro ws</w>
gre ets</w>
ge ography</w>
g endar
fundament alism</w>
fish eries</w>
fe ared</w>
fa thers</w>
f oul</w>
expl oring</w>
excep tions</w>
ex pel</w>
evol ving</w>
evac uation</w>
ev olution</w>
est e</w>
escor t</w>
escal ating</w>
es i</w>
err ors</w>
erec ted</w>
ep is
entreprene urship</w>
end arm
en ric
en ous</w>
emo tions</w>
em i
el ites</w>
el eg
el ds</w>
ek er</w>
ec ology</w>
eb ack</w>
earli est</w>
ear nings</w>
dy n
dro w
dou bles</w>
docum ented</w>
distribu ting</w>
dis rupt</w>
dis h</w>
dig it</w>
dep icting</w>
den oun
de w</w>
de tri
de preci
dail ies</w>
d wel
cra f
country side</w>
contin ents</w>
confron ted</w>
condem ns</w>
commemor ated</w>
collabor ate</w>
coff ers</w>
civil isations</w>
chick ens</w>
certific ate</w>
car bon</w>
c ite</w>
bun kers</w>
bor row</w>
boar ding</w>
ban ic</w>
ball istic</w>
avail ability</w>
au s</w>
as ym
arti l
ard y</w>
ar iu</w>
appreh ending</w>
alleg ing</w>
al ized</w>
al it
al es</w>
ad mits</w>
Z ur
Z elj
Z banic</w>
Yildi rim</w>
YR OM</w>
Wik ip
West er
We ap
WW II</w>
Vuc inic</w>
Victor ia</w>
Vac lav</w>
V iv
UNO DC</w>
U p
U ka</w>
Tur in</w>
Trans nistri
Tal iban</w>
T AK</w>
Steph an
Sol idarity</w>
S und
S eks</w>
S aint</w>
Rul i</w>
Red zep
R ajic</w>
R ah
Pop ular</w>
Pent agon</w>
Par dew</w>
Pan a
P ru
P har
Oper ational</w>
Offici als</w>
Offic er</w>
N H
Minis terial</w>
Mil en</w>
Max im</w>
Maj l
M omir</w>
Leh tinen</w>
L angu
Krush evo</w>
Kilic daroglu</w>
Ken ya</w>
K astr
K ast
Jov icevic</w>
Jas na</w>
Jah or
J ack</w>
Institu tions</w>
Industri al</w>
Hus ey
Holl and</w>
HS S</w>
Gjak ova</w>
Fran co
Fr on
F inci</w>
F YROM</w>
E l</w>
Docum entary</w>
Dob oj</w>
Diacon escu</w>
D ev
Cyr illic</w>
Con sum
Con fl
Comm on</w>
Cik otic</w>
Cal ik</w>
C V</w>
Br at
Bou cher</w>
Bos anski</w>
Ban ca</w>
BB B</w>
B ode</w>
Associ ated</w>
Archae ological</w>
A tifete</w>
A frim</w>
A er
A G
9. 2</w>
9 0m</w>
6. 5m</w>
5. 7</w>
4 8th</w>
4 7th</w>
4 5th</w>
3 km</w>
3 50,000</w>
19 15</w>
16 m</w>
1, 300</w>
1 12</w>
z iu</w>
z ija</w>
ye ziu</w>
y cle</w>
wit z</w>
wid ow</w>
wh ol
w is
vis ual</w>
vide os</w>
vi br
vet o
val ley</w>
urs a</w>
uncertain ties</w>
un itary</w>
un ifying</w>
un exploded</w>
un biased</w>
ug u
ud ed</w>
tru ce</w>
tr ust
tr ain
tot aled</w>
tonn e</w>
tic als</w>
ther mo</w>
termin ate</w>
ter ies</w>
t ong
tong ue</w>
t all</w>
suppor tive</w>
supervis e</w>
stic kers</w>
spons oring</w>
spar king</w>
sp ying</w>
sp heres</w>
so aring</w>
sni per</w>
sl ower</w>
sk ier</w>
sing les</w>
simpl ify</w>
si l</w>
shop pers</w>
sho es</w>
ship ment</w>
she ets</w>
sh oot</w>
sen ators</w>
sec ede</w>
sa m</w>
s os</w>
rub ber</w>
roc ks</w>
revis e</w>
revi ved</w>
reti re</w>
respon ds</w>
res ki</w>
reli ev
recogn ized</w>
rec alling</w>
re paid</w>
re mind</w>
re ap</w>
r allied</w>
pursu ed</w>
provoc ations</w>
profession ally</w>
prob able</w>
presid ed</w>
pres s
polar isation</w>
play wright</w>
pip h
piph any</w>
phenom ena</w>
pessimis tic</w>
per mitted</w>
par ovic</w>
p assive</w>
over shadowed</w>
ov ich</w>
our self</w>
ot al</w>
oph ob
open ness</w>
neighbor ing</w>
neglec t</w>
ne x</w>
navig ation</w>
mun ia</w>
mosa ic</w>
mon archy</w>
mom ents</w>
mo bility</w>
mis sion
mil itar
mid st</w>
mer chan
merchan dis
ment or</w>
massac res</w>
manag ic</w>
magaz ines</w>
mag ic</w>
m ired</w>
m are</w>
lo v</w>
li abilities</w>
leg es</w>
le an
l it</w>
ke y
justi fication</w>
issu ance</w>
is te</w>
institu tion
ins on</w>
inj ury</w>
ine ffici
in ovo</w>
imp acted</w>
im balances</w>
illu sion</w>
il li
iev es</w>
ie g
identi cal</w>
ic sson</w>
ic le</w>
ic anin</w>
hygi ene</w>
hes it
her al
he f
harmon ising</w>
hard lin
ha fi</w>
h oc</w>
h alls</w>
guitar ist</w>
guar ded</w>
gr appl
forb idden</w>
fing er
fic tion</w>
ez u
expres ses</w>
explo ited</w>
evacu ate</w>
er ror</w>
environment ally</w>
entreprene ur</w>
ent ail</w>
endarm erie</w>
en ical</w>
emb ark</w>
em ens</w>
em ary</w>
du pl
don es
distinc tive</w>
discour aged</w>
direc tives</w>
destin y</w>
desig ners</w>
den ial</w>
deliv ers</w>
def unct</w>
decisiv ely</w>
deb ating</w>
de tain</w>
de c</w>
d ens</w>
counterfe iting</w>
contin ental</w>
consolid ating</w>
cons isten
conc eded</w>
complex ity</w>
compar able</w>
comfor t</w>
clim bing</w>
cha ins</w>
categ or
c ous
burge oning</w>
bul let</w>
bro ch
bre a
b ery</w>
av ia</w>
ator ium</w>
ater ina</w>
ast y</w>
assa ults</w>
arri vals</w>
ar ia</w>
an cies</w>
am ped</w>
alp ha
al ovic</w>
al ization</w>
ai res</w>
ag an</w>
afflu ent</w>
a than</w>
Ziv anovic</w>
Y l
William son</w>
Wikip edia</w>
Wel fare</w>
Weap ons</w>
W it
W ind
Vl ade</w>
Ves nik</w>
Ven ezu
V ill
V ak
U st
U d
Th at</w>
T unc
T V
Str ong</w>
Sti ll</w>
Stephan opoulos</w>
Stanis ic</w>
Sk ender
Sim on</w>
S tri
S ir
S as
S K</w>
Ros emary</w>
Reg ulation</w>
R F</w>
Prof essional</w>
Podrav ka</w>
Pic ula</w>
Pan ag
P yr
P oz
P ort</w>
P oll
P ersi
Oz gur</w>
Ov idiu</w>
Os managic</w>
Naum ovski</w>
N ica</w>
Muhar rem</w>
Mot or
Mold ov
Mis cevic</w>
Majl inda</w>
MR T</w>
M arg
L ush
L ord</w>
L ech</w>
L ap
Kr yeziu</w>
Jo kic</w>
Jahor ina</w>
J en
Is met</w>
Io annis</w>
Inv est</w>
Instr ument</w>
In dones
Im er</w>
IK EA</w>
Husey in</w>
He in
H em
H ajd
Go ati</w>
Glav as</w>
Gj ilan</w>
G rec
For ty</w>
FO C
FOC US</w>
F ight</w>
Er icsson</w>
En d</w>
E qu
E piphany</w>
E A
Dv or</w>
Dor is</w>
Dem ir</w>
D ard
D ab
Civ il
Chang es</w>
C v
C ot
C ilic</w>
C he
C O
Brat unac</w>
Bog oljub</w>
Be y
Bakoy anni</w>
B ursa</w>
Att ack</w>
Arab ic</w>
Ar e</w>
An drew</w>
Al munia</w>
Al lies</w>
A gro
6. 2</w>
5 5m</w>
4. 5m</w>
4 0th</w>
3 60</w>
3 50m</w>
3 4th</w>
2 2
196 7</w>
19 m</w>
18 m</w>
1 25</w>
1 10m</w>
,00 0m</w>
you ths</w>
ycl op
y ourself</w>
x en
worsen ed</w>
wor ris
worris ome</w>
we ights</w>
we en</w>
wal king</w>
vulner ability</w>
vigor ously</w>
vic inity</w>
vibr ant</w>
vend ors</w>
var ied</w>
v essel</w>
v and
util isation</w>
up grades</w>
un predictable</w>
un limited</w>
un finished</w>
un equiv
un ch</w>
ul ent</w>
ul ative</w>
u pro
trad ed</w>
total itarian</w>
top ping</w>
tigh ten</w>
thin a
th ieves</w>
tal e</w>
t os
t down</w>
t aining</w>
sympa thy</w>
symbol ises</w>
surren ders</w>
surge on</w>
sur faced</w>
super markets</w>
summ ary</w>
succeed ing</w>
stun ning</w>
sti ff</w>
staff ed</w>
st amps</w>
spe edy</w>
sl opes</w>
shif ting</w>
shap ing</w>
shad ow
shadow y</w>
secre ts</w>
scienti ous</w>
s ely</w>
s ance</w>
roc ky</w>
rich est</w>
rest s</w>
rest ed</w>
res ur
repatri ation</w>
ren ovic</w>
ren amed</w>
rel ate</w>
reg ation</w>
rece ip
re hear
re fr
re construct</w>
rang es</w>
ramp ant</w>
pu p
propor tional</w>
pro gram</w>
prison er</w>
prejud ices</w>
pre a</w>
plann ers</w>
pis tol</w>
pil gri
persecu tions</w>
pe tro
pe ers</w>
pain ted</w>
p iv
over crowding</w>
ou ver</w>
org anic</w>
ong st</w>
on t
og y</w>
oblig es</w>
o bil
no where</w>
night mare</w>
n ering</w>
mul ling</w>
miti gate</w>
mil l
met als</w>
merchandis e</w>
mer ch
manufac ture</w>
los ers</w>
life time</w>
la ys</w>
la x</w>
la ki</w>
l yr
l ag
k op
ju bil
jeopardis ing</w>
jeop ardy</w>
j ad</w>
iz ing</w>
it z</w>
is nik</w>
ip h
instruc tors</w>
inf o</w>
ine jad</w>
in stig
il ova</w>
id ance</w>
ici aries</w>
ic ki</w>
ic ates</w>
i j</w>
i i</w>
i ani</w>
horiz on</w>
histor ically</w>
hi de
heral ded</w>
heav y
he l</w>
ha ble</w>
h itting</w>
gu err
grad ers</w>
fru its</w>
fra ud
fle eing</w>
fl edg
fledg ling</w>
fif ty</w>
favour ing</w>
fasc ist</w>
fall out</w>
experim ent</w>
et res</w>
ere vo</w>
ep tions</w>
ent a</w>
eng aging</w>
end ured</w>
enc yclop
en tries</w>
en sures</w>
en suing</w>
en ac
e Kathimerini</w>
down played</w>
disman tle</w>
def ender</w>
deep est</w>
deep ened</w>
dec e
de ton
d ressed</w>
d ancing</w>
cum enical</w>
cri ption</w>
cour tesy</w>
cos tum
cor respondents</w>
continu ously</w>
conten tious</w>
conf used</w>
conf essed</w>
complet es</w>
competi tor</w>
commod ity</w>
commod ities</w>
cl arity</w>
character istics</w>
ch y</w>
ch rome</w>
care ers</w>
c in</w>
bun ker</w>
broad en</w>
bre eding</w>
bon us</w>
birth place</w>
benef iciaries</w>
believ ing</w>
be k
be have</w>
b ik
autom otive</w>
aud itors</w>
au d</w>
ath l
at om</w>
at ea</w>
assass inations</w>
as y</w>
artil lery</w>
arm oured</w>
appli ances</w>
apolog ised</w>
anc ouver</w>
am ongst</w>
am ids</w>
alleg es</w>
alis tically</w>
air o</w>
aggres sively</w>
adver se</w>
adap ted</w>
adam ant</w>
ad or</w>
ad ers</w>
ach eva</w>
accum ulated</w>
accred itation</w>
a vi
a bu
Zvez dan</w>
Zu z
Yug o</w>
W EF</w>
Vse ki</w>
Vin ko</w>
Vet vendosje</w>
Vesel inovic</w>
Venezu ela</w>
Vec di</w>
V ote</w>
V ancouver</w>
UN F
UNF IC
UNFIC YP</w>
Tus up</w>
Tru th</w>
Top ol
Top c
Tim isoara</w>
Tim es
T o</w>
T ep
T arg
T U</w>
Su n</w>
Stav ros</w>
Smed erevo</w>
Sim atovic</w>
Si emens</w>
Sen ator</w>
Sen ad</w>
Selim ovic</w>
Se b</w>
Sal eh</w>
Saf ety</w>
S BiH</w>
Res er
Rad ovic</w>
Rad oslav</w>
Rad omir</w>
R osen</w>
R CC</w>
Pres pa</w>
Petro m</w>
Pe ja</w>
Pav lovic</w>
Pav levski</w>
Parav ac</w>
P op</w>
Os mani</w>
Og nj
Observ atory</w>
O st
O prea</w>
N on</w>
N ar
Mon ica</w>
Meh med</w>
Mal m
M ev
M end
M U
Lup u</w>
Langu age</w>
L ions</w>
L ac
Kir in</w>
Kastr ati</w>
Karad j
K sen
K i
K are
Jov ica</w>
Jov anovska</w>
Jos ep</w>
Jord anian</w>
Jel acic</w>
Ivan ko</w>
Ir on</w>
Integr ated</w>
In spec
In form
In divid
His tor
Hand ball</w>
Had z
H var</w>
H iz
H ill</w>
H eb
H NS</w>
Govern ance</w>
Gj org
Georg ieva</w>
G K</w>
Fil ip
F our</w>
En erg
Eg emen</w>
EU COM</w>
ER T</w>
E cumenical</w>
Dr ugs</w>
Do ing</w>
Direc tors</w>
Del ic</w>
Deb ar</w>
Dan as</w>
D e</w>
D T
Con sul
Con go</w>
Christ opher</w>
Ch ry
C ul
C airo</w>
C ad
Burk ay</w>
Bulgar tab
Bratis lava</w>
Br onze</w>
Bos phorus</w>
Bos kovic</w>
Bor rell</w>
Bish op</w>
Bet ween</w>
Bes nik</w>
Ben j
Ay din</w>
Aut om
Ar inc</w>
Anast as
Ali yev</w>
Al g
Al bin</w>
A ida</w>
9 0,000</w>
7. 8</w>
7. 4</w>
7. 2</w>
6. 9</w>
5 6
4. 9</w>
4 40</w>
2, 400</w>
2 30</w>
198 8</w>
198 5</w>
197 3</w>
196 0s</w>
1, 700</w>
1, 600</w>
. org</w>
z oo</w>
z on</w>
z ai</w>
y vi
yvi atis</w>
wid ened</w>
wel le</w>
w ery</w>
vig il
vi ability</w>
v ou
v ard</w>
v an
us a</w>
urg y</w>
ur ious</w>
under took</w>
under lining</w>
u sion</w>
u a</w>
tw ar</w>
trigg ering</w>
trad ers</w>
tr um
tow ers</w>
tion ism</w>
ti ously</w>
ti de</w>
th ur</w>
teen ager</w>
tal g
ta p</w>
t are</w>
sym path
sust aining</w>
survi ving</w>
surpris es</w>
sub standard</w>
stu dio</w>
str ick
strick en</w>
stimul ating</w>
ste red</w>
ste aling</w>
st y
squ ab
spor adic</w>
spec ulated</w>
spe ed
sk at
si fied</w>
senti ments</w>
sen al</w>
sec urities</w>
sec retariat</w>
se ap
schol ar</w>
s ang</w>
rul er</w>
ric her</w>
ri pe</w>
rhyth m</w>
resum ing</w>
renov ating</w>
reminis cent</w>
rem n
reiter ate</w>
reg aining</w>
recru iting</w>
reconfig uration</w>
re strict</w>
re side</w>
re ro</w>
ration ale</w>
quarter finals</w>
pu rely</w>
promp tly</w>
profes sions</w>
prev ailed</w>
prescri bed</w>
pos twar</w>
pos ting</w>
politic ised</w>
ple ad</w>
plat oon</w>
piv otal</w>
pardon ed</w>
p he
p age
ow e</w>
ov en</w>
out comes</w>
out breaks</w>
ourn ament</w>
or i</w>
om is
ol ding</w>
nomine es</w>
no d</w>
n t</w>
multi pl
mor atorium</w>
megawat ts</w>
med d
marri ages</w>
margin alised</w>
li z
lecture r</w>
l yn
l ude</w>
kidn apping</w>
just ment</w>
jud ging</w>
j ep
j akovic</w>
iv odic</w>
itar ovic</w>
is co</w>
interoper ability</w>
inten tionally</w>
initi ating</w>
ing redi
incur red</w>
incl ined</w>
inc eption</w>
in put</w>
in ner</w>
in justice</w>
in dis
in compatible</w>
im porters</w>
im ent</w>
i us</w>
hi er
he rence</w>
haz ard</w>
hab its</w>
gymn ast</w>
guaran tors</w>
go l</w>
gl as</w>
ge ar</w>
fos sil</w>
flo ated</w>
ff rey</w>
favor ite</w>
fant astic</w>
f ever</w>
f a</w>
exemp t</w>
ev id
ev ci</w>
et tl
et al</w>
es hi
es a</w>
er ial</w>
eng ul
end uring</w>
employ er</w>
emp ire</w>
em a</w>
ell i</w>
el o
eh ir</w>
ec ular</w>
drin ks</w>
dr y</w>
div ers</w>
disadvant aged</w>
dis rupted</w>
dis appearance</w>
dig ging</w>
di r</w>
depri ved</w>
deplo ying</w>
deliber ate</w>
deb tors</w>
d ress</w>
d ni
d ner</w>
d ly</w>
curt ailed</w>
critic ally</w>
criti ci
coun sel
costum es</w>
cor ps</w>
contrad ic
conting ents</w>
consult ants</w>
congrat ulations</w>
conf essions</w>
conclu sive</w>
con tender</w>
comm only</w>
com promised</w>
coinc ide</w>
co aches</w>
cl ick</w>
chick en</w>
ch er
cam pus</w>
caf é</w>
c el</w>
bur st</w>
bro ther
bre ast</w>
bot en</w>
bor der
ble ak</w>
bl ies</w>
ber man</w>
bek istan</w>
be tting</w>
be red</w>
back log</w>
back grounds</w>
back bone</w>
b ore</w>
astr onom
assa il
as in</w>
arche ological</w>
ar u</w>
ar ises</w>
ar able</w>
approv ing</w>
applic ant</w>
ap par
announ cements</w>
analy sed</w>
ambig uous</w>
ain able</w>
ail o</w>
activ ated</w>
ac ent</w>
Zuz ul</w>
Wester welle</w>
Wal dner</w>
Vill age</w>
Vic tory</w>
Vic ti
Vasil jevic</w>
V ah
Un iversi
Theodor os</w>
TA V</w>
T w
T ower</w>
T ournament</w>
Syri ans</w>
Su bo
Son ja</w>
Sis ak</w>
Sh imon</w>
Schu essel</w>
SP O</w>
SN BC</w>
S tal
S oz
Ric hter</w>
Re id</w>
Re eker</w>
Re alit
Ramad ani</w>
Raff i</w>
R DA</w>
Prin ci
Pre v
Pr o</w>
Pod uj
Per o</w>
Pe as
Par ivodic</w>
Pana thina
Pakist ani</w>
Om budsman</w>
Ognj en</w>
O w
O ur</w>
O hio</w>
O TP</w>
Nikol ai</w>
Nac ional</w>
NA SA</w>
N G</w>
Muham ed</w>
Moroc co</w>
Mon aco</w>
Mol yviatis</w>
Mil evska</w>
Mic hel
Mi j
Mat ei</w>
Mar io</w>
M SNBC</w>
M C</w>
Lt d</w>
Lo cher</w>
Ljubl janska</w>
Lju boten</w>
Lie berman</w>
Lead er</w>
L arge</w>
Kur d</w>
Krst ovic</w>
Krem lin</w>
Kraj isnik</w>
Kr al
Knez evic</w>
K itarovic</w>
K iev</w>
K har
K O
Jun ior</w>
Je ffrey</w>
Ja eger</w>
J s</w>
Im am
Ibra him
IC MP</w>
Hav el</w>
H Q</w>
Gy p
Grab ar</w>
Ger dec</w>
Gas parovic</w>
G old
G ill
Fr c
For bes</w>
Fin al</w>
F ig
Ev ros</w>
En tre
Elef ther
EB U</w>
E id</w>
Drag utinovic</w>
Drag isa</w>
Dr ama</w>
Dou glas</w>
Dis c
Di vision</w>
Dalmati an</w>
D renica</w>
D eg
D ed
Cor ner</w>
Confl ict</w>
Con c
Compu ter</w>
Com pl
Col ak</w>
Champ ions</w>
Cec a</w>
Cat alin</w>
Car re
Can ton</w>
Cam pa
C af
C ab
C I</w>
C D
Business men</w>
Bu tr
Bra him
Boz o</w>
Bo zic</w>
Bo ost</w>
Benj amin</w>
Bas ic</w>
Ban king</w>
BN R</w>
BI H</w>
B id</w>
B andic</w>
B E
At tica</w>
Arif i</w>
Ar tan</w>
Analy sis</w>
An cic</w>
Alex ei</w>
A rist
8. 7</w>
6. 1</w>
5 4th</w>
4 9th</w>
4 8
4 2nd</w>
4 ,500</w>
3. 5m</w>
3 00
2 20m</w>
197 1</w>
16 0m</w>
1, 2
z enberg</w>
yiel ds</w>
x het</w>
x es</w>
wis dom</w>
w aging</w>
vis ibility</w>
vil le</w>
valid ity</w>
vac ant</w>
ush i</w>
usc as</w>
under lines</w>
un prepared</w>
un even</w>
un covering</w>
un conditional</w>
un avo
u h</w>
tri m
translat ors</w>
trans atlantic</w>
tra il</w>
tr ailing</w>
ti ff</w>
thorough ly</w>
thir teen</w>
thes is</w>
tax ed</w>
t man</w>
t ina</w>
t edness</w>
t ative</w>
t ally</w>
sy mp
substitu te</w>
subsidi aries</w>
stric ht</w>
stri ves</w>
ster dam</w>
star k</w>
stad iums</w>
st ore
spur ring</w>
spec ially</w>
some time</w>
soci etal</w>
smel ter</w>
sm a</w>
sle ep</w>
sl owing</w>
sl ander</w>
skep tical</w>
sk y
sing led</w>
si p</w>
si de
she ep</w>
sens ational</w>
sc ram
sac ri
s ula</w>
s u</w>
s our</w>
s ons</w>
s als</w>
s add
rob bery</w>
ro ws</w>
ri gging</w>
rememb ers</w>
remar ked</w>
rein forcing</w>
referend ums</w>
recycl ed</w>
re ply</w>
re in</w>
re alistically</w>
r and
quarter ly</w>
pul ling</w>
pu zz
psych iatric</w>
pr as</w>
poll sters</w>
poc kets</w>
plun ged</w>
plan ting</w>
pl eb
pleb isc
phys ics</w>
per iph
penetr ation</w>
pap er
page ant</w>
p ac
ov ou</w>
ourn e</w>
oul as</w>
otechn ology</w>
ot ers</w>
orph ans</w>
ordin ance</w>
or atory</w>
ob ed
nos talg
ni us</w>
newcom ers</w>
neighbour hoods</w>
neighb ors</w>
negl igence</w>
n an
n akov</w>
mon ies</w>
mnas ium</w>
mir li</w>
manoeuv res</w>
main land</w>
magn ificent</w>
m erc
m echan
lyr ics</w>
lux urious</w>
lo os
liquid ation</w>
lif ts</w>
li ability</w>
leg alise</w>
l oud</w>
l anded</w>
k ovac</w>
jag as</w>
j in</w>
it er</w>
ism atic</w>
inval id</w>
introduc es</w>
inter ruption</w>
insurg ency</w>
inf ant</w>
ine j</w>
indic ative</w>
incredi ble</w>
in equality</w>
im proper</w>
im ming</w>
illiter ate</w>
ig ic</w>
ic ago</w>
i ated</w>
i a
hesit ant</w>
hard ship</w>
hang ing</w>
ha v
ha ir</w>
grat eful</w>
gr ay</w>
gol f</w>
gener ous</w>
g ay</w>
fruit less</w>
[...]
