#version: 0.2
l a
e r
a r
n d
a p
o s
i l
a n
ap os
apos ;</w>
& apos;</w>
m a
i n
a n</w>
i n</w>
l e
m e
la r
d e
b i
a k
ı n
l i
a s
ı n</w>
y o
v e</w>
e t
l er
a l
s t
o t
e k
ı nd
o n
e n
q u
a y
bi r</w>
qu ot
quot ;</w>
& quot;</w>
ı r
a t
u n
e n</w>
a ş
d i
u r
d a</w>
o r
o l
d e</w>
e s
i y
i r
ü r
u l
a k</w>
ı l
y a</w>
ınd a</w>
yo r</w>
ü n
g e
d i</w>
i ş
g ö
e r</w>
s a
in i</w>
la r</w>
i nd
d a
ı ğ
a z
ö n
i s
ın ı</w>
la n
ma s
ü z
u m
e k</w>
o v
ü l
i k
i m
i ç
b aş
in e</w>
k e
i st
k a
lar ı</w>
l e</w>
in in</w>
e c
gö r
u n</w>
e m
b u</w>
l a</w>
ar a
ı ş
ı k
l i</w>
ler i</w>
a ğ
t i
m a</w>
me s
y ap
d u
ğ i</w>
ın a</w>
ar t
u t
iç in</w>
e d
o la
k on
ı k</w>
ak i</w>
ind e</w>
an ı</w>
s ö
o m
u s
ın ın</w>
v er
ü k
r a
il er
r u
S ır
a v
k i</w>
ü y
a b
bi r
c ak</w>
le r</w>
ığ ı</w>
o p
g er
s e
k ar
u nd
e li
la ş
i t
de n</w>
i z
ı m
e l
i ç</w>
d ı</w>
t i</w>
a ç
ı s
n in</w>
ınd an</w>
g ün
g ü
v a
mas ı</w>
b il
s on
i k</w>
t e</w>
e l</w>
y e</w>
ar as
K os
d an</w>
r e
du ğ
t a
ist an</w>
m e</w>
es i</w>
l u
h e
u ş
A B</w>
l ı</w>
il e</w>
& #
&# 9
lar ın</w>
y ıl
o n</w>
s ür
ğ ini</w>
sö y
y a
Kos ov
un u</w>
n ın</w>
t e
o ğ
y ar
ü ş
ol duğ
baş k
e v
da h
s u
b ak
i m</w>
le n
o lar
r o
st an</w>
e t</w>
ı yor</w>
t a</w>
ma k</w>
ö l
bi stan</w>
@ -
@- @</w>
Sır bistan</w>
gün ü</w>
Kosov a</w>
b ul
ı la
y en
h a
ı m</w>
mes i</w>
k ur
olar ak</w>
T ür
A r
söy le
k at
a d
i yor</w>
y et
c a</w>
ge ç
und a</w>
ü k</w>
il er</w>
ö r
kar ş
A v
i z</w>
le ş
2 0
ru p
ı ş</w>
o k
ek i</w>
ül k
ola n</w>
e y
ül ke
t op
ük ü
dah a</w>
a ma
ı y
T i
iy e</w>
a nd
s or
y ön
nd e</w>
üz er
c e</w>
de ğ
er i</w>
lar ını</w>
m an
Av rup
ı r</w>
ö z
t ı</w>
y er
me s</w>
t ü
k ay
u z
d aki</w>
Ti mes</w>
t ara
l ık</w>
de di</w>
ükü me
i l</w>
ler in</w>
la ma
t ir
il i</w>
is i</w>
Avrup a</w>
ç o
ger ek
yo n
i h
bir li
i d
söyle di</w>
m il
h üküme
al ı</w>
b öl
tara f
u y
H ır
ı z
d üz
a c
s iy
ınd aki</w>
M ak
me k</w>
o y
yen i</w>
y ak
ec e
Tür k
b üy
a m
Mak ed
son r
yo n</w>
B aş
v at
a t</w>
al k
ığ ını</w>
m ü
20 0
ind en</w>
d ur
i r</w>
i ş</w>
se ç
g ra
li k</w>
g en
di ği</w>
as ı</w>
sa ğ
d u</w>
kon us
h ur
ç ek
um hur
n av
Türk iye</w>
a la
an l
de ki</w>
Ar nav
e le
al ış
ler ini</w>
i b
ed il
eli r
ço k</w>
d oğ
un un</w>
b elir
k il
ı l</w>
gör e</w>
lar ının</w>
ıy la</w>
d er
ön em
u k
ik i</w>
h ab
di ğ
y i</w>
ov iç</w>
olduğ unu</w>
b u
başk anı</w>
Sır p</w>
3 ;</w>
&#9 3;</w>
1 ;</w>
&#9 1;</w>
m u
yo r
an laş
o li
e de
il g
iy le</w>
t ur
ec ek</w>
y aş
as ında</w>
t ar
aç ık
lu k</w>
ç ık
siy as
n a</w>
l ü
a r</w>
ç alış
y er</w>
on ya</w>
ge l
lar a</w>
aras ı</w>
B ak
yo l
sa h
an a</w>
e ş
ol ma
da r</w>
en in</w>
S o
K ara
e di
y üz
kat ıl
c i</w>
yap t
bul un
ge le
y as
ler inin</w>
on om
aras ında</w>
taraf ından</w>
b ağ
t er
B ul
us lar
s on</w>
ı z</w>
ek onom
uslar arası</w>
p ro
h ak
düz en
Bul g
r ı
al d
Maked onya</w>
v en
c e
Y un
baş la
de va
g u
m üz
et ti</w>
su ç
an s
s ay
büy ük</w>
y ıl</w>
s ek</w>
me n</w>
or t
me n
y ı</w>
a de
a li
gö st
lar ına</w>
B H</w>
ler ine</w>
k en</w>
iler i</w>
ı lar</w>
deva m</w>
le t
de st
de v
Hır vat
et ir
göst er
B el
g etir
un a</w>
la nd
l u</w>
s ır
me k
ma ya</w>
s an
gör üş
eli k</w>
ilg ili</w>
ıla n</w>
Arnav ut
al t
p oli
ka dar</w>
ü s
ş ek
ıs ı</w>
ler e</w>
i p</w>
p ar
Hırvat istan</w>
d üş
c ı</w>
E ur
C umhur
ay a</w>
b ek
an cak</w>
Bel gra
er ke
Baş bak
ib i</w>
sö z
k ap
c ağ
A n
leş tir
diğ er</w>
t r
Belgra d</w>
u t</w>
ger çek
t an
as k
f or
an ya</w>
siyas i</w>
k o
os na</w>
ü n</w>
lar ında</w>
a h
yapt ığı</w>
t en</w>
li k
kon uş
a l</w>
sa v
me ye</w>
u yor</w>
1 9
1 0</w>
le t</w>
p art
e y</w>
b ü
ind eki</w>
ge li
ar istan</w>
konus unda</w>
Arnavut luk</w>
P az
ul uslararası</w>
t ut
f az
S E
üzer e</w>
bu l</w>
Kara da
h er</w>
ö y
R om
yet kil
mas ına</w>
yar d
f a
Bak anı</w>
Eur op
e an</w>
u k</w>
m ış</w>
e ğ
ülk enin</w>
mas ını</w>
kar ar
A B
as t</w>
k ul
yo ru
d ür
iş leri</w>
s er
SE Times</w>
AB D</w>
olduğ u</w>
t ır
u m</w>
gü ven
an istan</w>
So ut
Europ ean</w>
Sout he
Southe ast</w>
Karada ğ</w>
p lan
et i</w>
di r
iy i</w>
y en</w>
iş k
Bulg aristan</w>
o r</w>
ka m
i v
le nd
mil yon</w>
ler de</w>
önem li</w>
es ki</w>
yor lar</w>
av r
d ığı</w>
dur um
m iş</w>
uş tur
- -</w>
A T
ke nd
g ir
sonr a</w>
karş ı</w>
iş birli
sağ la
v e
a lan
hüküme t
1 1</w>
Yun anistan</w>
il k</w>
Rom anya</w>
il işk
g ibi</w>
i s</w>
yak laş
uy gu
AT O</w>
N ATO</w>
B M</w>
belir t
an k
ak er
t ak
et t
M ar
ü nde</w>
ç ağ
y an</w>
k az
ar et</w>
k iş
lar da</w>
h az
ma h
sa l</w>
faz la</w>
müz aker
i la
is e</w>
la dı</w>
s i</w>
yon u</w>
y ük
art esi</w>
hab eri</w>
u ğ
k om
h ar
u c
ü nd
erke z
len en</w>
h al
değ iş
a cak</w>
at ır
seç im
hak k
R e
de n
ha f
i c
yüz de</w>
0 0</w>
e st
es inde</w>
öy le</w>
yıl ında</w>
m i</w>
ver diği</w>
kul lan
t an</w>
B alk
t em
y ay
re for
Cumhur başkanı</w>
le me</w>
k ü
et k
ler inde</w>
y an
l ü</w>
im i</w>
g i</w>
s ki</w>
birli k
ma k
ka bul</w>
n un</w>
ülk e</w>
kur ul
n e</w>
d ır</w>
ün ü</w>
e den</w>
böl g
şek il
k al
gör ev
ü yor</w>
iler in</w>
s ın
k r
ti ğini</w>
s e</w>
P r
e v</w>
t ür
o s</w>
k or
kay n
f ak
z iy
19 9
me y
t ek
d ığını</w>
ı t
b az
lan an</w>
şekil de</w>
açık lama
tar ih
ece ğini</w>
in a</w>
ab il
t ör
i f
K om
ol mak</w>
du y
ekonom ik</w>
bul und
B osna</w>
birlik te</w>
H er
sür ec
a z</w>
ver il
ar d
ç öz
es inin</w>
o j
ar k
r at
di ğini</w>
ma n</w>
yön et
ön ce</w>
a y</w>
i den</w>
gü ç
ım c
ış işleri</w>
pro j
Tür k</w>
1 2</w>
mah ke
ir an</w>
s ek
ş ir
top lan
ü ç</w>
g az
d ön
ay ı</w>
A l
li ğ
s a</w>
an lar</w>
k es
ı da</w>
iç inde</w>
er ek</w>
e bil
k en
s at
sah ip</w>
li ği</w>
müzaker e
O r
k ıs
y atır
ek le
ay r
z a
ma yı</w>
r ap
me v
i ca</w>
l o
sonr asında</w>
b ar
tü n</w>
yaklaş ık</w>
İ n
b a</w>
ı b
ş am
ac ağ
sor un
d ün
n ik</w>
di ç</w>
böl ge
edi yor</w>
i p
u ç
dev let</w>
anl ığı</w>
li der
b in</w>
Paz artesi</w>
la ma</w>
z ama
ve ya</w>
mes ine</w>
yap ılan</w>
üzer inde</w>
de f
di k
um lu</w>
da v
im z
u st
ş öyle</w>
ön c
s il
de t
lend ir
or g
sa va
a da
sava ş</w>
Her sek</w>
ol du</w>
im iz</w>
se l</w>
de me
ald ır
gele n</w>
bağ ım
Başbak an</w>
ıl ması</w>
c ade
K ıb
va t</w>
çık ar
mes ini</w>
K on
in ci</w>
ü m
değ il</w>
i t</w>
m erkez
i ti
Hır vat</w>
ç oğ
gaz et
f er
açıklama da</w>
r es
geli ş
nd a</w>
t ik
um a</w>
ay ında</w>
sö z</w>
l ık
h alk
lar dan</w>
y al
b el
ara r</w>
gerçek leş
e nd
cağ ını</w>
n ı</w>
men t
haz ır
yo l</w>
T em
v ar
ay rı
refor m
geç en</w>
ç te</w>
b unun</w>
man ın</w>
s ız
gen el</w>
ta ma
or ta
İ s
ama ç
ıla cak</w>
rı s</w>
hüküme t</w>
Kıb rıs</w>
bil dir
c ek</w>
iy at
p r
bü tün</w>
G en
gü n</w>
mas ının</w>
fak at</w>
top l
ti ği</w>
m iş
hab er
M il
ola y
P art
D ışişleri</w>
lar ından</w>
Ç ar
mü cade
k ö
iz e</w>
al ık</w>
şam ba</w>
di r</w>
u b
ay ı
ç ab
Çar şamba</w>
il di</w>
ti ğ
la ment
ayrı ca</w>
ist em
b as
z or
kayn ak
haf ta</w>
ar ak</w>
d ü
ler inden</w>
t es
belirt ti</w>
an ın</w>
d iler</w>
A t
ka ç
toplan t
su z
r et
rap or
r as
a da</w>
t aş
la n</w>
il en</w>
şir k
t ine</w>
va r</w>
2 0</w>
yük sek</w>
Kom is
bir i</w>
er s</w>
işbirli ği</w>
ede n
b o
Başbak anı</w>
0 9</w>
art ış
R o
li nde</w>
ay nı</w>
s un
j i</w>
b un
me yi</w>
yer el</w>
tü r</w>
üy elik</w>
düzen lenen</w>
ge s</w>
eş it
kur um
ett y</w>
ger i</w>
c umhur
G etty</w>
ma ges</w>
S alı</w>
Pr iş
ım ı</w>
b e</w>
id di
0 5</w>
gel di</w>
baş ar
al ıyor</w>
E r
D em
Baş k
I mages</w>
c u</w>
yön elik</w>
0 7</w>
t ü</w>
avr o</w>
v ur
0 6</w>
de m
görüş me
r en
m ı</w>
le f
yay ın
lar la</w>
poli s</w>
yer ine</w>
yoru z</w>
al ın
y ür
sır a</w>
he def
Priş tine</w>
d ör
in an
le y
B r
deme çte</w>
0 4</w>
baz ı</w>
Re ut
yer ek</w>
es el</w>
0 3</w>
0 8</w>
ra r</w>
Reut ers</w>
İ st
in ş
h ay
P er
A F
k ül
sür dür
iler e</w>
an oviç</w>
B ir
lü ğ
b e
ş u</w>
ö ğ
öz el</w>
n eden
hakk ında</w>
bek len
vat and
o d
d ış
karş ı
AF P</w>
konus u</w>
ıs ında</w>
H az
yön ünde</w>
u g
ece ği</w>
üy eli
ç eşit
topl um
ver di</w>
an an</w>
Dem ok
yoru m</w>
ar i</w>
ç ev
y anı</w>
a g
aras ındaki</w>
y ana</w>
S ar
d önem
G ü
p ek</w>
ya cak</w>
k arar</w>
s istem
g il
E k
ala n</w>
il mesi</w>
n e
gerek tiğini</w>
sil c
en er
ma d
üs ü</w>
ro l</w>
ler den</w>
sav un
k o</w>
u z</w>
ı p</w>
me m
art ır
al dı</w>
t ek</w>
ar et
gö z
vatand aş
ol uştur
ün ün</w>
le m
y az
G ün
ı ları</w>
gör ül
öz el
konuş an</w>
ka d
Arnav ut</w>
uz un</w>
ma ları</w>
ş em
mu ha
yen iden</w>
başla t
yard ım</w>
Mar t</w>
yol suz
k an
ola cak</w>
b or
ön er
ör gü
pro gra
lu ğ
ort ak</w>
m ış
bü t
1 5</w>
ün e</w>
l ığ
ayı s</w>
M ayıs</w>
D ün
me nin</w>
ıl ık</w>
Ek im</w>
yar g
değ er
Haz iran</w>
poli tik
ç i</w>
sa m
and a</w>
Per şem
le n</w>
sa de
c ü</w>
Perşem be</w>
h an
çeşit li</w>
sade ce</w>
u laş
Ar alık</w>
geç ir
r ak
es ine</w>
t as
Başk anı</w>
du k
son uç
nd an</w>
ist ik
os ya
b ur
ola s
o v</w>
ü st
ıs ından</w>
ıl ı</w>
İ t
güven lik</w>
tut uk
te h
ıl dı</w>
O cak</w>
f ark
düş ün
di yen</w>
s an</w>
tü m</w>
lan ması</w>
söy lü
di ye</w>
ken t
amaç lı</w>
h at
ma da</w>
K as
3 0</w>
in san
t eki</w>
ar aya</w>
Maked on</w>
F r
ov ski</w>
on ay
ti k</w>
hükümet in</w>
se v
er as
st at
tama m
hüküme ti</w>
d ü</w>
t ır</w>
ev iç</w>
üy e
bulund u</w>
düzen le
an la
Kon se
bağım sız
la v</w>
L a
u s</w>
anlaş ma</w>
ık ları</w>
Ü s
dör t</w>
y e
lik le</w>
gir iş
t artış
ti c
g ru
und an</w>
l ı
ay as
kap sam
me c
or an
lu k
b en
par lament
yetkil iler</w>
sek tör
s it
dest ek</w>
mu z</w>
har ek
Tem muz</w>
E y
Üs kü
he m</w>
s ız</w>
büy ü
şirk et
k ü</w>
kon u
Kas ım</w>
ü m</w>
tiğ imiz</w>
at ı</w>
ler le</w>
karş ın</w>
is inin</w>
ald ığı</w>
ünd eki</w>
Paz ar</w>
N is
c ak
ğ ine</w>
ener ji</w>
a diç</w>
e m</w>
d ay
k uz
li s</w>
imz ala
al i</w>
Sar ay
et nik</w>
Üskü p</w>
Nis an</w>
aç ısından</w>
u r</w>
Saray b
te ş
l ük</w>
A P</w>
i ci</w>
f il
r ağ
5 0</w>
ov a</w>
Yun an</w>
oy un
ç a</w>
b in
Balk an</w>
bulun uyor</w>
ş art
geç tiğimiz</w>
u yar
s iz
ımc ısı</w>
mas ında</w>
sın ır
çab a
Sarayb osna</w>
c ut</w>
ü f
Dün ya</w>
ali s
üy e</w>
ul u
h er
dah il</w>
s iz</w>
Balk anlar</w>
is ini</w>
a ş</w>
dem ok
lü l</w>
t ed
iz me
Sır p
ür et
d ılar</w>
ma z
Ey lül</w>
Bulg ar</w>
rağ men</w>
ıl ık
değiş ik
ama c
ol uk</w>
t on</w>
h ız
duy ur
os u</w>
mes inin</w>
mücade le</w>
mev cut</w>
anl ığ
la m</w>
ta m</w>
e h
tem silc
lar ıyla</w>
r ar
ziy aret</w>
n i
ol uş
2 5</w>
ol duk
Ş ub
d ar
kaz an
nd er
G e
di yor</w>
Şub at</w>
B os
v ek
in c
üy esi</w>
Kosov alı</w>
iy eti</w>
h as
ço c
fa ali
1 7</w>
ol oj
p az
kend i</w>
h izme
R us
yür ü
ec ek
iy et
ort aya</w>
beklen iyor</w>
c h
et mek</w>
kaz and
n et</w>
iş le
il ik</w>
yal n
n üf
z ir
ol ması</w>
n it
U l
A K</w>
gerçek leştir
etk in
li yor</w>
ş im
gerek iyor</w>
ı cı</w>
ya r</w>
B u</w>
At ina</w>
k ır
P ar
dest ekle
la s
ul u</w>
land ı</w>
kurul uş
ız ca</w>
karş ıla
k tr
t u</w>
res mi</w>
sır asında</w>
a ma</w>
est iv
Konse yi</w>
h av
l ov
Y ug
muha lef
başk a</w>
kam u</w>
B ar
e le</w>
ke l
çağ ır
kay det
ik inci</w>
dü ğ
A ğ
B or
yap ılacak</w>
t iy
Komis yonu</w>
zama n</w>
iz in</w>
ti r</w>
N ik
yet k
e j
doğ u</w>
ç e</w>
p er
U N
yaln ızca</w>
1 3</w>
k u
Yug os
nd en</w>
T adiç</w>
h iç
di yerek</w>
m er
laş tır
alt ında</w>
mil yar</w>
Part isi</w>
S av
ask eri</w>
ş ey</w>
yar at
s aldır
al ya</w>
iti m</w>
Ul uslararası</w>
gö nder
di p
ta h
ö r</w>
bil ir</w>
Rus ya</w>
land ır
i de</w>
k im
cağ ı</w>
B ank
par a</w>
l ığı</w>
ıl ığ
r ed
s p
bak an</w>
ab an
li st
dip lo
a f
me leri</w>
k a</w>
M la
n alı</w>
el de</w>
So f
E n
kiş i</w>
ekle di</w>
ü müz
kar a</w>
d in
yıl lık</w>
S lov
v et
org an
en gel
e de</w>
let vek
söylü yor</w>
avr oluk</w>
an ayas
uğ u</w>
il i
aş tır
ta le
b er
bak an
edil en</w>
Z ag
s ila
üs t</w>
neden iyle</w>
C uma</w>
gör ev</w>
yatır ım</w>
er ken</w>
1 6</w>
öğ ren
ulu sal</w>
ü p
seç im</w>
bulun an</w>
yard ım
ele ktr
al tı</w>
yor du</w>
bi z
yak ın</w>
mil letvek
say ıda</w>
ust os</w>
Zag re
l ıyor</w>
und aki</w>
Ağ ustos</w>
1 4</w>
st and
ağ ı</w>
o lan
Cumhur iyeti</w>
b an
j a</w>
katıl ım</w>
in san</w>
e me
0 2</w>
be ş</w>
amac ıyla</w>
kay b
doğ ru
b ask
Bos nalı</w>
B o
başk an
ziy aret
b ır
rat ik</w>
ç ün
la v
b ele
r ak</w>
t ığı</w>
b unu</w>
Br ük
g it
f ir
id di</w>
k re
bas ın</w>
sav c
p iy
te me
dest ek
f ik
kü ç
iler le
İn gil
gazet ec
der ec
mas ından</w>
Brük sel</w>
d ana</w>
ilişk in</w>
o y</w>
m o
ih tiy
c iddi</w>
k aldır
Fr ans
hiç bir</w>
M ah
kam p
es ini</w>
lan ıyor</w>
r e</w>
ş id
d ile</w>
d il
sah ip
is t</w>
d o
I C
F O
kaynak lar</w>
0 1</w>
hay at
t aki</w>
D a
ünd en</w>
aş ı</w>
1 8</w>
değer lendir
mış tı</w>
v iz
ü z</w>
mek le</w>
bır ak
gerek en</w>
kapsam ında</w>
eğ itim</w>
et kil
ış ı</w>
yön ündeki</w>
ik ti
ard ından</w>
gör ü
iler leme</w>
ik a</w>
son a</w>
e leştir
d ış</w>
An laş
us u</w>
R ad
ler iyle</w>
e f
başla dı</w>
FO R</w>
çoğ un
c ek
progra m
inş a</w>
S C</w>
miş ti</w>
r i</w>
uc u</w>
doğ an</w>
bil e</w>
2 7</w>
kıs a</w>
kay de
osya l</w>
kül tür</w>
ma li</w>
istik rar
ra f
sev iy
I M
T iran</w>
he y</w>
as ının</w>
la yan</w>
ko ş
derec e</w>
ümüz deki</w>
mey dana</w>
ey doğu</w>
e ler</w>
La hey</w>
sor um
ra t</w>
ç isi</w>
Y ard
bölg esel</w>
g ür
as ını</w>
ma kam
gün kü</w>
ı ların</w>
durum da</w>
acağ ını</w>
şek linde</w>
sın ır</w>
S an
il eş
Mah ke
me d
yo k
sor uştur
or an</w>
d ül
paz ar
a m</w>
uz man
r ek
S t
Gü ven
ted bir
ş ey
ver sit
o f
il iyor</w>
ma lar</w>
200 4</w>
2 1</w>
part i</w>
d ok
iler ini</w>
pr ot
ad lı</w>
sa nd
K ur
güç lü</w>
st rat
ko alis
ans ı</w>
is ine</w>
iz i</w>
s i
i fa
Bank ası</w>
ön ümüzdeki</w>
aç ık</w>
li m</w>
u lan</w>
ğ inin</w>
y aban
ı ya</w>
İst an
An kara</w>
su ç</w>
me den</w>
söz lerine</w>
IM F</w>
z anl
İstan bul</w>
mes ele
ay an</w>
on u</w>
gele cek</w>
A h
on un</w>
h is
yıl ın</w>
ma l
Al man
ş üp
u l</w>
da ğ
za man
h uk
li s
Sof ya</w>
B er
faali yet
B ük
teh di
ce z
Bük re
yet er
karar ı</w>
bil g
m is
2 4</w>
ülke de</w>
B üy
ı yorlar</w>
lama ya</w>
Güven lik</w>
alk ın
la dığı</w>
ask er
doğ r
Bak anlığı</w>
e z
ifa de</w>
u p</w>
bölg e</w>
top lam</w>
s u</w>
mek te</w>
Mla diç</w>
Gen el</w>
E U
2 2</w>
de r</w>
Er doğan</w>
stand art
op eras
A s
Bükre ş</w>
yap ıl
oy n
er al</w>
Gün eydoğu</w>
te le
Demok rat</w>
çoğ u</w>
ma l</w>
li m
fark lı</w>
bar ış</w>
y la</w>
iler inin</w>
1 9</w>
leş me</w>
iy et</w>
iz m</w>
iy ileş
av ro
B atı</w>
ır ken</w>
e ya
sür e</w>
ben z
ar a</w>
çağ r
et tiği</w>
düş ük</w>
e li</w>
Alman ya</w>
es t</w>
2 3</w>
çöz üm</w>
ekonom i</w>
2 8</w>
ı dan</w>
luk la</w>
ka la
n ok
te p
mak la</w>
uy g
ı t</w>
tas ar
ist e
hal e</w>
h e</w>
dur um</w>
a ları</w>
görül üyor</w>
a j
P et
yaş anan</w>
han gi</w>
savun ma</w>
ser b
G ru
S or
N e
üzer ine</w>
vur gu
sorum l
gerek li</w>
az ın
o c
haz ır</w>
gele ce
g or
e ye</w>
y ine</w>
elektr ik</w>
r i
g az</w>
g id
ıl ığı</w>
es cu</w>
K ür
ö nde</w>
İ ş
as ıl</w>
ım ız
küç ük</w>
ele nd
2 6</w>
ada y</w>
M I
başk anlığı</w>
as ına</w>
Yard ımcısı</w>
par ç
k oviç</w>
me tr
art ık</w>
ya cağını</w>
yol unda</w>
et me</w>
ih ti
Kos t
düz ey</w>
acağ ı</w>
in g
oluş an</w>
ülke leri</w>
d ığ
d eri</w>
ü c
ede cek</w>
suç ları</w>
200 7</w>
yaş ındaki</w>
R um</w>
ir esi</w>
f iyat
duğ u</w>
ila n</w>
bek le
ım ız</w>
tan ın
dev let
anla m
t at
mev k
ler ce</w>
end iş
li deri</w>
yo k</w>
s iv
g e</w>
yaban cı</w>
h en
geliş tir
ülk esinin</w>
değiş tir
yarg ı</w>
la t
giriş im
gör ün
ka t</w>
ak ç
yar ış
y et</w>
olma dığını</w>
ar aştır
t av
k ut
elend ir
ka ç</w>
lu m</w>
ha linde</w>
strat ej
taş ı
U lu
bel ge
200 8</w>
ülke deki</w>
lar ındaki</w>
gün lük</w>
katıl dı</w>
çalış ma
iddi a</w>
f ır
sor un</w>
dön üş
a il
a di
li yet
Ulu sal</w>
zor unda</w>
aç ıl
p et
b una</w>
M erkez
ist i
yük se
yan ın</w>
prot est
tes lim</w>
Yugos lav
I rak</w>
sat ın</w>
alt ına</w>
ol umlu</w>
is lav</w>
ke t</w>
S ek
Yugoslav ya</w>
ger ç
kon fer
ebil ir</w>
örgü t
k oy
zama nda</w>
uz laş
yol u</w>
g i
İ ki</w>
et me
organ ize</w>
konuş mada</w>
kat k
k ür
h â
bağ lı</w>
İ ç
son unda</w>
n oloj
T Y</w>
k as
aş ır
P ap
IC TY</w>
uygu lan
f in
eli k
v an
le k
kre di</w>
erke z</w>
a s</w>
M ü
k ovski</w>
et e</w>
g rup
baş ta</w>
li der</w>
h n</w>
teş k
oyun ca</w>
2 9</w>
u lar</w>
yak ın
l ük
e ur
s in
nit elendir
b oyunca</w>
Zagre b</w>
F il
, 5</w>
da ir</w>
u la
t ığını</w>
ol a</w>
iş let
bir kaç</w>
ar ı</w>
su z</w>
ge len
O lim
Av ust
özel likle</w>
Slov en
200 6</w>
anlaş maz
m ir</w>
değişik lik
diplo ma
mes iyle</w>
çık an</w>
la y
ter net</w>
yas a</w>
mes inden</w>
lüğ ü</w>
ı c
uyg un</w>
uy la</w>
liğ e</w>
bur ada</w>
çoc uk
s ık
ara da</w>
öz gür
n i</w>
kom ut
ö v
mücade le
ülke lerin</w>
4 0</w>
refor m</w>
i a</w>
sor umlu</w>
p at
kazand ı</w>
e leri</w>
an ali
ort ak
D P
200 5</w>
m in</w>
M ir
kuz ey</w>
l ığını</w>
har c
ihti la
r ol
ı lan
l â</w>
her hangi</w>
R u
kö tü</w>
sağ lık</w>
dür ü</w>
Sloven ya</w>
tak dir
merkez li</w>
kor u
ede ce
tic aret</w>
açık ladı</w>
ola cağını</w>
er k
yüz ünden</w>
al ınd
ece ğ
teme l</w>
b ah
ya ndan</w>
dış ında</w>
A mer
özel leştir
r a</w>
n er
en i</w>
a lar</w>
hâ lâ</w>
getir di</w>
L ib
yap tı</w>
e ği</w>
milletvek il
açık la
as h
ıl mış</w>
UN MI
M ac
ö dül
yetk ili</w>
tür ü</w>
gele cek
bölge de</w>
alkın ma</w>
mas ıyla</w>
UNMI K</w>
S e
sila h
ih ra
A K
ter ör
aç tı</w>
üyeli ği</w>
öl dür
iler ine</w>
C um
te g
di z
yatır ım
kaç akç
Frans a</w>
200 9</w>
m k
it r
B an
imz alan
e mek
ön e</w>
H ol
t ec
Ro men</w>
çağır dı</w>
yönet im
hen üz</w>
an ış
Kara d
takdir de</w>
di k</w>
mü mk
rapor da</w>
kon ulu</w>
mevk id
ad ım</w>
Büy ü
ot an
Ö z
o l</w>
Cum artesi</w>
ıs ını</w>
sah ibi</w>
y anl
muhalef et</w>
kes in
estiv ali</w>
lar ak</w>
tarih i</w>
ülke ler</w>
K u
ad ay
top lum</w>
hükümet inin</w>
et tiğini</w>
edil mesi</w>
a dı</w>
Merkez i</w>
ov anoviç</w>
otan siy
ülke lerinin</w>
Bor is</w>
sür e
den et
söz c
p otansiy
ev ski</w>
M ec
ıs ının</w>
s il</w>
mu ş</w>
es inden</w>
bun ların</w>
um u</w>
A da
ör n
mümk ün</w>
ola y</w>
k ıy
şid de
n asıl</w>
mü ş</w>
gü nd
K o
yap an</w>
bağımsız lık</w>
ad ım
n un
kent inde</w>
ç er
ma lı</w>
ç at
ek s
az alt
if ade
göster iyor</w>
f er</w>
al e</w>
Mahke mesi</w>
yıl ı</w>
yolsuz luk</w>
tek li
P ro
üm ü</w>
ükü m
yardım cı</w>
mak ta</w>
yayın lanan</w>
p u
kaydet ti</w>
I n
Büyü kel
v vet
1 00</w>
D o
9 2</w>
z iç</w>
f es
di yal
at i
Da iresi</w>
red det
p i
mem nun
den iz</w>
da va
20 10</w>
tür lü</w>
b ank
Kost un
mec lis</w>
bağım sız</w>
K ar
düğ ü</w>
Kostun ica</w>
ras i</w>
luğ u</w>
Mil os
lı ca</w>
ek li</w>
gerçekleş ti</w>
bil im</w>
çağ rı
kuz ey
ü çün
o g
doğr u</w>
bölge deki</w>
baş larında</w>
nüf us
he yet
aç ıdan</w>
r is
B as
düz ey
Re hn</w>
li si</w>
kes im
T r
abil ir</w>
olduğ una</w>
bil gi</w>
yaş ayan</w>
bağ lan
hal ine</w>
son una</w>
li ğini</w>
ıl ıyor</w>
güç lendir
ac ak
z or</w>
ola bil
ka mu
re fer
yar ak</w>
c in
tem sil</w>
teg ras
soruml ul
serb est</w>
ö de
son uc
re j
Sek ret
Anlaş ması</w>
yıl dır</w>
h ap
A G
y esi</w>
et mesi</w>
böl ün
cak tır</w>
büt ç
sür en</w>
siv il</w>
al ma</w>
yetkil ileri</w>
iz le
gerç ek</w>
me t</w>
sürec i</w>
land a</w>
ın t
karşı ya</w>
S ch
S p
liğ in</w>
kap at
ey lem
veril en</w>
nd eki</w>
ir ken</w>
bu gün
b l
İ l
mevkid aşı</w>
et meye</w>
tan ı
ülke den</w>
ver en</w>
oy u</w>
koş ul
iyileş tir
İ v
M üs
ara larında</w>
ak tar
B 92</w>
önc eki</w>
İt alya</w>
tur izm</w>
Avust ur
İt ti
İ T</w>
ver gi</w>
ni versit
doğru dan</w>
Part i</w>
Or tak
şim di</w>
ihtila f
öğren c
as it
üye leri</w>
hab er</w>
b eri</w>
K FOR</w>
ıl ma
p ay
Müs lü
H ar
suç u</w>
kür esel</w>
D oğ
s osyal</w>
D av
s und
piy as
B C</w>
me sa
baş vur
s ol
refer and
kap asit
baş lıca</w>
anlaş ması</w>
ö türü</w>
mek te
R ece
öl ç
ilişk ileri</w>
eya let
duyur du</w>
S A
İn ternet</w>
hız landır
Bir liği</w>
AG İT</w>
üçün cü</w>
s ok
gerçekleş en</w>
a le
ikti dar
geli yor</w>
T op
dün ya</w>
proj e</w>
bak anı</w>
sav aş
kes in</w>
İ ş</w>
ter e</w>
dönem de</w>
Par lament
me ler</w>
katıl ım
kül tür
i ği</w>
A d
g ı
e s</w>
yolsuz lukla</w>
s ak
S te
199 5</w>
f on
D P</w>
edil iyor</w>
dev r
part isi</w>
hal a</w>
eğ it
İngil tere</w>
Ü niversit
oran ında</w>
m ik
iş im</w>
la mak</w>
gru p</w>
ol masına</w>
m in
duğ unu</w>
P K
Ortak lık</w>
y se</w>
6 0</w>
nd ı</w>
la k</w>
v ize</w>
o b
i h</w>
demok ratik</w>
A f
pet rol</w>
L uk
ti sa
r an
Sor umlu</w>
E X</w>
ey i</w>
ing ton</w>
parlament o</w>
me de</w>
çat ış
y ur
y le</w>
a de</w>
s inin</w>
K or
Ada let</w>
rek ab
da ir
W ash
k it
edil di</w>
dün yanın</w>
kamp an
yas al</w>
sözc üsü</w>
200 3</w>
çalış ma</w>
s ine</w>
olma k
Wash ington</w>
H ab
tisa ari</w>
n ak
mekte dir</w>
ke z</w>
e ve</w>
la m
hakk ındaki</w>
ar eti</w>
Ah tisaari</w>
oğ lu</w>
kom is
d ışişleri</w>
a d</w>
A k
ık larını</w>
t ur</w>
san at
n eden</w>
olduk ça</w>
len mesi</w>
iş aret</w>
G S
ka v
ol ur
başar ılı</w>
PK K</w>
AK P</w>
5 00</w>
ed erek</w>
ala cak</w>
3 1</w>
is inde</w>
bak anlığ
l in
id ar
gen in</w>
dik leri</w>
iler le</w>
art ış</w>
sağ lan
s ka</w>
alt yap
suç lama
m ül
baş ına</w>
ban ka
b undan</w>
T he</w>
Sırp lar</w>
y ası</w>
Z oran</w>
ol u</w>
ar ında</w>
günd em
yürü t
yon un</w>
st it
va de
iti bar
İ r
ç ı</w>
ra g
kiş inin</w>
en tegras
EU L
toplant ısında</w>
cumhur başkanı</w>
s en</w>
ma dan</w>
karşı laş
bele diye</w>
sağla yacak</w>
EUL EX</w>
ok ul
büt çe</w>
B BC</w>
yas a
s em
anali st
üzer indeki</w>
u ç</w>
ot ur
an i</w>
mahke me</w>
benz er</w>
a it</w>
D im
D ev
şirk eti</w>
İ k
Nik ola</w>
t ılar</w>
durum u</w>
et in</w>
şidde t</w>
ülke ye</w>
bo l</w>
Ge org
çer çev
bele di
1 ,
kayde d
gen ç</w>
bugün e</w>
Sekret eri</w>
0 00</w>
m uş
en g
as ıyla</w>
ön ünde</w>
sor unu</w>
sa at
konuş tu</w>
öğ ret
hizme t
te lef
parç ası</w>
nd ır
gen iş</w>
B il
ük le
sonr aki</w>
i j
başk anlığ
siz lik</w>
m anı</w>
İst ik
yıl ından</w>
yükse l
cumhur başkanlığı</w>
anlam ına</w>
ç im
fil m</w>
çağr ısında</w>
yo ğ
geç miş
yeter li</w>
um ut
r o</w>
lend i</w>
kon om
H o
ç ı
tele viz
R us</w>
ü le
ye di</w>
tek noloj
sahip liği</w>
ist if
başk en
merkez i</w>
ha i</w>
E konom
Bar ış</w>
T ra
S er
söz lerinde</w>
Y ük
ç if
ihra c
etkin lik
an s</w>
V la
ç iz
konus undaki</w>
un ma</w>
iç er
dön em</w>
kas ab
ka lan</w>
ey en</w>
t rol</w>
as yon</w>
ş eh
ılık la</w>
sek iz</w>
H ak
gerek tiği</w>
L j
ü ğ
mes inde</w>
lar ca</w>
ilişk iler</w>
N A</w>
K at
F estivali</w>
t ük
anlaş manın</w>
ü mü
ta dır</w>
seçim leri</w>
halk ın</w>
day an
söz ü</w>
h iç</w>
vurgu ladı</w>
tek rar</w>
say ısı</w>
b öyle</w>
Üniversit esi</w>
me z
ön em</w>
yıl ki</w>
m r
yıl da</w>
ik ili</w>
T ele
m ar
dağ ıt
K r
ett iler</w>
lider leri</w>
sağla mak</w>
land ığı</w>
O l
it ir
t iler</w>
hak ları</w>
a p</w>
yürü tü
ge c
ade r</w>
san tr
c iç</w>
anayas a</w>
Sav unma</w>
ı yorum</w>
al mak</w>
199 9</w>
yetkil ilerin</w>
kor un
f estiv
Yük sek</w>
şir ket</w>
ülke yi</w>
yüz den</w>
olma yan</w>
il miş</w>
bak anlığı</w>
or du</w>
tan ım
diz i</w>
d ola
memnun iyet
kon trol</w>
ade t</w>
N ov
Bas escu</w>
o z
müzakere lerin</w>
ist iyor</w>
. .</w>
ma dı</w>
la ması</w>
bel li</w>
D er
İstik rar</w>
kar ış
tek nik</w>
tama men</w>
lar daki</w>
de l</w>
c an
r os
tehdi t</w>
o ş
iş a</w>
Komis yon</w>
D rag
gü c
gid erek</w>
bor u</w>
a ç</w>
M os
Al man</w>
uygu lama
kon u</w>
San ader</w>
reform ları</w>
kuruluş u</w>
I v
GS Y
ul du</w>
kr it
Ber işa</w>
stat ü</w>
ma y
len iyor</w>
le mek</w>
mem ur
baş lan
İ H</w>
hav a</w>
ad ışı</w>
T ay
sür ekli</w>
ma ğ
c iv
GSY İH</w>
ser gil
ihtiy ac
ge l</w>
T ar
ı yoruz</w>
y üküm
kad ın
fin ans
İç işleri</w>
ili ği</w>
il a</w>
bulund uğu</w>
yo lu
ind ir
halk ı</w>
ç ap
me t
li ke
f i</w>
yard ımcısı</w>
me di</w>
işbirli ğini</w>
çalış an</w>
olma ya</w>
ede yse</w>
ülk esi</w>
se y
politik a</w>
i ğ
z am
stat üsü</w>
gü mr
s ur
kom ün
uğ unu</w>
ter ör</w>
med ya</w>
kor uma</w>
yur t
yap ılması</w>
um ut</w>
ter n
teh like
o p</w>
ler indeki</w>
Ru men</w>
ş i
ığ ında</w>
ıy ı</w>
tör en
ta r</w>
ni hai</w>
çağrı da</w>
ne ği</w>
inş a
halk ının</w>
eğ in</w>
bir inci</w>
ı larının</w>
yıl ına</w>
say g
ner edeyse</w>
gen ç
8 0</w>
teş v
o g</w>
n an</w>
kad ın</w>
Avrup alı</w>
s ini</w>
b ay
ölç ü
m erkez</w>
ih la
hizme t</w>
ö n</w>
ist ih
ma dığını</w>
P on
P oli
pro fes
operas yon
at ör
s en
t esi</w>
bak ış</w>
Gü l</w>
ükle er</w>
yolu yla</w>
i ma
bu gün</w>
S osya
y alı</w>
t on
aşır ı</w>
sand al
im li</w>
avro ya</w>
Parlament osu</w>
Kür t</w>
20 0</w>
y ip</w>
dik kat</w>
zir v
yar ar
p ak
geli r
M u
DP A</w>
şüp he
sür dü</w>
Milos eviç</w>
müzaker e</w>
his s
ed eras
yönet im</w>
At lan
kayn ak</w>
Karad ziç</w>
J os
ha l</w>
dik kat
bir bir
yatır ımc
ku vvet
harek et</w>
der n
b aş</w>
l ül
k olay
il ecek</w>
büt ün
En stit
h es
gelen ek
yas adışı</w>
b oy
önc esinde</w>
önc elik
uzlaş ma</w>
lar dır</w>
baş ında</w>
tara f</w>
yaş am
hal k</w>
d olar
A j
ol um
ma c
kr iz</w>
memnuniyet le</w>
krit er
seç men
kan ıt
ad ayı</w>
le m</w>
düşün ü
ıs ına</w>
ver g
doğ al</w>
ist edi
As h
7 0</w>
veril di</w>
iler let
he men</w>
ab r
söyle diler</w>
M es
ce za
ol sa</w>
sp or</w>
doğ al
as la</w>
an u</w>
toplum un</w>
ha t</w>
em in</w>
ar t</w>
ıl masını</w>
sistem i</w>
me diğini</w>
emek li</w>
B öl
Atlan tik</w>
men su
T K</w>
sır ada</w>
mey eceğini</w>
düş ür
Amer ik
olas ı</w>
diğ ine</w>
azın lık</w>
ıla bil
olma dığı</w>
mad de
i u</w>
Or du
büyü me</w>
ay et</w>
a c</w>
. ..</w>
ül mesi</w>
ece ğine</w>
c he
ölçü de</w>
edi r</w>
ı lara</w>
tale p</w>
siyas et
lan a</w>
düzenle diği</w>
T ur
it esi</w>
M ali
Gru evski</w>
Doğ u</w>
ı larını</w>
faz las
bun lar</w>
K alkınma</w>
Rece p</w>
Ü yesi</w>
gümr ük</w>
O s
ı f
ü ş</w>
kr iz
es indeki</w>
J ovanoviç</w>
ıl ığını</w>
sürec inin</w>
rej im
g iz
lüğ e</w>
kon um
lis t</w>
ay ın</w>
1 .
re b
i yorlar</w>
199 0</w>
üy le</w>
yor um
soruştur ma</w>
or anı</w>
eli nde</w>
A b
ul uyor</w>
ol up</w>
mil liyet
m üş
i ha
d anış
bir leştir
yür ür
seçim ler</w>
m iyor</w>
anlaş maya</w>
ank et
t ab
pay laş
li dir</w>
bin lerce</w>
Tay yip</w>
çün kü</w>
ola bilir</w>
bi çim
istik rar</w>
güven ce</w>
alan ında</w>
n ükleer</w>
görev i</w>
fır sat
200 2</w>
i an</w>
dest eği</w>
ö p
he de
Enstit üsü</w>
uzman lar</w>
lider ler</w>
Yugos lav</w>
Pon te</w>
G az
g iden</w>
teşv ik</w>
pi yon
lider liğ
la h</w>
b i</w>
Hab er</w>
ö te</w>
zir a</w>
red de
hede f</w>
he p
bl oğ
R at
ık tan</w>
eks ik
S tan
tut um
il en
Or ta</w>
sa f
d ö
bağlan t
bask ı</w>
İs ra
ede bil
def a</w>
çalış ıyor</w>
w n</w>
potansiy el</w>
ma aş
birli ği</w>
ş ark
ikti dar</w>
Avustur ya</w>
ya cağı</w>
sorun ları</w>
ol ma</w>
is im</w>
f abr
edi yorlar</w>
ü b
ya z</w>
y u</w>
büyü kel
Kur ulu</w>
in ce</w>
Gün ey</w>
kend isini</w>
başk an</w>
çı ka
yüküm lül
göster en</w>
e b
z arar</w>
uy uştur
milletvek ili</w>
ak lan
yon unun</w>
y ara
iş leme</w>
g or</w>
g ar
çık tı</w>
y at
eur o</w>
d ini</w>
S reb
Müslü man</w>
B u
İs p
ler deki</w>
al g
tr ol
e p
an a
K a
orta dan</w>
Sreb ren
H üküme
tük et
len ecek</w>
ge z
değ il
böl genin</w>
sür üyor</w>
m ut
lı dır</w>
M o
bil in
S osyal</w>
J o
200 1</w>
ş ef
en gel</w>
Sırp ların</w>
ı dır</w>
son uç</w>
per son
olum suz</w>
der ece
bakan ları</w>
ç iler</w>
ov ina</w>
im izi</w>
f ut
kom ş
f inan
ald ığını</w>
s oy
ür ün
la k
dış ı</w>
b a
an t
Bo ş
Aj ansı</w>
s ar
kur tar
f ay
b ara
V oj
ün i
ser v
civ arında</w>
ot o
b om
Tem silc
tic ari</w>
mü dürü</w>
kıs m
ger ek</w>
G ot
stat üs
us unda</w>
20 11</w>
yaş am</w>
yap ıyor</w>
mü dah
geç iş</w>
b al
Or t
y av
u ş</w>
plan lıyor</w>
ma ların</w>
koalis yon</w>
hız lı</w>
ayr ı</w>
D r
ul ması</w>
kaç ak</w>
görü len</w>
dav a</w>
K ül
ula cak</w>
sürec ini</w>
mik tar
diğ er
şid det
piy at</w>
g esi</w>
düğ ünü</w>
yaş an
mak tadır</w>
lo bo
kon trol
biz im</w>
al ması</w>
Mali ye</w>
lığ ına</w>
g in
art an</w>
Rat ko</w>
tutuk lan
si g
tak ım
mül tec
insan ların</w>
festiv al
gün lerde</w>
en f
demok rasi</w>
h it
ıs rar</w>
lar ımız
an ların</w>
üyeli ğine</w>
mad alya</w>
ma ması</w>
ser g
ma dığı</w>
ilg i</w>
Büyükel çisi</w>
ın ca</w>
y ans
un ları</w>
söyle yerek</w>
kültür el</w>
D en
yak ında</w>
sil ci</w>
ey le</w>
ada m
rak am
proj e
bir leş
P od
söylü yorlar</w>
Got ovina</w>
İngil iz</w>
ön gör
kal dı</w>
et a</w>
Y eni</w>
yap mak</w>
san ay
konfer ans
kil o
geç er
P ol
Mac aristan</w>
B ur
teşk il</w>
se ya
proj enin</w>
p ara
alın an</w>
ı yordu</w>
ç ar
tak ım</w>
gazetec ilere</w>
ı ma</w>
Olim p
teşk ila
tar ım</w>
S lobo
F at
D an
C ez
A nd
ıy an</w>
n or
M üz
ıl masına</w>
toplan tı</w>
sağ lama
s un</w>
for man
metr e</w>
ist eyen</w>
görüş me</w>
ığ ına</w>
yaş ad
yanl ısı</w>
m ir
karar l
huk uk
yıl dan</w>
yap acak</w>
S ur
ov an</w>
diplo mas
ü ç
kıs ıt
k öy
cumhur başkan
Lib ya</w>
İtti fak
tep ki</w>
sol da</w>
görüşme de</w>
T om
yürür lüğe</w>
ver diler</w>
s er</w>
per forman
part inin</w>
len miş</w>
la dığını</w>
huk uk</w>
dok uz</w>
P op
yapt ıkları</w>
y asında</w>
t ör</w>
gö z</w>
Demok ratik</w>
ğ e</w>
t iyat
protest o</w>
gün ey
top rak
sorun lar</w>
plan ı</w>
olas ılıkla</w>
o nd
o m</w>
üni versit
vade li</w>
uyar dı</w>
part iler</w>
mış tır</w>
ka l</w>
i ğini</w>
baz ıları</w>
Olim piyat</w>
2 ,
ver me</w>
tern ati
anl ığını</w>
So lana</w>
K es
es iyle</w>
bek liyor</w>
Voj islav</w>
Ne w</w>
İr an</w>
üzer inden</w>
müzakere leri</w>
hav a
F ederas
van ov</w>
or ta</w>
ka li
hat tı</w>
do wn</w>
Mes iç</w>
y ık
v ak
faali yet</w>
C inc
C ar
liderliğ indeki</w>
engel le
Ash down</w>
iler den</w>
b r
ay lık</w>
M an
C h
toplant ıda</w>
onay ladı</w>
işbirli ğinin</w>
im e</w>
gö ç
edece ğini</w>
sila h</w>
plan lanan</w>
h a</w>
göster di</w>
bek lenen</w>
O y
rap or</w>
karş ılık
i va
kat ılan</w>
199 2</w>
İn san</w>
İ li
silah lı</w>
i de
etk ili</w>
d ıkları</w>
miş tir</w>
mek ten</w>
konu da</w>
i o</w>
du lar</w>
bo z
anlaş mayı</w>
Cinc iç</w>
ğ in</w>
uyuştur ucu</w>
n ev
d os
M ic
yer li</w>
im ler</w>
gü cü</w>
göz lem
cağ ına</w>
aç ıldı</w>
E S
sonuc unda</w>
h an</w>
Olimp iyat
s om
uygu la
ser t</w>
m ıyor</w>
k ova</w>
i lan
Ti c
stratej ik</w>
f e
c u
An ton
bildir ildi</w>
üc ret
ti yor</w>
or d
doğal gaz</w>
analist ler</w>
alt ın</w>
yürütü len</w>
olduk larını</w>
i c</w>
me diği</w>
kurul ması</w>
kom şu</w>
ihtiy aç</w>
el çisi</w>
e ş</w>
tur ist
tarih li</w>
mahke mesi</w>
kur al
fil m
baş bakan</w>
ac il</w>
Kül tür</w>
Fil m</w>
iş i</w>
Slobo dan</w>
muş tu</w>
t or
lığ a</w>
ko m</w>
dur dur
ask er</w>
H as
D S
harek et
getir il
c es
r ist
nok t
lık lar</w>
gec ik
Dev let</w>
Cez a</w>
3 00</w>
öv gü
katıl ımc
is ay
f ak</w>
e ge
Srebren ica</w>
Hol landa</w>
Ge ç
3 5</w>
İsra il</w>
çab a</w>
tör ü</w>
tarih leri</w>
s ul
ara c
Pap and
M ol
ön üne</w>
ul uk</w>
sonuç lar</w>
ris k
parlament o
or du
o k</w>
ay et
araştır ma</w>
öp orta
K an
200 0</w>
z ayı
um u
r öporta
land ığını</w>
karar ını</w>
dav et</w>
Ro man</w>
3 ,
çerçev esinde</w>
fabr ik
düşün üyor</w>
abil eceğini</w>
D ay
özelleştir me</w>
u p
lan mış</w>
görüşme ler</w>
er te
S ey
son ucu</w>
katk ıda</w>
il ik
geç ici</w>
Frans ız</w>
la dılar</w>
gelecek te</w>
b at
Pod gor
uygu lanması</w>
di u</w>
şi v</w>
som ut</w>
olmak la</w>
g ın</w>
nok ta
enf las
M itr
yap ıla
taş ıyor</w>
tah min</w>
on ları</w>
geli r</w>
alınd ı</w>
poli si</w>
ot oğ
kor k
de k</w>
En er
An ayas
seçim lerin</w>
an ları</w>
Sosya list</w>
progra mı</w>
ecek tir</w>
Papand re
O h
yer ini</w>
y in
ma larını</w>
kend isine</w>
ız ı</w>
yon una</w>
i ade</w>
T ek
S tr
İl k</w>
öldür ül
yap ı
yap maya</w>
belir le
Y or
İt al
çev re</w>
u da</w>
ma yan</w>
haber lerinde</w>
e lerini</w>
da m</w>
c o</w>
bur g</w>
B ay
ra m
poli s
part isinin</w>
devlet in</w>
SA A</w>
Rad y
gru bu</w>
övgü de</w>
t en
bilg isay
alın ması</w>
Ordu su</w>
ul os</w>
hayat a</w>
bor ç
başar ıs
açık ça</w>
Ar şiv</w>
me li</w>
dün ya
v a</w>
S TK</w>
yan i</w>
v en</w>
harc ama
çoc uk</w>
ver iyor</w>
pr os
ken ti</w>
k ın
gü ç</w>
T an
tekli f</w>
tedbir ler</w>
iş sizlik</w>
M art
şirket in</w>
ter c
t az
p op
ma liyet
hakk ı</w>
göz den</w>
gerçek ten</w>
Der neği</w>
s al
rapor unda</w>
oli ç</w>
kay ıt
j e</w>
Ö r
karşılık lı</w>
e len
ayr ınt
yönet imi</w>
s ık</w>
or anda</w>
nitelendir di</w>
dur uş
bek li
başkan lık</w>
Kes imi</w>
B us
şey i</w>
kur ulan</w>
görüşme lerde</w>
al maya</w>
H av
i dir</w>
ab en</w>
M edi
H al
B at
Ar aştır
tarih te</w>
rekab et</w>
pop ü
me miş</w>
li y
c an</w>
ra h
l ilik</w>
k ir
eme z</w>
yükümlül ük
ver ecek</w>
oluştur uyor</w>
hap is</w>
durum un</w>
diplomas i</w>
a me
Mü dürü</w>
Gru bu</w>
profes yon
kayded ilen</w>
diploma tik</w>
bakan lık</w>
Tic aret</w>
öy le
örgü t</w>
yan ıt</w>
un sur
sayg ı</w>
ol masını</w>
du r</w>
ala nda</w>
sp or
kil it</w>
a ley
Gen eral</w>
yayın ladığı</w>
w s</w>
ver mek</w>
le ti</w>
finan s</w>
Ol li</w>
pros ed
müzakere lerinin</w>
kesin likle</w>
has tan
est iva
Mec lis</w>
yak ala
seçim lerde</w>
reform u</w>
mak tan</w>
edil miş</w>
dığ ına</w>
seya hat</w>
santr al
s es
reform ların</w>
Do dik</w>
İ z
z ar
lığ ının</w>
konuş masında</w>
iktidar daki</w>
giz li</w>
re z
it ha
gru b
ağ ır</w>
K ad
uygu lamaya</w>
ok s</w>
ka bin
av u
as ındaki</w>
S che
ett ik
edil ecek</w>
aley h
yıl ındaki</w>
siyas et</w>
s im
ra z</w>
olma dan</w>
insan lar</w>
başk anlığını</w>
bağımsız lığını</w>
Luk a</w>
Ekonom i</w>
0 ,
ş ik
İtal yan</w>
y önde</w>
tes is
sat ış
röporta j
orta lama</w>
mek t
komut anı</w>
in g</w>
il et
ihtiyac ı</w>
eğ il
değişik lik</w>
an iz
P a
Day ton</w>
ov ska</w>
olan ak</w>
ger gin
e ğini</w>
Ör gü
uygu lama</w>
ti p
me mesi</w>
it e</w>
inc ele
gelenek sel</w>
D S</w>
yıl dön
işle meden</w>
bi nden</w>
Yor k</w>
R adi
Podgor ica</w>
sürec inde</w>
s ı
altyap ı</w>
tep k
r ven
ola caktır</w>
Zagre p</w>
yak alan
im leri</w>
iler de</w>
d olay
V er
nüf us</w>
ma z</w>
le te</w>
c ılık</w>
savc ısı</w>
n ot
istif a</w>
g r
T er
Papandre u</w>
ol uyor</w>
ec er
d ük
başlan gı
bank a</w>
ov ica</w>
op er
n ak</w>
Sey diu</w>
An nan</w>
veril ecek</w>
soy kır
im in</w>
gör eve</w>
sa ğ</w>
gelece ği</w>
g in</w>
belir tiyor</w>
temsilc ileri</w>
rven kovski</w>
müzakere ler</w>
inan ıyor</w>
den ey
başken t
adım lar</w>
Rad ovan</w>
Ort od
um uz</w>
kur ma</w>
eyalet in</w>
etkin lik</w>
endiş e</w>
S ta
D in
Ban ja</w>
ö k
ziyaret te</w>
ti f</w>
seç en
sa t</w>
orta m
başlat tı</w>
Ste f
Arnavut lar</w>
iç indeki</w>
imzalan an</w>
ş ans
ziy areti</w>
la yarak</w>
bi z</w>
alis t</w>
K uz
Af g
İs lam</w>
eş it</w>
ank o</w>
Gen işlemeden</w>
ü r</w>
ul lah</w>
ola cağı</w>
makam ları</w>
l in</w>
kolay laştır
dir ek
ön lem
yas anın</w>
un la</w>
söyle yen</w>
nd ır</w>
diyal og</w>
belir ten</w>
re st
k olay</w>
iy di</w>
hat ta</w>
do lar</w>
belirt ildi</w>
ad aki</w>
A z
yıl a</w>
söz leri</w>
reform lar</w>
lığ ın</w>
D A</w>
örn eğin</w>
f fer</w>
yıl lardır</w>
böl üm
beledi ye
Sche ffer</w>
reddet ti</w>
gen işlet
E ski</w>
ş ah
v az
te mas
or din
ar ken</w>
Ho op</w>
Federas yonu</w>
temsilc isi</w>
sistem inin</w>
l o</w>
k m</w>
b öyle
an ta
ığ ın
çaba larını</w>
uk anoviç</w>
me z</w>
imzala dı</w>
haf ta
b asında</w>
an lı</w>
Ortod oks</w>
üret ic
u yorlar</w>
ma ç
çöz üm
yin ele
yarg ı
iha le
id ari</w>
ecek ler</w>
dola ş
bir isi</w>
zama ndır</w>
toplum sal</w>
sektör ü</w>
ma yacağını</w>
imzala dılar</w>
haber lerde</w>
İsp anya</w>
çif t
uyar ınca</w>
p as
or a</w>
ma ş
ada let</w>
Tom islav</w>
M erkez</w>
Boş nak</w>
Amerik an</w>
ü t
uğ r
tü ğ
iste di</w>
inşa at</w>
et meyi</w>
dik lerini</w>
J er
D nev
Ab d
çalış maları</w>
suç la</w>
görev deki</w>
d ak
a dan</w>
Y org
Georg i
Dim itr
C o
tanın mış</w>
kapsam lı</w>
su ik
kaz anan</w>
k ız
hayat ını</w>
ebil eceğini</w>
bom b
bi raz</w>
ar ke
sor unun</w>
say esinde</w>
sa at</w>
lar dı</w>
kamp anya</w>
ed erken</w>
Har ek
me yen</w>
l j
kamu oy
il mesini</w>
durum unda</w>
bi t
çaba ları</w>
y um
vatandaş ların</w>
tale p
ta l</w>
ilişk ilerin</w>
hit aben</w>
fut bol</w>
end ir
e lerin</w>
d ık</w>
b ür
li am
kurum ları</w>
etkil ey
de y
an alist</w>
a lama
s ch
part ilerin</w>
kar maş
ar kad
abil ecek</w>
Abd ullah</w>
ıs ıyla</w>
ve ç</w>
i er</w>
Mos kova</w>
ıl dığı</w>
t raf
suç lu
olduk ları</w>
iy a</w>
yap ma</w>
sürec ine</w>
k â
ek ler</w>
im ini</w>
iler inden</w>
ha m
büyükel ç
B ele
ş art</w>
9 0</w>
yıl larda</w>
uz ak
prosed ür
his se
gö tür
g re
dü l</w>
Bir liğe</w>
z eng
ra j
lık lı</w>
f otoğ
erke s</w>
d on
Mol d
ter k</w>
i yorum</w>
haber lere</w>
part ileri</w>
istedi ğini</w>
ir i</w>
Ku p
Drag an</w>
C E
milletvekil leri</w>
ma y</w>
gü r</w>
bor ç</w>
ay ır
Y ar
S D</w>
za m</w>
me ş
ma s</w>
li ye</w>
lan acak</w>
ist ik</w>
ru h
karar ın</w>
il mesine</w>
belge de</w>
mensu p
kat ı</w>
i yoruz</w>
getir mek</w>
Sur iye</w>
Kom itesi</w>
üst ün
çev r
Ç in</w>
nd aki</w>
i yordu</w>
i ja</w>
fik ir</w>
dolar lık</w>
K am
A ra
öl üm
kıs mı</w>
ko v</w>
ald ılar</w>
yok sul
mu h
liğ inin</w>
O A</w>
Karada ğ
örgü tü</w>
tasar ru
müzakere lerini</w>
milliyet çi</w>
imzala ndı</w>
eli ç</w>
cak lar</w>
bölg esinde</w>
başla yan</w>
b ine</w>
Afg anistan</w>
A li</w>
şüp h
üst ü</w>
taraf lı</w>
kre di
j u
getir en</w>
gel diler</w>
ett eki</w>
değ er</w>
uğ ra
sağ da</w>
me lerin</w>
k op
gazetec i</w>
değişiklik ler</w>
biçim de</w>
b an</w>
ön görülüyor</w>
televiz yon</w>
sürec in</w>
mücadele de</w>
mahke menin</w>
P A
yap acağı</w>
re t</w>
mahke mesiyle</w>
et ki</w>
çoğun luğ
ihla l</w>
var dı</w>
sağla ma</w>
en ler</w>
di mir</w>
bun ları</w>
bar ış
ama z
Nik oliç</w>
İ gor</w>
ön ce
çar p
mo dern
alış ver
tiğ ine</w>
mec list
i ce</w>
bölg esi</w>
bildir ide</w>
N o
ğ iyle</w>
yas ak
is inden</w>
adi l</w>
Fat mir</w>
r iyat
on a</w>
katıl mak</w>
ka nd
git ti</w>
gel diğini</w>
belirt iliyor</w>
Fr an
19 8
proj esi</w>
on ların</w>
mah k
erk ek</w>
abil eceği</w>
Ad riyat
men i</w>
ma larına</w>
la ğ
g üz
em e</w>
V OA</w>
Adriyat ik</w>
say ısının</w>
k alkınma</w>
h erkes</w>
ayr ıl
T V</w>
G u
v an</w>
tur n
t ının</w>
gerçekleş ecek</w>
dest eğ
a larını</w>
V uk
4 00</w>
on lara</w>
iy im
g a</w>
e di</w>
ar da</w>
Kuz ey</w>
ma lara</w>
ec i</w>
biz e</w>
bir inin</w>
4 ,
ş a
ö dül</w>
Ç ek</w>
söz leş
sund u</w>
s iç</w>
kr ed
iç işleri</w>
görüş mek</w>
anla t
H af
i f</w>
hukuk un</w>
dün yas
Z rvenkovski</w>
Hak ları</w>
ver diğini</w>
toplant ısı</w>
ser gi</w>
lık ların</w>
kr izin</w>
atör ü</w>
şart ları</w>
üye lerinin</w>
yan ında</w>
kamu oyu</w>
im inin</w>
gör üyor</w>
ger il
bildir di</w>
at eş
as a</w>
a ile</w>
Vla dimir</w>
ş k
röportaj da</w>
re s</w>
heyet i</w>
grub un</w>
K al
A lek
çoğun luğu</w>
yoğ un
mec lis
hedef i</w>
görün üyor</w>
gazet esinin</w>
H aş
şek li
uz ak</w>
sanat ç
pu an</w>
giriş im</w>
es er
ülke lerine</w>
ülke lere</w>
veril mesi</w>
f u
ecek lerini</w>
F E</w>
üret im</w>
uygu lanan</w>
komün ist</w>
kal ma</w>
dö nd
baş a</w>
b lo
b ecer
J a
H rist
ıy dı</w>
ılığ ında</w>
ü len</w>
Örgü tü</w>
tar ih</w>
nüfus un</w>
gen eral</w>
ama cı</w>
Y ön
Ö dül
t er</w>
ma m
la yacak</w>
karar lı</w>
iddi ana
day alı</w>
ar z
T e
1 50</w>
. 000</w>
ıs ındaki</w>
zir ve
son u</w>
referand um
olur sa</w>
n iyet
lık ları</w>
iy ana</w>
gen işle
durum daki</w>
bağ ış
Os man
Mec lisi</w>
yüksel t
tü m
mesa j
man lis</w>
kurtar ma</w>
kiş ilerin</w>
in iz</w>
ifade si</w>
V iyana</w>
S am
S ali</w>
M at
Jer em
B ir</w>
zam anı</w>
kat liam
getir iyor</w>
gazet esine</w>
f estiva
bun unla</w>
bir çok</w>
Oh ri</w>
Kara manlis</w>
B ağ
ün lü</w>
yaz ar</w>
top rak</w>
olas ılığı</w>
mey ecek</w>
he y
et miş</w>
et mekle</w>
demok ras
D K</w>
20 12</w>
İs v
uyar ıda</w>
N at
ur a</w>
sonuç ları</w>
as yon
S r
G oran</w>
C or
199 1</w>
İsv iç
u v
on lar</w>
karmaş ık</w>
ev i</w>
açık lama</w>
as l
n er</w>
kö pr
iş e</w>
güven li</w>
fik ir
el t
dış ındaki</w>
bölün müş</w>
1 8
ra d
istikrar ı</w>
bi l</w>
V uk</w>
Mitr ovica</w>
Jerem iç</w>
sür edir</w>
haber ine</w>
R L</w>
önce den</w>
yakın larındaki</w>
tan ıt
s ı</w>
il ke
düşünü yorum</w>
ara ç
alan ı</w>
ak u</w>
Tem silci</w>
Haş im</w>
çev ir
tak ımı</w>
mek aniz
k ov
ind a</w>
görev den</w>
düzey de</w>
d in</w>
başla yacak</w>
A y
tekli f
serb est
mem nun</w>
k ol
R FE</w>
M a
Ener ji</w>
şeh ir</w>
ra di
paz ar</w>
hazır lan
S i
öğret im</w>
ros o</w>
ler ek</w>
k ara
bloğ un</w>
F T</w>
4 5</w>
ik na</w>
duy duğu</w>
c iler</w>
Pol onya</w>
yay ın</w>
t ık
i ce
geçer li</w>
fir ması</w>
el j
ber g</w>
a ların</w>
S FOR</w>
H D
Bar roso</w>
şim di
yapt ır
tes p
sağla y
ol sun</w>
n iyet</w>
kayde dil
bel ge</w>
ad ına</w>
Sav aş</w>
S ila
5 ,
yönet men</w>
sürec e</w>
politik ası</w>
lend iği</w>
lama ları</w>
görüş ünd
derece de</w>
ala bil
S uç
A le
A c
ü me</w>
uz man</w>
oloj i</w>
ok ul</w>
m ülk
h atır
dün yası</w>
ac iç</w>
Bor is
sağla ya
gerek se</w>
dönüş tür
da ş</w>
birli k</w>
U kr
z at
uz at
iler iyle</w>
ebil eceği</w>
H I
199 8</w>
ver ici</w>
tur iz
t ın</w>
o t</w>
me lerini</w>
lık la</w>
ihrac at
görü ş</w>
a larak</w>
Ukr ay
S E</w>
E B
süre ç</w>
kaç ır
itibar en</w>
im izin</w>
dönem inde</w>
dav ran
alt ını</w>
D ur
Ş am
ılığ ıyla</w>
yap mayı</w>
top lu</w>
kaçakç ılığı</w>
bara t</w>
La j
Kup ası</w>
çoğun luk</w>
seçim lerinde</w>
kurum sal</w>
eceğ iz</w>
Mold ova</w>
Af r
ı larak</w>
özgür lüğ
mil yon
c i
B ek
zor lu</w>
yay gın</w>
ver meye</w>
tah min
sürdür üle
or ad</w>
h oş
h ak</w>
ask ıya</w>
ılma z</w>
kon uyla</w>
kap say
güven liği</w>
görüşünd eler</w>
et iyle</w>
bildir iliyor</w>
as yonu</w>
Demok rasi</w>
ım ını</w>
çev re
sür ecek</w>
sig ara</w>
sav cı</w>
hay al</w>
fik r
fark l
alt ındaki</w>
S a
Mil orad</w>
öğren ci</w>
yoğ un</w>
t te
T A</w>
Demok rat
Bak anlar</w>
çek ti</w>
hüküme te</w>
f iz
R D</w>
J av
korun ması</w>
görev li</w>
giriş imi</w>
ebil ecek</w>
e lerinin</w>
doğr ul
başla ması</w>
b eş
Tele kom</w>
Hal k</w>
terör le</w>
tedbir leri</w>
taş ıyan</w>
sağla yan</w>
o u</w>
lar ken</w>
hazır lanan</w>
av anta
artır mak</w>
an d</w>
acağ ına</w>
M R
ç ök
Öz el</w>
progra m</w>
ma ya
ko ordin
d olu</w>
b en</w>
b ayr
and ı</w>
Tra ian</w>
No el</w>
K il
Bak an</w>
Şam piyon
İtti fak</w>
z a</w>
telef on</w>
tehdi t
son larında</w>
s inde</w>
res men</w>
os lav</w>
c ular</w>
bilgisay ar</w>
Yön et
Yorg o</w>
Tek noloj
ülke lerde</w>
temsilc iler</w>
ola ğ
muhalef etteki</w>
i di</w>
güç lük
eğ len
arkad aş
J ap
B H
yüz lerce</w>
k an</w>
is el</w>
F in
yetkil ilerle</w>
süre ç
soruml usu</w>
rol ü</w>
kur ban
istikrar lı</w>
fil mi</w>
e gor
C i
ö deme
zat en</w>
teknoloj i</w>
kat egor
ede cek
düzen lendi</w>
b ol
aç ılan</w>
ıy ız</w>
ıl dığını</w>
ön lemek</w>
tehlike ye</w>
tamam lan
nokt ası</w>
ma larının</w>
ebil ir
dör dün
cez a</w>
Y atır
S im
Georg e</w>
te şek
tav siy
tartış ma</w>
k iç</w>
ik isi</w>
for m
e lere</w>
Pa ul</w>
6 ,
ulaş tı</w>
t in</w>
on al</w>
ley ecek</w>
h o
g ur
de p
R um
Bir liğin</w>
Bele diye</w>
B uc
se nd
or gi</w>
mahke meye</w>
iş lem
gü ven</w>
gör mek</w>
gerek tir
başar ı</w>
ver mesi</w>
tur ist</w>
sorun ların</w>
lama yı</w>
gerçekleştir ilen</w>
düzenle di</w>
tesp it</w>
ot om
li ç</w>
gelecek teki</w>
M on
Ah met</w>
v et</w>
tat bi
t or</w>
sonr ası</w>
l ili
gi de
ce p</w>
artır ma</w>
ac an</w>
ş unları</w>
ö re
yolsuz luğ
yetkil isi</w>
seviy ede</w>
me r</w>
lama k
fa f
en ce</w>
der hal</w>
danış man
P o
şim diye</w>
tır ma</w>
me lidir</w>
kaç ın
harek ete</w>
geç ti</w>
Ge orgi</w>
Başk an</w>
siyas iler</w>
referand um</w>
la t</w>
kim se</w>
D ah
özgür lüğü</w>
yap ması</w>
seç il
organ iz
mu ame
k uş
işbirli ğine</w>
iz leme</w>
di m</w>
Bus h</w>
ç ok
yav aş</w>
seçim lere</w>
s ığın
rapor u</w>
kö ken
gazet esi</w>
g ıda</w>
aç tığı</w>
St oj
Br anko</w>
ülke lerden</w>
sağ lanması</w>
ice anu</w>
es k
düş üş</w>
diğ inde</w>
bulund ular</w>
Tar iceanu</w>
L ond
L e
Geç en</w>
F or
4 4</w>
ım ına</w>
ğ inde</w>
uy u</w>
k ı
anlaş masının</w>
Y ol
Laj cak</w>
ü p</w>
çalış maya</w>
yıl d
rak am</w>
kiş isel</w>
gid er
ecek leri</w>
dığ ında</w>
doğru ladı</w>
b ün
Par vanov</w>
HD Z</w>
D e
Anton io</w>
yanl ış</w>
polis in</w>
isti yoruz</w>
etkil en
bekle yen</w>
at ılmış</w>
R adiç</w>
Anayas a</w>
y eş
terc ih</w>
t o</w>
sektör ünde</w>
i d</w>
h im
es iz</w>
edi p</w>
diyal oğ
b ab
S iy
Ban k</w>
İli şk
yas ayı</w>
yan ıt
kend isi</w>
d al
M eh
Alek sand
İç in</w>
İ d
yard ımı</w>
ser ma
pak et
kıy asla</w>
doğrul t
d öv
Se ç
L inda</w>
örn ek</w>
ö den
ur ken</w>
tat il</w>
ta li
t al
mis yon
ler ken</w>
görüşme lerin</w>
görev ini</w>
bün y
as ından</w>
a f</w>
P ak
EB RD</w>
Bel ç
öz gür</w>
müzakere lere</w>
ihrac at</w>
ara bul
önc esi</w>
n um
kurul u</w>
k alkın
gel diği</w>
et mesine</w>
düzen lenecek</w>
aç an</w>
P at
N eh
G ür
İsviç re</w>
ül dü</w>
sık ı</w>
profesyon el</w>
pas ap
p or
olan ağı</w>
me lere</w>
koalis yonu</w>
kend ilerini</w>
il k
cumhur iyet
açıkla masında</w>
ak tif</w>
Oy un
p ah
merkez inde</w>
kiş ilik</w>
katıl ma</w>
ilg il
et mişti</w>
dikkat e</w>
V a
E n</w>
Ak deniz</w>
tasarru f</w>
suik as
ov ac</w>
müzakere lerine</w>
k ans
dem ir
c am
ay la</w>
alan larda</w>
Karadağ lı</w>
ş e
çek il
sür esi</w>
sağla m</w>
s kand
oyn ad
me lerine</w>
h em
g an
enflas yon</w>
ber t</w>
ayr ımc
Karad aku</w>
C N
ı larına</w>
ör ü</w>
Ö n
yol ları</w>
k alk
getir ilmesi</w>
gen işleme</w>
Y ap
M er
E C
7 5</w>
ter ek</w>
t o
ov o</w>
kr izi</w>
ihtiy aç
ege men
ar lar</w>
Y en
5 5</w>
1 0
tartış malı</w>
ta s</w>
sun uz</w>
müz ik</w>
ke m
iş tir
es el
bağ l
Haf ta</w>
Dim it
İv o</w>
İn san
çöz ül
yıl ının</w>
y o</w>
suç lu</w>
p lan</w>
mes ele</w>
ey lem</w>
E le
Ü l
sund uğu</w>
r ot
ma lıdır</w>
halk a</w>
fa x</w>
al in</w>
Lond ra</w>
D j
Amer ika</w>
ğ inden</w>
yans ıt
tic aret
suç lanan</w>
standart larına</w>
popü ler</w>
ma aş</w>
im ine</w>
gi di
eng en</w>
çap lı</w>
yıl ları</w>
serv er</w>
sağla dı</w>
Slov en</w>
N ic
F u
B eta</w>
n es
metr ek
ma tik</w>
kay g
katıl ıyor</w>
karşıla dı</w>
karşı tı</w>
kan al
i yor
fır sat</w>
el kur
bölge ye</w>
Sch engen</w>
S tip
O b
E l
sor u
s o
mey eceği</w>
ed in
Ukray na</w>
T ala
Pet er
İ yi</w>
üyeli ğinin</w>
us iç</w>
sok ak
müdah ale
mü f
ip oviç</w>
d ıklarını</w>
ank ete</w>
Dün yasında</w>
ıl masının</w>
İk ti
İ b
üğ ü</w>
ç ilerin</w>
vatandaş ları</w>
s ik
laştır ma</w>
haber lerine</w>
ge m
bak anl
ay ındaki</w>
Kür t
Kara deniz</w>
Bay ra
taraf ı</w>
kiş iler</w>
karş ılığında</w>
kala cak</w>
ist ek
gen er
c k</w>
böl ümü</w>
belir gin</w>
acak tır</w>
G er
öngör en</w>
vaz geç
söz de</w>
seçmen lerin</w>
sağ lıyor</w>
mes lek
le yen</w>
fay da
et mesini</w>
Y as
Georgi ev</w>
savun uyor</w>
pu an
mil li</w>
lik leri</w>
iş ler</w>
iler ek</w>
i on</w>
ha r</w>
g ın
d ol
açıl ış
ar d</w>
al mayı</w>
Stip e</w>
O p
M ilan</w>
ır k
söz lerini</w>
söy len
kır ık
kaydet tiği</w>
gir di</w>
ener j
Mü cade
B ab
İş birliği</w>
ü çte</w>
ç eve</w>
yer leştir
kesin t
ist at
fazlas ı</w>
ekonom inin</w>
baş savcısı</w>
an o</w>
acağ ız</w>
M is
J an
yap ıldı</w>
seç men</w>
ma yacak</w>
kav uş
alan larında</w>
al d</w>
S P</w>
Jav ier</w>
şey in</w>
za fer
olduğ undan</w>
j ana</w>
bul mak</w>
R amaz
şekli ndeki</w>
şart lar</w>
çöz üme</w>
yas aları</w>
tarih inde</w>
sır asıyla</w>
mesa j</w>
kurum larının</w>
eğlen ce</w>
dok tor
c om</w>
öz erk
toplum u</w>
sorumlul uk</w>
ob server</w>
neden i</w>
mey le</w>
ley ici</w>
koru mak</w>
kayn ağı</w>
festiva l</w>
büy ük
bo ş
baz da</w>
N E</w>
Lj ub
J es
E ğ
v ans
n ün</w>
kent in</w>
is iyle</w>
ilg ilen
bir ini</w>
bekle diğini</w>
P lan
Buc kovski</w>
B an</w>
ınd ay
çaba larına</w>
y aya</w>
otom o
li se</w>
insan ları</w>
hes ap
har d</w>
V as
R as
M it
öner ilen</w>
ödül ü</w>
uy ru
teşkila t
taraf ın</w>
ra g</w>
mis yonu</w>
m ün
ka lan
etkinlik te</w>
entegras yon</w>
S O
N as
Mu ha
ıl ım</w>
İs lam
yer leş
temas larda</w>
m ini</w>
kurum lar</w>
ek ip
Poli tik
Neh ri</w>
ış ık</w>
ön ünü</w>
t ra
mü tte
komş u
ken t</w>
kazand ır
kat ılan
kat ıla
içer en</w>
iz de</w>
a larının</w>
Tala t</w>
Pro gra
Nov i</w>
şam piyon
yeş il</w>
ver im
lar ımız</w>
kilo metre</w>
ist eme
in s
idar e</w>
görüş mesi</w>
g un
er di</w>
edil mesini</w>
diploma t</w>
artır ılması</w>
an tik</w>
Se lan
Mart ti</w>
Mac ar</w>
Ku vvet
B e
za fer</w>
program ına</w>
nüfus unun</w>
ma yla</w>
lay ıcı</w>
kullan ılacak</w>
katk ı</w>
dik ten</w>
baş bakanı</w>
N or
Kom ut
Bo z
B li
tamam lanması</w>
ortak lık</w>
ort asında</w>
kö t
iti k</w>
güven il
dönem i</w>
duy ulan</w>
biz i</w>
beklen t
baş ı</w>
ac i</w>
örgü tün</w>
Ç alış
yönet ic
sandal ye</w>
rapor a</w>
ra hat
protest o
mültec i</w>
ge ç</w>
dördün cü</w>
c eviç</w>
Siy as
Lib eral</w>
Iv o</w>
Afr ika</w>
ı p
çap ında</w>
zayı f</w>
yön tem
suç ladı</w>
st a</w>
orta da</w>
on ik</w>
olabil eceğini</w>
müdah ale</w>
gen elinde</w>
dok un
başlangı ç
Selan ik</w>
M ed
G or
çalış an
yetkil ilere</w>
yaşad ığı</w>
se l
operas yon</w>
nd i</w>
kur mak</w>
he yet</w>
getir me</w>
etk in</w>
can landır
bulund uğunu</w>
açıl ış</w>
ay ak
ara ç</w>
an n
Rady osu</w>
R ug
şim d
ön ündeki</w>
çalış ması</w>
yaş ıyor</w>
tüğ ü</w>
p an
oloj ik</w>
ol og
mensup larına</w>
men ler</w>
g esel</w>
ekonom isi</w>
San at</w>
Peter sen</w>
Kos tas</w>
ılığ ının</w>
u ki</w>
te dav
kr itik</w>
is im
f i
ek liyor</w>
dev leti</w>
ayrınt ılı</w>
ş ansı</w>
zor un
yarg ılan
ver ilere</w>
kon ser
er iş
el ine</w>
e lerde</w>
bilin en</w>
ç iliği</w>
yol undaki</w>
ya s</w>
va at
telef onu</w>
se fer
radi kal</w>
lama lar</w>
la manın</w>
katıl dığı</w>
ip tal</w>
de v</w>
alınd ığında</w>
aj iç</w>
Par is</w>
BH F</w>
y ağ
toplant ıya</w>
sız lık</w>
nor mal</w>
hak larını</w>
güç leri</w>
düzen li</w>
d ır
ay larda</w>
anayas al</w>
S ür
R S</w>
M or
Jes sen</w>
In ternati
vatandaş lar</w>
uğr aş
p la
kit ab
d o</w>
abil ir
Y T
V oy
H P</w>
Dav ut
ül üyor</w>
makam larının</w>
düş üş
duyur uda</w>
değil dir</w>
de ş
P ek
O n
B la
şüphe li</w>
üst len
tiyat ro</w>
ternati f</w>
sür eyle</w>
olan ak
ne z
ma cı</w>
gerek ç
c usu</w>
S vet
Rug ova</w>
Kil is
Internati onal</w>
Has ani</w>
zeng in</w>
ol ur</w>
kısm ını</w>
iç i</w>
ist em</w>
f ar
et raf
er e</w>
em in
edil emez</w>
edil diği</w>
b on</w>
at i</w>
P av
M ust
6 00</w>
1 5
İs veç</w>
soykır ım</w>
inan ıyorum</w>
dolay ısıyla</w>
ask oviç</w>
U y
A g
şirket ler</w>
ığ ın</w>
uz u</w>
od aklan
kur t
ka bine</w>
göster diği</w>
T iyat
G ir
Davut oğlu</w>
6 5</w>
ülke lerinde</w>
vans i
say ısını</w>
plan ını</w>
olma yı</w>
mar uz</w>
istih dam</w>
h uz
erke l</w>
anlaş masını</w>
MR O</w>
Hüküme t</w>
çağr ısı</w>
çağ daş</w>
ç ileri</w>
sor gu
mahke mesinin</w>
ma mış</w>
kayded ildi</w>
etk isi</w>
Z v
M erkel</w>
Bir leş
1 20</w>
sa s</w>
i i</w>
f iy
düzen leme</w>
dav anın</w>
cez ası</w>
Ne ws</w>
Müz esi</w>
C ukanoviç</w>
Belç ika</w>
As ya</w>
ığ ımız</w>
çık ıyor</w>
ul us
seç ildi</w>
s iye</w>
mas a</w>
huk uki</w>
b ey
Seç im</w>
Osman lı</w>
Hrist of
Fin land
E m
yinele di</w>
lik ler</w>
kurul uş</w>
da iresi</w>
bulun arak</w>
bak anın</w>
at an
alın acak</w>
Poli s</w>
Mücade le</w>
L az
yarar lan
taraf tar
parlament onun</w>
iş lenen</w>
im ize</w>
ilet işim</w>
faaliyet leri</w>
ek u</w>
edi yoruz</w>
doğrult usunda</w>
cağ ız</w>
az al
V MRO</w>
T una</w>
H ara
İk inci</w>
ziyaret inde</w>
taşı mac
konuş ma</w>
inş ası</w>
elkur may</w>
dü r</w>
d alg
ağ ır
YT D</w>
F on
1 2
tan ık</w>
nd ur
lider lerinin</w>
katıl ması</w>
id ro
gö n
d y</w>
aktar ılan</w>
P SD</w>
Nik ol
B lo
Avustur yalı</w>
üyeli ğini</w>
y u
ul uğ
s ak</w>
plan larını</w>
liğ ine</w>
lider lerin</w>
ko t</w>
hedef ine</w>
göster diğini</w>
bulun ması</w>
and ığını</w>
P A</w>
A ç
önc elik</w>
serma ye</w>
sağ lamaya</w>
os unun</w>
kö k
e d</w>
bi t</w>
S ağ
S DP</w>
Bli c</w>
un ut
sah ne</w>
kil is
k er</w>
gen elde</w>
fir ma</w>
ben im</w>
asl ında</w>
ap o
Boris ov</w>
7 ,
ımız ı</w>
ık lar</w>
çocuk lar</w>
siv il
mo de
li t</w>
leştir me</w>
kur ulacak</w>
kal ıyor</w>
etkin liğe</w>
etk oviç</w>
el çi</w>
der in</w>
boy kot</w>
an ti</w>
ad anın</w>
Teknoloj i</w>
R a
Jos ipoviç</w>
üniversit e</w>
tek rar
sp ek
sanay i</w>
olma ları</w>
katıl ımı</w>
istih barat</w>
ik at
görüş ünde</w>
grup lar</w>
fırsat ı</w>
dünya da</w>
dos t
don an
bu la
arabul uc
V ar
G DA</w>
yo ndan</w>
yav aş
yap ıcı</w>
ot or
kullan ma</w>
kent indeki</w>
kat ılacak</w>
ihra ç</w>
gö ç</w>
g ali
bul ma</w>
banka cılık</w>
Sp or</w>
Sof ia</w>
Mir oslav</w>
Bat ılı</w>
2 50</w>
ı larından</w>
çıkar dı</w>
yıl lar</w>
yet ki</w>
ya t</w>
sek ret
s istem</w>
lama da</w>
komis yon</w>
hizmet leri</w>
gör düğü</w>
b ede
ak ya</w>
ada mı</w>
Y ıl
Müslü man
M et
Ber lin</w>
ınd ır
ö tesi</w>
ç et
sorun unun</w>
ma den
imz a</w>
hazır ladığı</w>
h ik
görev l
en t</w>
cin ayet
başlat ma</w>
başarıs ız
bakanlığ ının</w>
avanta j
alan ındaki</w>
ad ını</w>
Mic ha
ılan ma</w>
çalışma larını</w>
ver imli</w>
nit elik
konu lar</w>
kayb etti</w>
k e</w>
iler inde</w>
eur oluk</w>
end i</w>
ek ib
e lerine</w>
aş a</w>
Str at
Dimitr is</w>
Büy ük</w>
yurt dışında</w>
v i</w>
uy umlu</w>
u el</w>
sor siy
ne ler</w>
kuzey deki</w>
ist en
güz el</w>
destekle y
der g
açıklama ya</w>
Sav aşı</w>
sır ala
sorun una</w>
onay lan
mem iz</w>
le h
kaldır ılması</w>
in er
i ade
e ji</w>
ac ı</w>
S h
K ov
Ale x
z ul
vatandaş larının</w>
uzman ları</w>
ted bir</w>
saldır ı</w>
kurum ların</w>
karar ının</w>
il diği</w>
gün ey</w>
geliş me</w>
finans e</w>
diploma t
başlangıç ta</w>
an üstü</w>
al ternatif</w>
aj ans
P an
Din kiç</w>
A ka
çık maz
çek iyor</w>
ko nd
gön ül
eş i</w>
ev o</w>
eleştir di</w>
cumhurbaşkan ının</w>
aç ığı</w>
L ef
ümü nde</w>
öğrenc iler</w>
çoğun lukla</w>
yen ilen
uk ları</w>
kend ilerine</w>
i di
gör en</w>
belir li</w>
ay kır
ay da</w>
Tr ay
Stef an</w>
M NE</w>
ığ ının</w>
yap arak</w>
send ik
kıs men</w>
kur um</w>
kullan ılan</w>
j e
faf lık</w>
f estivali</w>
ekonom isinin</w>
c h</w>
b ana</w>
ak at</w>
S N
P ad
DP MNE</w>
3 2</w>
ı yor
ı daki</w>
v od
teme l
se z
o f</w>
n is
katıl maya</w>
eli ği</w>
dar be</w>
Yatır ım</w>
C en
8 00</w>
1 ,5</w>
üretic isi</w>
yükümlülük lerini</w>
standart ları</w>
say ısında</w>
performan s
os ki</w>
olduğ unda</w>
olay ları</w>
o u
o iu</w>
do ndur
b alık</w>
Finland iya</w>
Ekonom ik</w>
B en
şirket leri</w>
ım ın</w>
üç lü</w>
yol da</w>
tav siye</w>
savc ılar</w>
s ip
ol masının</w>
meslek taş
lık larını</w>
iz ni</w>
b ar</w>
ala ndır
Must af
La ura</w>
DS S</w>
D ub
ut in</w>
r ıs
pro m</w>
modern iz
m us
li man
lendir me</w>
iş ten</w>
göz altına</w>
g ar</w>
en a</w>
el l</w>
ed er
e la</w>
durum a</w>
Kos or</w>
EU FOR</w>
CN N</w>
Şampiyon ası</w>
Ş im
ır sa</w>
çalış t
yıldön ümü</w>
mahk um</w>
lu s</w>
kom p
h üküm
h u
direk törü</w>
değişiklik leri</w>
bil im
belir len
as s
ark a</w>
Temsilc iler</w>
Kıb rıs
Gür c
Car la</w>
B i
şart larını</w>
ü yorlar</w>
çarp tır
yon a</w>
us unu</w>
umut ları</w>
tutuk landı</w>
sand ık</w>
ra f</w>
plan ladığını</w>
n a
müzakere lerde</w>
meclist e</w>
köt üye</w>
kiş iyi</w>
kadın ların</w>
k art
iş aret
geliştir me</w>
gelece ğini</w>
ge lerek</w>
et te</w>
e mek</w>
cumhur başkanlığ
al a</w>
Mos tar</w>
K ra
D ış</w>
C eku</w>
ulaş tırma</w>
ted ar
sınır ları</w>
sorun lara</w>
kal a</w>
ihtilaf ı</w>
huz ur
cak larını</w>
K D
şimdi den</w>
ım ının</w>
uz manı</w>
tutuk lama</w>
sık ınt
ke ş
kar ak
hak im</w>
ha len</w>
güc ünün</w>
er işim</w>
destekle mek</w>
anlam da</w>
Slov akya</w>
Gürc istan</w>
zaman lar</w>
or i</w>
lay ıp</w>
kon sorsiy
k eri</w>
itir az
fiy at</w>
bütün leşme</w>
belirt tiler</w>
a j</w>
Z iv
S u
Meh met</w>
Mar koviç</w>
Dr askoviç</w>
B ler
şe bek
İ m
yo nda</w>
sınır lı</w>
sür ede</w>
lend iğini</w>
iş ev</w>
h idro
getir mesi</w>
ger ide</w>
baş lıklı</w>
al ırken</w>
Olimpiyat ları</w>
Ac ti
3 4</w>
şirket lerin</w>
sor u</w>
sin iz</w>
plan lanıyor</w>
olduğ unun</w>
olağ anüstü</w>
kaynak ları</w>
kadın lar</w>
in e
im inde</w>
fa iz</w>
bah arda</w>
adam ları</w>
acak lar</w>
T aç
P ort
Jos e</w>
Gaz prom</w>
1 4
şüph el
yönet me
yen ler</w>
uz un
tehlike li</w>
sun ulan</w>
sah n
s ü</w>
om berg</w>
mil it
kampan ya
im za
her kesin</w>
görül dü</w>
gö l
geçmiş te</w>
bor c
avr onun</w>
ar ay
Pad dy</w>
Komis eri</w>
B it
İb rah
üret imi</w>
zirv esinde</w>
tem iz
sa bit</w>
m on
kurul du</w>
k ış
ir se</w>
ettik leri</w>
dokun ul
Stan işev</w>
Medi apo
Bil im</w>
A R
İslam cı</w>
çocuk ların</w>
uy um</w>
us ul
tüket ic
olma ması</w>
olas ılığını</w>
konfer an
kazand ığı</w>
ka le
gir iş</w>
diğer leri</w>
dah il
bi i</w>
başarıs ız</w>
bah s
ard ılar</w>
Rece p
Kara ciç</w>
KD V</w>
H ay
F inan
D i
ıla bilir</w>
İ ler
çoc uğ
zayı f
ti p</w>
may ın</w>
mahke mesine</w>
kayıt lı</w>
ist is
ima j
gel mesi</w>
far k</w>
eli ş
dav ası</w>
amaç layan</w>
Temsilc isi</w>
Ser ge
SO K</w>
Eğ itim</w>
Dnev nik</w>
C O</w>
Blo omberg</w>
ın ız</w>
yol larını</w>
tanın an</w>
sat ış</w>
para le
oran ının</w>
mu yor</w>
dayan arak</w>
ad li</w>
PA SOK</w>
Ch r
B oj
yard ımc
yapı sal</w>
yakın larında</w>
viz esiz</w>
uyru k
sürdür üyor</w>
strat eji</w>
san at</w>
ko z
iç ine</w>
hik ay
eceğ inden</w>
bir imi</w>
aykır ı</w>
ay ına</w>
S eli
Ja ap</w>
Bo g
şef i</w>
teh lik
sın ıf
prot ok
oran la</w>
koy du</w>
is ion</w>
har it
en e</w>
e i</w>
düş tü</w>
di an</w>
bekli yoruz</w>
bağ ış</w>
açık lan
U z
T C</w>
N ab
Mil o</w>
Hüküme ti</w>
yas ası</w>
vatandaş ı</w>
um uyor</w>
ro v</w>
pasap ort
op ulos</w>
kon ser</w>
karşı lan
gündem e</w>
fiyat ları</w>
bir araya</w>
art ması</w>
ar dı</w>
al t</w>
V ak
Tr ans
L i
Kıbrıs lı</w>
C e
Birleş ik</w>
Bir lik</w>
Bak oy
yaz ar
ne f
mü dür
la ya
iste diği</w>
gerek çe</w>
bulun mak</w>
bir inde</w>
Hak k
An ad
9 ,
yok sa</w>
yap ımı</w>
ya ş</w>
ver erek</w>
ver eceğini</w>
parlament osu</w>
onay lanması</w>
om ir</w>
konfer ans</w>
ke st
karar a</w>
kar deş
itir az</w>
görev ine</w>
el le</w>
der n</w>
cez alandır
b y</w>
art ıyor</w>
Jap onya</w>
Harek eti</w>
Hara din
yapt ığını</w>
y eri</w>
seçim lerden</w>
say f
r üş
person el</w>
ne h
mesele si</w>
kampan yası</w>
iş ini</w>
iddi aları</w>
görüş tü</w>
day anan</w>
büny esinde</w>
Tur izm</w>
Taç i</w>
Anad olu</w>
önem ini</w>
zanl ısı</w>
us u
sınır ı</w>
rez er
konu ları</w>
getir diği</w>
g iy
elj ko</w>
düş ünd
diğ imiz</w>
bas ın
am p
Mediapo ol</w>
ı lardan</w>
zor luk
um duğunu</w>
turn uv
tas e</w>
standart larını</w>
saat lerde</w>
p ek
kasab asında</w>
karş ılık</w>
ce p
bir ey
bağımsız lığı</w>
ara ma</w>
Voy vod
M ıs
çoğ unun</w>
yayın ladı</w>
umut larını</w>
ti ç</w>
tamam ladı</w>
sürdürüle bilir</w>
se be
sanat çı</w>
rejim inin</w>
oyun cu
olay lar</w>
ol muş</w>
kim lik</w>
katılımc ılar</w>
in li</w>
et tir
değerlendir me</w>
ay aklan
aj ansı</w>
Va len
Nas tase</w>
Lef koş
Kon j
I li
Büyükel çiliği</w>
An te</w>
yapıla ndır
tut ul
sür erek</w>
su l</w>
sektör ünün</w>
l iler</w>
kay ıt</w>
f ı</w>
dönem ine</w>
bel de
ar anan</w>
Te mas</w>
Sp lit</w>
Nab uc
Micha el</w>
Gün lüğü</w>
Ci oc
ık ların</w>
ul uğu</w>
taz min
suç lanıyor</w>
s ü
oyn ay
mad di</w>
konferan sta</w>
ka r</w>
ilişk ilerini</w>
görüşme leri</w>
ge ce</w>
döv iz</w>
dair e</w>
da m
bel ki</w>
b es
art tı</w>
al mış</w>
Haradin ay</w>
E u
C HP</w>
öner di</w>
zirve de</w>
yaş ama
tali ma
s üz
s oğ
p oz
ord unun</w>
mam ız</w>
iz ley
iyim ser</w>
haber leşme</w>
getir diler</w>
gerek tiğine</w>
düzey inde</w>
cez asına</w>
ada let
Nabuc co</w>
K ras
Cioc oiu</w>
7 00</w>
3 6</w>
r üz
oy lama</w>
is h</w>
demir yolu</w>
büy üy
ar z</w>
Top l
Pr es
Kor uma</w>
Kilis esi</w>
Alex and
3 7</w>
ş aşır
çalışma larının</w>
yasa ların</w>
yap mış</w>
v ide
u di</w>
statüs ünü</w>
sp on
plan a</w>
m ür
lu p</w>
lam da</w>
ka f
grup ları</w>
dünyas ından</w>
c az
açık lanan</w>
az ından</w>
ank a</w>
Demokrat lar</w>
Arnavut ların</w>
19 7
ülke lerinden</w>
sak in
plan ları</w>
parlamento da</w>
neden le</w>
kâ r</w>
insan ın</w>
has tal
gerçekleştir di</w>
duk ları</w>
c ilik</w>
UN ES
UNES CO</w>
Ro ma</w>
ü cü</w>
yürü ten</w>
terör ist</w>
tec r
sür eli</w>
ola yı</w>
ler di</w>
gil endir
ge r</w>
faz ak
f on</w>
bağlant ılı</w>
aç ıyor</w>
at tı</w>
Pet r
P I</w>
O d
Mar ina</w>
Ka ide</w>
D us
D iv
Aka dem
İst at
yeter siz</w>
yaş ında</w>
veril iyor</w>
vatandaş larına</w>
sistem ini</w>
sey ir
seviy esinde</w>
pak eti</w>
p lat
otur um
olmak tan</w>
n ik
memur u</w>
ma yacağı</w>
iddi asıyla</w>
g u</w>
f üz
er tele
dokunul maz
avu kat
avro dan</w>
C ur
Belgra d
Avust r
A D</w>
yer de</w>
yatırımc ılar</w>
rest or
re m</w>
oluş uyor</w>
olur ken</w>
konum unda</w>
iy se</w>
ir ade
ib e</w>
hizme te</w>
genç ler</w>
fotoğ raf
ev re</w>
entegras yonu</w>
bulun acak</w>
bi yo
anket te</w>
Yun anl
Op eras
Mustaf a</w>
Lj ajiç</w>
ıla cağını</w>
çok tan</w>
z anlı</w>
yas alar</w>
oyun cu</w>
o ulos</w>
mo dern</w>
la s</w>
kapsay an</w>
göster erek</w>
et meleri</w>
başlat ılan</w>
aç ılması</w>
Tra j
Serge y</w>
Eur Acti
E R
C lin
şiddet li</w>
yok sul</w>
uç ak
tartış malar</w>
orta mı</w>
la dıkları</w>
k in</w>
has ar</w>
gü müş</w>
fe lak
f el
destekle yen</w>
dest eğini</w>
U I</w>
T aci</w>
Komut anı</w>
D aciç</w>
şey ler</w>
üst esinden</w>
tarih inin</w>
siyas ilerin</w>
proj eler</w>
oy la</w>
müş ter
me l</w>
kur uc
idar esi</w>
gerek ecek</w>
edi yorum</w>
dön üş</w>
bur adaki</w>
anla y
aleyh inde</w>
ade mi</w>
Y ak
Radi kal</w>
R ama</w>
Bler ta</w>
Bab acan</w>
öner isini</w>
ti f
tatbi kat
sorun unu</w>
santr ali</w>
proj eye</w>
ola cağına</w>
o ya</w>
iş çi</w>
güç lerinin</w>
geçir ilmesi</w>
fa h</w>
dol dur
ay ından</w>
Y ah
UN DP</w>
Recep i</w>
Pop escu</w>
Kad da
Hav a
Bağ ım
Ara p</w>
ödül ünü</w>
çalışma larına</w>
z u
z e</w>
plan ının</w>
oluştur an</w>
lüğ ünü</w>
kay ıp</w>
haf t
g ayr
değiş im</w>
bil ecek</w>
bank ası</w>
anlaşmaz lık</w>
Yol suz
Hırvat lar</w>
8 ,
3 3</w>
yapıl mış</w>
v er</w>
tale bi
t ık</w>
sav und
of i</w>
kov uştur
kom it
insan i</w>
hava yolu</w>
geliş miş</w>
diyal og
ağ ını</w>
an ni</w>
Pro fes
Kadda fi</w>
F i
EurActi v</w>
Araştır ma</w>
Ad ri
ı tı</w>
saf h
rekab et
la mış</w>
ka deme
in oviç</w>
in ce
hat tının</w>
göster ic
fotoğ raf</w>
farkl ılık
denet im</w>
dav eti</w>
asker leri</w>
abil mesi</w>
Or ta
Nikol ovski</w>
Man uel</w>
M i
K ö
K ap
. b
ş ek</w>
ılığ ın</w>
ür ken</w>
yoksul luk</w>
yen il
tem silci</w>
ok u
mad al
kur du</w>
kond u</w>
kit ap
iş le</w>
it hal</w>
em lak</w>
di l</w>
der s</w>
ch o</w>
belir terek</w>
bakan larının</w>
bak anlar</w>
anlaş mada</w>
ada lete</w>
V o
Stoj an
K er
Dah ası</w>
D UI</w>
İlişk iler</w>
Ç er
siz liği</w>
parale l</w>
on ay</w>
milletvekil lerinin</w>
mekt up
kriter leri</w>
kal ıcı</w>
ila ve</w>
edil mesine</w>
ec iler</w>
du k</w>
az ı</w>
ar lı</w>
T o
K e
G j
özgür lük</w>
ç ey
yaz arı</w>
yak ıt</w>
ti m</w>
tak v
ta ş</w>
sür mekte</w>
siz ce</w>
sek tör</w>
rek or</w>
proj eleri</w>
miktar da</w>
li yet</w>
karş ısında</w>
iş ley
itibar ıyla</w>
hazır lık</w>
görüşme lere</w>
geliştir ilmesi</w>
edece ği</w>
d j
cin ayet</w>
barış çı</w>
arac ılığıyla</w>
V uy
M al
Kur ul
D u
ülke lerle</w>
ük sem
çöz mek</w>
ver dikleri</w>
tutum unu</w>
muame le</w>
mad de</w>
l ılar</w>
ilerle meyi</w>
görev lisi</w>
gazetec iler</w>
eksik liği</w>
bul du</w>
birbir ine</w>
ben im
başla y
anlaş malar</w>
ald ıkları</w>
L üksem
I nd
Dan i
20 13</w>
ümü n</w>
ön eri</w>
olma dı</w>
gü nde</w>
ev a</w>
em a</w>
edil ebilir</w>
belir siz</w>
azın lıkların</w>
avro yu</w>
anlaşmaz lığı</w>
ank oviç</w>
Strat ej
N i
Hır ist
Gu ar
A ir
1 6
İttifak ın</w>
İbrah im</w>
İ dar
üğ ünü</w>
ön leme</w>
yaş ay
yar ı</w>
uy du</w>
m ik</w>
lan ma</w>
kap an
ilerlet me</w>
halk ına</w>
g a
erk ekler</w>
em niyet</w>
destekle diğini</w>
destek leme</w>
bas tır
ar az
V et
Mak fax</w>
L DK</w>
üstün lüğü</w>
çiz di</w>
tic areti</w>
orta m</w>
laş a</w>
lama dan</w>
la ik</w>
kurum larına</w>
isti yor
hidro elektrik</w>
güçlendir me</w>
edil diğini</w>
dış ına</w>
destek liyor</w>
bulun uluyor</w>
aç acak</w>
Hırist iy
Eu observer</w>
B üt
.b g</w>
ön le
yol unu</w>
toplum unun</w>
te z
söz leşme</w>
ma larda</w>
ist ey
inc isi</w>
harek eti</w>
geç mesi</w>
faaliyet e</w>
bun lardan</w>
a lara</w>
Yen iden</w>
Vuy anoviç</w>
S ad</w>
R T
Kan ada</w>
I D</w>
Guar dian</w>
4 3</w>
çöz ümü</w>
çöz me</w>
Ç ağ
zaman ında</w>
zaman larda</w>
z ko</w>
yas aya</w>
yapıl masını</w>
tav ır</w>
sonuc una</w>
s enin</w>
mü kem
köken li</w>
keş f
hükümet ini</w>
he nd
hak larının</w>
ek ibi</w>
deva m
ce ma
bırak tı</w>
bağlan tı</w>
bara j
ak ade
Sırp lara</w>
Sosya list
P os
K ofi</w>
şirket inin</w>
ılığ ına</w>
öde me</w>
yol dan</w>
ver miş</w>
tak ip</w>
ortak laşa</w>
ort ağı</w>
muha biri</w>
l iliği</w>
kuruluş ları</w>
kampan yas
k ot
it ti
im lerin</w>
hep si</w>
haf if
görev lendir
getir meye</w>
es n
edi ci</w>
bor cu</w>
Voyvod ina</w>
Lüksem burg</w>
F I
Eur o</w>
Er meni</w>
çık ması</w>
zor und
u yordu</w>
toplant ının</w>
plan ın</w>
olma yacak</w>
n et
muş tur</w>
muhalef etin</w>
mek tir</w>
komut a</w>
iş siz</w>
il mesinin</w>
hayat i</w>
ha li
getir ecek</w>
gar anti</w>
Tur k
Kon fer
Gaz et
Er men
Belgrad lı</w>
şart ı</w>
İd di
üc ret</w>
ver me
tar z
p os
n j
mec lise</w>
laş ma</w>
koşul ları</w>
il iş
hız la</w>
gerçek çi</w>
festival de</w>
fay da</w>
ek leri</w>
dola yı</w>
danışman lık</w>
böyle likle</w>
bölge lerde</w>
Sch w
Ro bert</w>
G o
Öz gür
tes is</w>
seçim lerinin</w>
on z</w>
nis pet
mev zu
liy iz</w>
kıy ı</w>
kor ku
kon uk</w>
it al</w>
hedef liyor</w>
geliş meler</w>
er en</w>
doğ us
bil işim</w>
bas ına</w>
ab akat</w>
Clin ton</w>
çalış malar</w>
vade de</w>
tale bi</w>
ov ision</w>
nispet en</w>
meclis in</w>
mal ıyız</w>
m im
itha lat
ist ler</w>
ilerle menin</w>
hazır lanıyor</w>
er ini</w>
emin im</w>
ebil mesi</w>
der in
boy ut
ben ce</w>
bar ikat
as ıl
ar e</w>
F er
3 8</w>
şik ayet</w>
t avr
oy ların</w>
lar sa</w>
kısm ının</w>
kuzey indeki</w>
kullan ıl
koz y</w>
kar iy
kap alı</w>
kamuoy una</w>
et mekte</w>
aktar dığına</w>
ak lama</w>
S en
R ap
P utin</w>
Oy unları</w>
Milos oski</w>
Aleksand ar</w>
199 3</w>
0 .</w>
ü l</w>
çıkar ıldı</w>
çöz ülmesi</w>
ul a</w>
t ıb
sah te</w>
oynad ığı</w>
oper atörü</w>
muha fazak
kullan ımı</w>
konu larda</w>
kad ar
işle v
it sa</w>
gir en</w>
gerçekleş mesi</w>
bloğ a</w>
a larına</w>
Y er
Sar kozy</w>
Konse y</w>
Hakk ındaki</w>
Eur ovision</w>
Dav or</w>
C er
4 6</w>
199 6</w>
şik ayet
y um</w>
rol ünü</w>
lin g</w>
hoş gör
elektr onik</w>
başken ti</w>
ay d
ak si</w>
a ğ</w>
Yönet im</w>
Ste in
S lav
R am
Port ek
P S</w>
M ad
I gor</w>
ı larıyla</w>
çaba larının</w>
z inc
s üb
otomo bil</w>
ma liye</w>
luk ta</w>
kurul masını</w>
istikrar ın</w>
istedi k
hap se</w>
gi diyor</w>
emek lilik</w>
eli nden</w>
el ç
e g
dü ler</w>
V en
Siyas i</w>
S DS
Mil ovanoviç</w>
K it
Dani el</w>
Dan im
C an
yaptır ım
var lığını</w>
müş tü</w>
larımız ı</w>
kır sal</w>
kit ap</w>
kaçakç ılık</w>
k ı</w>
iz liyor</w>
iz len
harek etin</w>
hal de</w>
güven liğini</w>
göster mesi</w>
düzen len
bul uş
ber ab
beledi y
ar alı</w>
Stan koviç</w>
Ne b
Laz ar
H el
4 8</w>
ümü z</w>
çalış mak</w>
u f
tas lağ
sürdür dü</w>
söyle y
söy leniyor</w>
sistem ine</w>
rüş vet</w>
r u</w>
karar ına</w>
ka bul
h ek
g â
etkinlik lere</w>
amp ;</w>
ama n</w>
U AD</w>
Sta nd
SDS M</w>
R ic
Ele ktr
Bakoy anni</w>
B rez
B oy
& amp;</w>
Ş ef
ız a</w>
ver meyi</w>
un e</w>
um un</w>
ta bii</w>
oy un</w>
lüğ üne</w>
göst eri</w>
geçir me</w>
fin al
edece ğ
ed eral</w>
bölg esindeki</w>
asker ler</w>
arke olog
ada m</w>
Mil oş
Hab er
ülke m
yol oj
un uz</w>
tutuk lanması</w>
t ıkları</w>
sistem in</w>
sağla dığı</w>
re h
r ov
protok ol
ot el</w>
n o</w>
mükem mel</w>
inşa at
ihtila f</w>
hükümet ine</w>
g an</w>
fazlas ını</w>
faaliyet lerini</w>
etkin liği</w>
el den</w>
destekle meye</w>
d ıktan</w>
bir leşme</w>
bildir il
b ay</w>
at or
Y az</w>
Sağ lık</w>
P lus</w>
Miloş eviç</w>
L ab
H a
Dur res</w>
öl ü</w>
çab uk</w>
yönetim inin</w>
yargı ç
yans ı
vatand aş</w>
ut sch
sistem inde</w>
seçim lerine</w>
kon ut</w>
im ha</w>
hakk ına</w>
e b</w>
c ılar</w>
bildir diğine</w>
b ini</w>
aleyh indeki</w>
Vak fı</w>
H ür
4 7</w>
ılığ a</w>
üy esinin</w>
önlem ler</w>
z emin</w>
yum uş
ut an
sağla yacağını</w>
proj eyi</w>
or ada</w>
oluştur ul
mak ro
küç ül
kan ıt</w>
has sas</w>
haf if</w>
gözlem ciler</w>
ar an
and ığı</w>
anayas aya</w>
ak sine</w>
S ü
Neb oj
Lefkoş e</w>
E t
Böl gesi</w>
B iz
çek en</w>
Ö ğ
yüksel di</w>
tıb bi</w>
sonuç lara</w>
ras t
olan lar</w>
mülk iyet</w>
mes le
kr ize</w>
kontrol ü</w>
kim senin</w>
ih tiyat
ih ale</w>
i bil
hiss esini</w>
h il
geç miş</w>
gazet e</w>
ey n
erte len
birleştir me</w>
ağ a</w>
R ice</w>
Orta doğu</w>
K ol
G re
F ak
B es
Akadem isi</w>
4 1</w>
İsp an
ücret siz</w>
özerk lik</w>
Ç oc
yap acağını</w>
t in
sin yal
sandal ye
r iyet</w>
plan ına</w>
org an</w>
im iyle</w>
hizme ti</w>
h t</w>
eli m
c en
bil ir
bağım l
an ket</w>
Ziv koviç</w>
T eş
G ra
E cho</w>
Bayra m</w>
5 1</w>
İş çi</w>
utsch e</w>
traf ik</w>
t öre
re fah</w>
oyn anan</w>
ol muştu</w>
muh teme
metr elik</w>
kur b
kullan arak</w>
işk ence</w>
im iz
göster mek</w>
gerek ir</w>
festival in</w>
f P</w>
değişik liği</w>
cağ ından</w>
baş ından</w>
bakanlığ ından</w>
U SA
P fP</w>
Od ası</w>
Ob ama</w>
HI NA</w>
Da ir
4 2</w>
çık ara
yolsuz luk
yol un</w>
ulaş mak</w>
skand al
performan s</w>
per ak
n iki</w>
lık lara</w>
kur maya</w>
kor uy
karşıla ndı</w>
dayan ıyor</w>
bölge yi</w>
ağ ının</w>
USA ID</w>
Kuvvet leri</w>
Gen ç
G ele
Cumhur iyet</w>
1 .</w>
şam pi
ıl ım
var ılan</w>
usul süz
topl uma</w>
suç lan
seç ilen</w>
ola s</w>
n ih
mütte fik
müf ett
muhteme len</w>
kullan ıc
katılım cı</w>
in ternet</w>
im de</w>
getir diğini</w>
gelece ğe</w>
f re
f ah
durum dan</w>
başkanlığ ındaki</w>
bal ık
anlaş tılar</w>
Valen tin</w>
Neboj sa</w>
Kras niki</w>
Hür riyet</w>
G i
Fil ist
Cumhur başkanlığı</w>
zanl ının</w>
yon unu</w>
s ıf
s inden</w>
rej imi</w>
r osu</w>
program ın</w>
of t</w>
od ak
nüf uz
mik tar</w>
mal z
m it
ler imiz</w>
konu larında</w>
kesim inde</w>
ju g</w>
isti an</w>
ilerle meye</w>
i -</w>
güc ünü</w>
g ü</w>
em r
duy gu
durum unu</w>
der s
aç ma</w>
artış la</w>
ara p</w>
Top i</w>
Sırp ları</w>
S ov
M us
In zko</w>
E x
E nd
D iy
D ir
Balk an
B ro
ş er
ülke lerini</w>
öl üm</w>
ö f
çıkar ılması</w>
taraf lar</w>
sürdür meye</w>
sürdür me</w>
sergil en
p aras
mağ dur
ma r</w>
land alı</w>
lan d</w>
kon se
gün leri</w>
en lerin</w>
dir en
aşır ılık</w>
amaç lanıyor</w>
ala cağı</w>
Uy gu
K ir
K K
Bak anlığ
Avustr alya</w>
1 000</w>
ş ub
ül tesi</w>
çık art
veril miş</w>
sı cak</w>
süre çte</w>
sun uyor</w>
rezer v
ordu s
milyon larca</w>
m u</w>
la masına</w>
karşıla mak</w>
iyim ser
h lı</w>
doğ um</w>
bulund ur
bir ine</w>
bi yat</w>
at eş</w>
ara ba</w>
an ov</w>
Tan jug</w>
P ac
Gen elkurmay</w>
F ac
D eğ
Aç ık</w>
1 7
şüphe len
önem lidir</w>
yer inde</w>
top landı</w>
söz cü</w>
ro y
mü yor</w>
l ini</w>
kriter lerini</w>
konferans a</w>
iş imi</w>
hedef leniyor</w>
e meyeceğini</w>
doğus undaki</w>
dey işle</w>
al masına</w>
abil mek</w>
Suç ları</w>
Politik a</w>
K ul
J ac
Dus an</w>
. com</w>
çaba lar</w>
yetkil ilerinin</w>
yatırım lar</w>
yatır ımı</w>
ver eceği</w>
v ir
v anya</w>
us unun</w>
s is</w>
ros oft</w>
ri d</w>
olma yacağını</w>
lı yorlar</w>
j iç</w>
in al</w>
has ta
gönder di</w>
grup ların</w>
gre v
gor ta</w>
gazet esinde</w>
g ari</w>
fark ında</w>
et tiğ
di stan</w>
di sip
dak ik
ceza ev
ce ği</w>
bun lara</w>
açılış ını</w>
acak ları</w>
Pet ar</w>
Mo is
Mic rosoft</w>
M c
J ean</w>
De utsche</w>
A I
İngil iz
ürün leri</w>
örgüt leri</w>
yeter ince</w>
sen ar
sav aşı</w>
r en</w>
n edir</w>
mağ lup</w>
lu yor</w>
lend a</w>
iş in</w>
iyileştir me</w>
ik iye</w>
hedef leri</w>
geçir di</w>
değişiklik lerin</w>
der ek</w>
de le
dava da</w>
ces aret</w>
beş inci</w>
belge leri</w>
başlangı ç</w>
as gari</w>
al ılar</w>
a mak</w>
L üb
Kür distan</w>
şah ıs
ı larda</w>
İstat istik</w>
Ödül ü</w>
yıl larında</w>
uygulan masını</w>
u yoruz</w>
tat il
tan e</w>
sun ul
sit esi</w>
rapor un</w>
pazar lık</w>
p han
p ayı</w>
ov ar</w>
men lerin</w>
mağ az
harc an
bek ley
başlat ılması</w>
başla ma</w>
başar dı</w>
baş ara
ayrımc ılık</w>
ark asında</w>
aktar dığı</w>
Y usu
T ah
Sch il
Pr lenda</w>
N ano</w>
KK TC</w>
G ünü</w>
Dub rov
Büt ün
şimd ilik</w>
ığ a</w>
İkti dar
yür üy
yön elt
yol unun</w>
y üz</w>
tören inde</w>
tazmin at</w>
son baharda</w>
sağla ması</w>
p sik
op oulos</w>
o da</w>
nok tas
makro ekonomik</w>
lık tan</w>
liğ inde</w>
ler dir</w>
is kop
getir ildi</w>
genç lerin</w>
festiv ale</w>
S on
Mois iu</w>
C alin</w>
8 5</w>
2 ,5</w>
ıl mıştı</w>
çatış malar</w>
y elik</w>
taş ın
söyle diği</w>
su bay
san tra
sah ne
kara yolu</w>
i g
geç ecek</w>
gerçekleştir diği</w>
eya let</w>
ek ip</w>
c ev
bul gu
br onz</w>
açıkla ması</w>
ala cağını</w>
S ara
Mar oviç</w>
G eliş
ığ ından</w>
İler leme</w>
İ h
yönetim indeki</w>
uygulama da</w>
u li
s ol</w>
num aralı</w>
mis yon</w>
mesele ler</w>
köpr ü</w>
kiş iye</w>
kal ması</w>
istat istik
in iç</w>
haber ler</w>
göç men</w>
el inin</w>
ak ar
ad r
a at</w>
Sü ley
S F</w>
Muha met</w>
M ur
J on
Gen işleme</w>
D ej
çöz üle
çer çeve</w>
va c</w>
tut uyor</w>
t ini</w>
suçlama ları</w>
sa d</w>
par anın</w>
pah alı</w>
ner ede</w>
mahke me
kur ban</w>
kim in</w>
k ila
k et
iş ç
isti yorlar</w>
in o</w>
ib une</w>
i dar</w>
göster gesi</w>
geçir il
gener al
finans man</w>
f eri</w>
f at
eğit imi</w>
can lı</w>
b er</w>
Z aman</w>
P DK</w>
Al tın</w>
şeh ir
ş e</w>
İspan yol</w>
önem i</w>
çalış tı</w>
yer e</w>
yaklaş ım</w>
y iy
top lama</w>
tan ıyan</w>
ta cak</w>
t z</w>
se s</w>
sağlama k
s in</w>
protest oc
oluştur ulması</w>
ol masından</w>
o ana</w>
mektup ta</w>
l ine</w>
izle di</w>
iktidar a</w>
ebil mek</w>
e bo
bir den</w>
anali z
am ir</w>
V eli
Nat asa</w>
Mıs ır</w>
Kor id
Ah me
çalış tığı</w>
yak ından</w>
tü ler</w>
taşı dığı</w>
t ına</w>
süb vansi
seçim lerini</w>
sağlan acak</w>
san ık</w>
nokta da</w>
mensu p</w>
m ıyorum</w>
m ot
l oviç</w>
kü r</w>
ku ş</w>
kaynak lanıyor</w>
ibil ite</w>
him ma
gel miş</w>
g ili</w>
fik ri</w>
dev ra
cak ları</w>
bildir ge
başlan g
baş bakanın</w>
b inin</w>
alan ları</w>
al ık
Vla do</w>
S al
MI A</w>
Fac ebo
D on
Bu d
üz ün
ülke lerindeki</w>
ülk esinde</w>
çıka r</w>
yaş andı</w>
töre nde</w>
tedbir lerin</w>
sorun larla</w>
seç ti</w>
savaş ın</w>
operas yonu</w>
mut abakat</w>
koşul lar</w>
kon uyu</w>
iy as</w>
istikrar a</w>
ila ç</w>
gönder diği</w>
dolar a</w>
danış manı</w>
büyüy en</w>
belir leme</w>
baş lıyor</w>
ay dan</w>
as tr
W .</w>
Tr ibune</w>
Teş kila
S K</w>
Rady o</w>
K az
Jo hn</w>
Gü cü</w>
G 17</w>
Fu arı</w>
Div anı</w>
C eliç</w>
And re
199 7</w>
üm ünü</w>
ç ılık</w>
zorun lu</w>
yolsuzluğ a</w>
yetk isi</w>
teşek kür</w>
sür pr
sektör üne</w>
sektör ündeki</w>
profesyon el
olduğ umuz</w>
mu r</w>
kullan an</w>
katıl mayı</w>
k ıl
ju b</w>
hedef ini</w>
gör düğünü</w>
finans man
et menin</w>
et mektedir</w>
düzenle diler</w>
düz elt
de pr
d ım</w>
bilg ileri</w>
ben i</w>
as tır
ak is</w>
S öz
Progra mı</w>
Facebo ok</w>
Av ro</w>
Amerik alı</w>
6 2</w>
İv an</w>
çif t</w>
v ski</w>
tü phan
tarih ten</w>
taraf sız</w>
sorumlul uk
saldır ıları</w>
saf ha
on e</w>
li man</w>
kut ladı</w>
kol t
kav uştur
karar laştır
hu a</w>
h ayr
desteğ iyle</w>
bi tir
bay anlar</w>
an lık</w>
alışver iş</w>
Vuk ovar</w>
S iv
E F</w>
Ak ımı</w>
İktidar daki</w>
çalış anları</w>
zanl ılarının</w>
yol una</w>
yen in</w>
yan ından</w>
sır ayı</w>
seçmen ler</w>
se fer</w>
sa ha
s os
rak ip
oluştur ma</w>
olay ların</w>
kes im</w>
kal mış</w>
is iç</w>
il leri</w>
güvenil ir</w>
göster meye</w>
ger eğini</w>
f ik</w>
du m</w>
belir lenen</w>
b et
ar ın</w>
ad ır</w>
S in
Mir ko</w>
Har is</w>
Fil ip</w>
ıl dığında</w>
üye li</w>
yolsuzluğ un</w>
yaz ı</w>
uc uz</w>
tören ine</w>
sür düğü</w>
suç lar</w>
spon sor
sorumlul uğunu</w>
sin e
s ic
reform lara</w>
oran ları</w>
mu az
mas ıdır</w>
li ber
katıl dılar</w>
insan lara</w>
göz et
gör dü</w>
eyalet te</w>
büyü menin</w>
bilg ilere</w>
bask ın</w>
ama z</w>
ama dı</w>
Yusu f</w>
W il
V es
Schil ling</w>
O M</w>
Ge oana</w>
F re
Boş nak
Anlaş masının</w>
5 3</w>
ıs ız</w>
ı larında</w>
öğren im</w>
yardım ıyla</w>
veril mesini</w>
uygulan masına</w>
taraf ların</w>
t ıp</w>
serg ide</w>
rüz gar</w>
nit eli
n as
mü hend
muaz zam</w>
lider lik</w>
le dil
larımız ın</w>
la ik
iyileştir ilmesi</w>
hedef lerine</w>
ham le
er mesinden</w>
düş en</w>
d ra
böyle ce</w>
avu kat</w>
Z eljko</w>
Ti hiç</w>
Portek iz</w>
P I
Konj ik
K i</w>
Dubrov nik</w>
Alexand er</w>
şiddet le</w>
ım ında</w>
ı f</w>
zanl ıları</w>
yap ı</w>
say ıdaki</w>
oğ raf
ol jub</w>
mü himma
l ilik
kend isinin</w>
kay gı
karış ık</w>
iş g
insan lık</w>
dal ında</w>
ce ğini</w>
c iddi
bilim sel</w>
bildir i</w>
Zv etkoviç</w>
Her ald</w>
F onu</w>
F A</w>
Dev let
Bütün leşme</w>
üye lerinden</w>
zor la</w>
yok tur</w>
ta c
proj esinin</w>
par ator
on ur
oluştur duğu</w>
kuruluş larının</w>
kaynak lanan</w>
kali te
işbirli ğiyle</w>
iyileş me</w>
itir af</w>
im tiy
haft alık</w>
gönül lü</w>
g oviç</w>
fiz ik
bütün leş
blo k</w>
bilg iler</w>
bar ışı</w>
bar ındır
bal ta
at ılan</w>
Yard ım</w>
X in
T at
T as
Stojan ovska</w>
Pek in</w>
L A</w>
Kar ş
G ro
Böl gesel</w>
B a
2 .
özgür lük
çıkar larını</w>
zir ve</w>
zanl ıların</w>
yet en
tur u</w>
sür esinin</w>
sonuç larını</w>
s h
per spek
mün as
münas eb
mesele leri</w>
mah al
list esinde</w>
kurt ul
kriz den</w>
k ış</w>
izle yen</w>
ist ekli</w>
hak lı</w>
görev inden</w>
gra d</w>
ef san
e lerinde</w>
başkan ları</w>
at ma</w>
Xin hua</w>
Pet er</w>
P i
Nat aşa</w>
Konjik usiç</w>
Hristof iyas</w>
H e
Bar b
üye lerine</w>
örgüt ünün</w>
önc ül
öde y
yıl larca</w>
ul uk
u ları</w>
toprak larında</w>
sorun larını</w>
sergil e
say ılı</w>
ris k</w>
nd ığı</w>
met z</w>
m ızı</w>
kay ak</w>
k aldığı</w>
il ler</w>
hay ır</w>
geç iyor</w>
ekonom ist</w>
e deki</w>
değiş en</w>
bölg esine</w>
bil eceğini</w>
al masını</w>
ail esinin</w>
V at
U laştırma</w>
Turk ish</w>
San ay
Ramaz an</w>
M üst
Bank a</w>
ırk lı</w>
İngiliz ce</w>
ülk esinden</w>
yürüt tüğü</w>
yarar lı</w>
yap ma
uygu laması</w>
savc ılık</w>
piyas a</w>
pazar ına</w>
ot el
mu ad
le di</w>
kur ul</w>
kil ise</w>
gözlem c
gir mesi</w>
eğ inin</w>
dev re
dava ları</w>
dahil inde</w>
başkent inde</w>
b atı</w>
azalt mak</w>
alın mış</w>
al ıyorlar</w>
ak ıl
T aki</w>
Rap or
Pap ad
C on
Ag im</w>
6 7</w>
6 3</w>
ı larla</w>
İst ih
çif te</w>
çağır dılar</w>
yo la</w>
um uzu</w>
ug en</w>
tan esi</w>
stratej isi</w>
plat form
par ti
ordu su</w>
nüf usu</w>
katılan ların</w>
ist iş
gün ler</w>
görül düğü</w>
görev de</w>
ger eği</w>
fut bol
er dir
ed r
dok tor</w>
ay dır</w>
ark o</w>
and iç</w>
Türk ler</w>
R os
R es
Müst eş
Maked on
L it
Konse y
HI V</w>
H ind
şüp he</w>
öl çek
vet o</w>
te y
sır adan</w>
say ımı</w>
s man</w>
münaseb etiyle</w>
kırık lığına</w>
komis yonu</w>
ind ey
hey kel
hem şir
gidi ş
eş lik</w>
etk ileri</w>
elen e</w>
dünya daki</w>
değer inde</w>
bel genin</w>
amac ının</w>
ad de
U PI</w>
St re
Ordu s
Lüb nan</w>
Lab us</w>
Boz idar</w>
Bağım sız</w>
B ram
0 .000</w>
İl gili</w>
ülk esine</w>
ükü m</w>
yatırımc ıların</w>
uç ak</w>
ut ov</w>
teşkila tı</w>
taraf tan</w>
rak ibi</w>
ord ine</w>
olma lı</w>
mer tz</w>
lay ık</w>
l y
ko ordine</w>
kal ınt
işle yen</w>
ilg isi</w>
h ır
gerekç esiyle</w>
er tesi</w>
arkeolog lar</w>
an iç</w>
ak tör
Sila y
Ric hard</w>
Profes ör</w>
Nor veç</w>
Mahke me</w>
H er</w>
Bram mertz</w>
Barb utov</w>
AK I</w>
5 6</w>
ılabil ecek</w>
ül e</w>
çalış tığını</w>
vide o</w>
u dur</w>
toplant ısına</w>
standart ların</w>
proj ede</w>
plan ladığı</w>
p ort
p landa</w>
n ci</w>
mo on</w>
med yanın</w>
kış kır
ist er</w>
ihla l
görü le
gönder il
fil min</w>
ek a</w>
dak ika</w>
artış ı</w>
an lara</w>
alan lar</w>
Mar ko</w>
Kov ac
I S</w>
5 4</w>
3 9</w>
üy ü</w>
çocuk ları</w>
çek iş
çalış acak</w>
yatırım ları</w>
yara landı</w>
tele kom</w>
te st
taşımac ılık</w>
sür üldü</w>
sok ak</w>
part ilerinin</w>
olay ın</w>
not unu</w>
med ya
maliyet i</w>
la masının</w>
karar ları</w>
ka ğ
i e</w>
ha m</w>
h üküm</w>
güçlendir ilmesi</w>
gir ecek</w>
gerek tiğ
f ederas
em ri</w>
düz gün</w>
değ in</w>
bür ok
başla dığı</w>
b et</w>
ar ş
an ma</w>
al ıp</w>
Z e
Se çim
Ni metz</w>
K ab
Iv an</w>
E st
B ür
ı -</w>
İv ica</w>
İttifak a</w>
öncelik li</w>
zama ndan</w>
za manın</w>
yas ak</w>
un cu</w>
tah v
sız ın</w>
standart lara</w>
sorumlul uğ
siz in</w>
serg isi</w>
sağ lanan</w>
saldır ılar</w>
sahip leri</w>
s lo
os una</w>
or e</w>
ob el</w>
list esinin</w>
kuvvet leri</w>
ku l</w>
kend ini</w>
ka h
il li</w>
heyet inin</w>
g ah
dev lete</w>
dav et
aç abilir</w>
ayr ılık
Pak tı</w>
M eta</w>
J ankoviç</w>
F TA</w>
B in
A T</w>
İv anoviç</w>
önem lisi</w>
yol lardan</w>
yayın lan
yatırım cı</w>
turiz mi</w>
sur etiyle</w>
sun an</w>
sonuç lan
sanay ii</w>
ruh sat
op oli
on ar
ol dular</w>
mis yonun</w>
ler imizi</w>
kö tü
kilo metrelik</w>
kararl ılığını</w>
iğ e</w>
dönd ü</w>
din am
değ ildi</w>
derece lendirme</w>
bölge lerinde</w>
birli ğinin</w>
bir inc
bağımsız lığının</w>
aş ama
azalt ma</w>
ayak ta</w>
ay dı</w>
anlaş maları</w>
an ah
ali z
ak ra
Siv il</w>
Harek et</w>
H il
G ör
D est
C r
Boj ana</w>
Az er
şans ını</w>
ın lar</w>
ıl ıkları</w>
çatış ma</w>
yap ım</w>
uzlaş maya</w>
teşek kül
mis yonunun</w>
mesa f
mahke meyle</w>
lik ten</w>
lik te</w>
kala balık</w>
iyileştir mek</w>
im lerini</w>
ilişk ilerde</w>
hes ab
gru bunun</w>
girişim in</w>
g es
dün yasında</w>
belir siz
be yaz</w>
başlat ıldı</w>
b ro
a h</w>
T uz
Süley man</w>
Hind istan</w>
Haber leşme</w>
F o
Dimitr ova</w>
Brez il
Boy ko</w>
B ut
B elene</w>
Adri an</w>
1. 000</w>
ın cı</w>
çıkar ma</w>
yol cu</w>
ye mek</w>
yaz ılı</w>
yay ı</w>
yarat mak</w>
u larak</w>
toplum lar</w>
toplant ıdan</w>
t aban
st ant
sin ema</w>
say dı</w>
re nd
politik asını</w>
p ratik</w>
o lik</w>
muha li
luğ unu</w>
kul landı</w>
koalis yonunun</w>
kan un
kademe li</w>
it i</w>
in ti
hak larına</w>
gide cek</w>
geç erek</w>
geliştir mek</w>
eyalet teki</w>
end ik
dest eğin</w>
ash i</w>
Top lum</w>
Silay ciç</w>
H uk
Fak ültesi</w>
Dir ek
Bur gaz</w>
A N
5 7</w>
şark ı</w>
İr landa</w>
ö z</w>
çek mek</w>
zirv esi</w>
yük sek
yok sun</w>
yaz ılım</w>
yar ısı</w>
yapt ılar</w>
y iz</w>
verg isi</w>
tutuk ladı</w>
tedav i</w>
seçen ek</w>
rakam ın</w>
proj esine</w>
politik asının</w>
parlamento ya</w>
oto yol</w>
olabil eceği</w>
lığ ıyla</w>
lik lerini</w>
le y</w>
le d
la masını</w>
kurum lara</w>
kaldır ma</w>
k ız</w>
itha lat</w>
ilan oviç</w>
hükümet le</w>
e mey
c esi</w>
bulun madığını</w>
blo g
benz eri</w>
at ıf
alın masını</w>
a larında</w>
V u
R ah
Ljub lj
Kam u</w>
Hıristiy an</w>
D üz
Azer bay
şaşır t
ım la</w>
İnsan lar</w>
ü ler</w>
ç ılar</w>
yor sunuz</w>
yas asını</w>
se ver
r y</w>
komp lek
ist er
imzalan ması</w>
ilgil endir
il y</w>
hava alan
görüş lerini</w>
gelen i</w>
ge la</w>
ekonom iyi</w>
e z</w>
destek li</w>
da lar</w>
bütç esi</w>
birleş ik</w>
aç ığını</w>
ati on</w>
ar ına</w>
and ır
anayas anın</w>
Mü dür
Luk iç</w>
K ay
J adr
F rat
B ü
5 2</w>
ülke yle</w>
ör neği</w>
öner isi</w>
öncelik leri</w>
çöz ümün</w>
yon ları</w>
yar ısında</w>
yan gın
taşı dığını</w>
tartış maya</w>
t esinde</w>
sığın ma</w>
suç ların</w>
rat ik
person eli</w>
onay lanan</w>
nit ele
müz is
mas ız</w>
kullan ıyor</w>
komis yonun</w>
hükümet ler</w>
hakk ını</w>
h üc
güney indeki</w>
ge li</w>
fikr ini</w>
el ver
doğal gaz
c ih
başkan ının</w>
b oğ
aras ına</w>
an in</w>
a v</w>
Z ir
Sila hlı</w>
P ir
K op
G a
Den izi</w>
C om
6 6</w>
4 9</w>
ım ından</w>
çalış ıyorlar</w>
yaklaş an</w>
ya lan
w eb</w>
vatandaş lara</w>
u çağ
tr en
sun uldu</w>
st ik</w>
sa m</w>
milletvekil lerine</w>
m ız</w>
isti yorum</w>
ine lerce</w>
he v
he ugen</w>
getir erek</w>
ge mi</w>
füz e</w>
fa f</w>
ege men</w>
destek lenmesi</w>
dava ların</w>
da imi</w>
ce a</w>
bulund uğ
başla masından</w>
atıf ta</w>
asker lerinin</w>
amaç lıyor</w>
ale v
Ver heugen</w>
Pr iz
Kost ov</w>
Danim arka</w>
şef faf</w>
şark ıcı</w>
Şim şek</w>
Şef faflık</w>
çıkar larına</w>
ç ilik</w>
zeng in
yoğun laş
yol c
uğ rat
tut um</w>
tut tur
t el</w>
sürpr iz</w>
sorun la</w>
siy le</w>
rapor unu</w>
or t</w>
o le
kışkır t
karşıla yan</w>
it a</w>
ist e</w>
im kans
iliş ki</w>
gur ur</w>
gen el
eğ ine</w>
ev et</w>
e lerinden</w>
dönem in</w>
dav ayı</w>
bl ok
bil iyor</w>
baz ılarının</w>
az alma</w>
artır dı</w>
ara cı</w>
ail esi</w>
S v
S ol
Radi o</w>
Ko alis
Dav id</w>
Da ily</w>
İttifak ı</w>
yasa lara</w>
yar ım</w>
var dır</w>
var an</w>
ur n
tut mak</w>
terör ist
tarih e</w>
taraf ının</w>
puan la</w>
poli sinin</w>
may ıp</w>
lar ın
la mi</w>
kuruc usu</w>
kur ucu</w>
k aldığını</w>
im a</w>
hafta larda</w>
görev lerini</w>
g o</w>
er ecek</w>
endiş elerini</w>
doğ ur
dav r
c er
belir lenmiş</w>
baş ka
at ın</w>
a larda</w>
V l
T it
S ın
Ke mal</w>
I rak
Frat tini</w>
Finan ci
Azerbay can</w>
Ay han</w>
öğrenc ilerin</w>
çıkar mak</w>
ç li</w>
y m
u ya</w>
talebi nde</w>
sun ulacak</w>
si gorta</w>
oyn ama
ok oviç</w>
nitelendir en</w>
mü r</w>
kurum larını</w>
kay ıp
k ör
k ald
iler ley
il ç
har ici</w>
geçer siz</w>
geliş imi</w>
f ederal</w>
düş man
düz inelerce</w>
bölüm ünü</w>
bir iydi</w>
bi ç</w>
belge yi</w>
bakanlığ ına</w>
al mıştı</w>
T üz
Sor en</w>
S ec
P am
For umu</w>
Büyükel çi</w>
An gela</w>
şüp hes
ıs rar
öncelik le</w>
çıka cak</w>
turist ler</w>
ter ler</w>
tehdi di</w>
t et
suç un</w>
su r</w>
sa dık</w>
ro s</w>
re di
politik aları</w>
p res</w>
otur um</w>
mec lisi</w>
kuzey de</w>
kan alı</w>
k er
inan ıyorlar</w>
gün eş</w>
geçir mek</w>
gazetec ilerin</w>
fon lar</w>
fat ur
eb ev
di j
dağıt ım</w>
bölg esinin</w>
berab er
bek lendiği</w>
başla dığını</w>
bask et
açıkla masına</w>
at a</w>
S c
Mar ija</w>
M as
L iz
Kat him
ER B</w>
CE FTA</w>
C ol
İkti dar</w>
ü las
çağır an</w>
z ede
yap ılanma</w>
top lanan</w>
ten is</w>
sorumlul uğu</w>
sor una</w>
sektör ünü</w>
sah ası</w>
olma dığ
ol masa</w>
mücadele nin</w>
memur ları</w>
man tık
le s</w>
lat ko</w>
kay a</w>
katılım ını</w>
karar da</w>
k anı</w>
ir iç</w>
im le</w>
fizik sel</w>
fiyat ı</w>
felak et
eleştir ilere</w>
dör t
dur uldu</w>
day anış
birey sel</w>
basın ında</w>
at u
ala ndaki</w>
ad ıyla</w>
abil iyor</w>
Tiyat rosu</w>
Pro j
Priz ren</w>
P C</w>
Kathim erini</w>
Jadr anka</w>
G öre
G ERB</w>
E l</w>
Dnev nik
D E
3 ,5</w>
198 9</w>
ınd ı</w>
üye lerini</w>
çık ardılar</w>
yarg ıla
yan lar</w>
uygu lamak</w>
tartış malara</w>
sür mesi</w>
seviy esine</w>
sektör ün</w>
saat lik</w>
poli se</w>
oy unu</w>
okul a</w>
mal ların</w>
m os
kurum un</w>
kurul masına</w>
konfer ansı</w>
iş areti</w>
it y</w>
hayat ta</w>
hay at</w>
hatır lat
hafif let
görül memiş</w>
d ün</w>
bur aya</w>
baş savcı</w>
arabuluc uluk</w>
ar ındaki</w>
adım ları</w>
V uc
O li
K LA</w>
Dej an</w>
şart ların</w>
şampi yonu</w>
ş arap</w>
ış ığında</w>
ımız a</w>
Çer çeve</w>
yaz ık</w>
olabil ecek</w>
meş ru</w>
lamak la</w>
kom itesi</w>
ke li</w>
iş li</w>
iş lenmiş</w>
h i</w>
ge v
fak tör
etkil eyen</w>
et mekten</w>
esk iden</w>
ep end
dev i</w>
destek len
caz ip</w>
bulun uldu</w>
bil gilendir
baz en</w>
aş a
Tuz la</w>
Sr bi
Ro han</w>
R az
N obel</w>
Liz bon</w>
Ind epend
I T</w>
E v
E sad</w>
D ora</w>
ü s</w>
çıkar ılan</w>
çıkar ları</w>
çoğunluğ unun</w>
yükse len</w>
yon lar</w>
yas ada</w>
un c
tut an</w>
tama mı</w>
sürdür ülen</w>
rapor una</w>
rak ip</w>
parç alan
p iskop
os je</w>
kurum u</w>
konus unu</w>
kazan ç</w>
k las
if i</w>
hızlandır ma</w>
hep imiz</w>
gâ h
edeceğ iz</w>
e nde</w>
düşün ce</w>
c oğraf
bomb alı</w>
banka lar</w>
bank anın</w>
ay ız</w>
artır maya</w>
an ovski</w>
Teşkila tı</w>
Mla den</w>
M ey
L u
Independ ent</w>
H am
D ağı</w>
ıc ılık</w>
İ vanov</w>
çıkmaz a</w>
Ül ke
yıld ızı</w>
yer lerinden</w>
yaşan ıyor</w>
suçlama lar</w>
savund u</w>
ris ki</w>
r in</w>
nih ayet</w>
nak il</w>
n o
mez ar
mekt up</w>
m b
kur mayı</w>
kend ine</w>
ke s</w>
imzala dığı</w>
ihtiyac ımız</w>
h ız</w>
gündem inde</w>
gün üne</w>
göster ildi</w>
göster il
gör dük
fiz ibilite</w>
etkil e
em i</w>
elik op
dikkat li</w>
day dı</w>
b ek</w>
ayr ılan</w>
V ic
R ek
Pres s</w>
K en
Dnevnik .bg</w>
12 44</w>
İddi ana
öngör üyor</w>
zul üm
zaman la</w>
ye me
yas al
s üz</w>
program ları</w>
p eki</w>
lük teki</w>
karar lar</w>
iş lerini</w>
is imli</w>
hükümet inden</w>
harcama ları</w>
haf taki</w>
et h</w>
er t
elen a</w>
dep rem</w>
c üsü</w>
c el
b est</w>
aç ılacak</w>
at mos
ah h
a lar
Kost eliç</w>
G r
C av
Bulg ar
B raj
9 5</w>
İm parator
ülke lerdeki</w>
önc esine</w>
çaba ların</w>
um i</w>
tur da</w>
statüs ünün</w>
redde diyor</w>
r om
proje lerin</w>
profes örü</w>
on ayı</w>
n u</w>
m iyorum</w>
l or
kali tes
itti fak
in izi</w>
güven i</w>
eylem leri</w>
erk ek
eksik siz</w>
düz el
dön en</w>
duy duğunu</w>
dik tat
destek lenen</w>
cin sel</w>
böl ümünde</w>
bir er</w>
ba h</w>
aş ağı</w>
anlaş mayla</w>
Re form
E li
İs lami</w>
zanl ılarını</w>
tü tün</w>
tab i</w>
suç a</w>
sonuç landı</w>
santra l</w>
protesto lar</w>
program ının</w>
ot ob
on e
od or
müzakere lerinde</w>
mücadele yi</w>
merkez inin</w>
me lerinin</w>
luğ un</w>
kurban ların</w>
kul üb
kon ması</w>
karş ıt
kapasit esini</w>
inan ılan</w>
h elikop
görü yorlar</w>
geçir diği</w>
gerçekleştir ildi</w>
et mesinden</w>
ba har</w>
anket ler</w>
W ol
Pr ed
PI C</w>
Kat olik</w>
G ab
Direk törü</w>
DP S</w>
5 8</w>
19 80</w>
ım da</w>
ür ün</w>
z ih
yet iştir
y ö
ver irken</w>
teş h
tekli fi</w>
takım ının</w>
seçim lerinden</w>
re fah
oy lamada</w>
otor it
o d</w>
mü dür</w>
mahk um
la masından</w>
kıy ısındaki</w>
koru maya</w>
kil o</w>
kapsam ındaki</w>
iş adamı</w>
ind i</w>
hükümet ten</w>
haber de</w>
ha c
gözlem ci</w>
getir ilen</w>
fabrik ası</w>
etraf ında</w>
edecek tir</w>
düzenle yen</w>
duy uyor</w>
diğ inden</w>
diplomat lar</w>
cin siy
başkanlığ ına</w>
bakanlığ ın</w>
bah se
b ina</w>
açık landı</w>
SN SD</w>
P as
Konfer ansı</w>
Kam p
J ov
Hol keri</w>
An t
A NA</w>
şirket lerinin</w>
ş i</w>
ıla cağı</w>
özgürlüğ ünü</w>
Öz el
yükse li
uzun luğ
uzak laştır
un lar</w>
teşekkül lü</w>
t raj
spor cu</w>
sa bah</w>
program da</w>
pazar ı</w>
p il
oluştur mak</w>
me liyiz</w>
ma le</w>
la h
kasab ası</w>
kala cağını</w>
izle mek</w>
istiş ar
inan ıyoruz</w>
in ska</w>
hav ali
has ta</w>
git mek</w>
gir mek</w>
fiyat lar</w>
değ in
aç tığını</w>
azalt ılması</w>
ala ma</w>
Schw arz</w>
S DA</w>
Ras im</w>
Nic h
K ız
K SF</w>
Est onya</w>
Dah a</w>
Bog d
B SP</w>
7 2</w>
ümüz de</w>
ver mişti</w>
ti z
t üş
sun mak</w>
protest olar
program ını</w>
oper atör
on i</w>
olma ya
muhalef et
mesele yi</w>
merkez iyet</w>
me b
makam ların</w>
ma ma</w>
lüğ ünün</w>
lama ların</w>
la cak</w>
kullan mak</w>
kom ite</w>
ko lek
kategor isinde</w>
kap sa
kala bal
iz min</w>
ilişk iler
gü d
finans manı</w>
fi ili</w>
durum larda</w>
diyaloğ u</w>
dah i</w>
cumhurbaşkanlığ ının</w>
büyü meyi</w>
başla dılar</w>
aç mayı</w>
Uygu lama</w>
Ter ziç</w>
Rom an
Papad opulos</w>
Kr st
Iv ica</w>
7 8</w>
6 4</w>
ımız ın</w>
üm lü</w>
yıld ız
uygulan acak</w>
sık ış
suç larıyla</w>
suç larla</w>
santral inin</w>
one ws</w>
met re
med yas
mak tır</w>
liğ inden</w>
lan masına</w>
koordin atörü</w>
k im</w>
k esi</w>
işle m</w>
inti har</w>
inan ılıyor</w>
gerçekleştir ilecek</w>
for um
end eks
ele me</w>
eceğ im</w>
değer li</w>
devlet inin</w>
cin ay
benz in</w>
bağ layan</w>
bak ır</w>
ay larında</w>
asker lerin</w>
acak larını</w>
Y aş
W is
V is
Tray kovski</w>
S on</w>
R acan</w>
Part isinin</w>
Kur t
Jo urn
Irak lı</w>
Gü ç
Gro up</w>
G ö
Eur onews</w>
Al t
3 .
20 14</w>
çık tığı</w>
çık ma</w>
yen lerin</w>
yap abil
tör eni</w>
tut t
sar f
sahip ler</w>
p en
n os
muame le
mas aya</w>
lider in</w>
le mi</w>
land ılar</w>
kapsay acak</w>
istif asını</w>
he p</w>
göz ardı</w>
görü yoruz</w>
gelir leri</w>
fon ları</w>
etkin liğin</w>
ede bilir</w>
değerlendir mek</w>
bölge den</w>
bildiril diğine</w>
bağ lamda</w>
ay ar
ara b
S RS</w>
N az
M iha
L ima
Fon iki</w>
Ermen istan</w>
En tegras
ıp kı</w>
ım dan</w>
ıl masından</w>
ıc ısı</w>
İ c
öner iyi</w>
öldür ülmesi</w>
çek me</w>
çaba larında</w>
ya nd
u ca</w>
ter sine</w>
tedar ik
tanın ması</w>
siyas ileri</w>
sit esinde</w>
savc ıları</w>
r an</w>
oz ar</w>
olay da</w>
n s</w>
mültec ilerin</w>
mak in
kaydet tiğini</w>
kat ılabil
j ür
im den</w>
i anu</w>
güc üne</w>
görev leri</w>
gergin lik</w>
fre d</w>
değil ler</w>
değ eri</w>
denet imi</w>
dam g
bir ik
baş bakanlık</w>
bağlant ısı</w>
aş ağ
art masına</w>
ama ç</w>
al ım</w>
Yolsuz lukla</w>
V an</w>
Tar ım</w>
Si me
Journ al</w>
Er gen
Böl ge</w>
Bir likle</w>
A na</w>
3 50</w>
3 .</w>
ön görülen</w>
ölüm c
yarat tığı</w>
yaban c
umu d
um uz
tüm ü</w>
toplum ların</w>
tarih lerinde</w>
tan ın</w>
t he</w>
siyas ete</w>
sak in</w>
potansiy eli</w>
or man</w>
olma dığına</w>
mücadele ye</w>
merkez indeki</w>
lük s</w>
kredi si</w>
kazan ması</w>
im inden</w>
for m</w>
ek on</w>
ebil iyor</w>
den k</w>
başvur u</w>
başlat tığı</w>
başla masını</w>
b eğ
at ması</w>
W elle</w>
Ro ber
Pred rag</w>
Pap a</w>
Nov ak</w>
N a
M en
L at
E ge</w>
9 00</w>
5 .</w>
üyeli ğe</w>
çocuk lara</w>
çey re
yas asının</w>
u d
terc ih
tec av
tah sis</w>
seviy esi</w>
res im</w>
ov ic</w>
la bor
labor atu
kon sol
ke y
kapasit esine</w>
kapasit esi</w>
kaldır mak</w>
ist i</w>
hedef inin</w>
har ika</w>
görüş tüler</w>
geli p</w>
durum unun</w>
dil ek
dij ital</w>
davr anış
bas it</w>
alan larındaki</w>
Yah udi</w>
T he
Sime on</w>
S ez
S ancak</w>
Ramaz anoviç</w>
O C</w>
N ec
M SK</w>
K ır
Financi al</w>
Ergen ekon</w>
Ash ton</w>
Araştır malar</w>
ım ları</w>
ım cı</w>
önc eli
ç iğ
yon unda</w>
yaz ısında</w>
y ük</w>
uç ur
uz anan</w>
usulsüz lük
turist lerin</w>
temsilc ilerinin</w>
st and</w>
p el</w>
ol os</w>
metr ik</w>
kâ r
kural ları</w>
konu daki</w>
kesim indeki</w>
kes e</w>
katılımc ıların</w>
kap ısı</w>
imkans ız</w>
görüş ü</w>
fon ların</w>
ev lerine</w>
ev end
elver işli</w>
dur gun
büyükel çisi</w>
bin ası</w>
bekli yorlar</w>
başla masına</w>
başar ıyla</w>
ay lar</w>
al l</w>
ajans ının</w>
Y an
Wol f
Wis ner</w>
Vl ora</w>
Vet evend
UN IC
Svet la</w>
St oy
Sim iç</w>
Sek er
Sec ur
N IS</w>
Medi a
Ljublj ana</w>
F üle</w>
Europ e</w>
B DP</w>
6 8</w>
şey den</w>
ık larının</w>
ıc ılar</w>
üc ker</w>
ölümc ül</w>
öde mek</w>
yönetim in</w>
ul muş</w>
tik leri</w>
tarih ine</w>
tah mini</w>
suik ast</w>
siyaset çiler</w>
s alg
ro r</w>
reform unun</w>
reform larını</w>
par ayı</w>
olma z</w>
modern ize</w>
metrek ar
me den
lili ğini</w>
lik lerin</w>
kullan maya</w>
kul landığı</w>
işlet me</w>
hedef lerini</w>
hap is
girişim leri</w>
gec esi</w>
ekonom isini</w>
ede v</w>
ede biyat</w>
dönem e</w>
che v</w>
b ık
aş i</w>
ayr ılmış</w>
ans a</w>
alınd ığı</w>
Yunanl ılar</w>
UNIC EF</w>
Tele viz
Svet ozar</w>
Sp iriç</w>
Ser best</w>
S ah
R ücker</w>
Pam uk</w>
Ja mes</w>
Hav a</w>
H aciç</w>
Gab ri
Ey lem</w>
C R</w>
B ilgi</w>
Arnavut ça</w>
8 .</w>
şidde te</w>
ş ans</w>
öğrenc isi</w>
öz et
örgüt ler</w>
ödül ünün</w>
çık mak</w>
çalış ırken</w>
yu kar
yargı ç</w>
var lığı</w>
uyg un
u yorum</w>
tut arında</w>
tem iz</w>
tehlik e</w>
tas lak</w>
t ıpkı</w>
sı cak
st il</w>
sonuç ların</w>
son undan</w>
sağlama yı</w>
savc ıların</w>
sanatç ılar</w>
plan landığı</w>
pat lama</w>
pat lak</w>
o ndan</w>
makam lar</w>
ma lardan</w>
kır mızı</w>
kriz le</w>
kaynak larını</w>
katılım ının</w>
k imi</w>
is yan
ir ler</w>
ir ade</w>
in se</w>
ilişk ilere</w>
ihtiyat lı</w>
his se</w>
genel likle</w>
fir maları</w>
edece ğine</w>
de t</w>
de fa
cumhurbaşkan ları</w>
belir lenmesi</w>
be goviç</w>
aç mak</w>
aç acağını</w>
ar ıyor</w>
ak tör</w>
V an
T P</w>
Seker inska</w>
Kom siç</w>
J e
I I</w>
Hol landalı</w>
Dimit ri
C am
Bo c</w>
Al fred</w>
1, 2</w>
İk ili</w>
örn ek
çalış ıyoruz</w>
ç elik</w>
yürüt ül
yönetic isi</w>
ulu ş</w>
tır man
sürdür mek</w>
sür üyorlar</w>
suikas t
seçim i</w>
par k
nüfus a</w>
nitelik te</w>
mü te
men kul</w>
ma f
l inin</w>
kredi yi</w>
kon an</w>
kayb eden</w>
kal mayıp</w>
iti s</w>
imaj ını</w>
ik isinin</w>
ic k</w>
hazır lık
güç lerin</w>
ger iye</w>
ger isinde</w>
gel mesini</w>
fir manın</w>
fark la</w>
eğ er</w>
eli ndeki</w>
düzey indeki</w>
cema at
bul maya</w>
ağ ın</w>
at tığı</w>
anlaş maların</w>
an ne</w>
al ıyordu</w>
Yar ış
N en
Mil en
Mar ia</w>
M ik
Kr ist
Genç lik</w>
G al
Bu gün</w>
Brezil ya</w>
Bogd anoviç</w>
B N
ülke leriyle</w>
öğret men</w>
yurt dışındaki</w>
yurt dışına</w>
yatırımc ılara</w>
ver iler</w>
tören le</w>
top ladı</w>
tes t</w>
tarih ini</w>
takım ın</w>
t ığına</w>
sağla dığını</w>
sal t</w>
sa lar</w>
nor male</w>
mış lardı</w>
la men
kuvvet lerinin</w>
kurul muş</w>
konferans ında</w>
kim se
kal maya</w>
kal mak</w>
ka bl
ka b
güçlendir mek</w>
güney doğ
gönder me</w>
finan sal</w>
et ler</w>
end iğini</w>
ed iler</w>
duy dukları</w>
değerlendir il
deva mı</w>
cih az
başla mak</w>
b oyu</w>
artır acak</w>
alınd ığını</w>
al makla</w>
Yap ılanma</w>
Seli may</w>
Kom ün
Kar ar
J elena</w>
Hristof yas</w>
C at
Bur ns</w>
Bil jana</w>
B ah
6 1</w>
4 .</w>
önem e</w>
önc eliği</w>
çök üş
yıldön ümünü</w>
yer lerde</w>
yaş lı</w>
yatırım ın</w>
yarat ıyor</w>
yap arken</w>
w w
ve çli</w>
un sur</w>
u ya
tartış mak</w>
sıf ır</w>
sürdür ülmesi</w>
sun acak</w>
s ıyor</w>
perak ende</w>
or man
of isi</w>
müzaker ec
mus unuz</w>
ma bon</w>
ler se</w>
konum unu</w>
koalis yonun</w>
kesint ileri</w>
karış ık
iş ver
is mi</w>
iktidar da</w>
h n
güven ini</w>
göster ilen</w>
görüş lü</w>
düşün ce
düzen lenmesi</w>
düzen i</w>
dün yaya</w>
du var
de k
c az</w>
başlat mak</w>
b at</w>
alışver iş
a larından</w>
T es
S el
Po w
N D</w>
Müsteş arı</w>
Kovac eviç</w>
Ker mabon</w>
H en
Er lis</w>
C ond
5 9</w>
4 ,5</w>
199 4</w>
ün it
üm r
çev res
ç uk</w>
zorun l
ziy ade</w>
yet ecek</w>
yatırım ların</w>
yapıl ıyor</w>
y p
ula cağını</w>
tr ans
tik çe</w>
tan ık
tak dir</w>
t roy
sü t</w>
savun uyorlar</w>
rakam lar</w>
olma lıdır</w>
ol og</w>
mevkid aş
men fa
me deki</w>
man oviç</w>
mahke mede</w>
la masıyla</w>
kullan ılması</w>
koy duğu</w>
konu ya</w>
komş uluk</w>
ko ka
kes imi</w>
kazan mak</w>
kav ram
katılım ın</w>
kar g
itibar iyle</w>
hükümet leri</w>
hat t
eur oya</w>
ettik lerini</w>
en k
el in</w>
ekonom iye</w>
eceğ imiz</w>
düzen ley
doğ umlu</w>
c ari</w>
c ar</w>
bulun uyorlar</w>
ağ aç</w>
at öl
analist i</w>
T z
Stratej ik</w>
Lj u
H ü
Bit ola</w>
şimd ilerde</w>
şef faflık</w>
şa ir</w>
İn şa
öl dü</w>
Ç inli</w>
zirve ye</w>
yaşam ını</w>
yard ıma</w>
var lık</w>
uyar ı</w>
telef on
sürec indeki</w>
suç larından</w>
say ısız</w>
saf has
s eri</w>
res cu</w>
por t</w>
plan la
organiz atör
olay larının</w>
müz e</w>
muad ili</w>
mahke mesinde</w>
ma larında</w>
la f
kontrol ünü</w>
karış tır
istat istik</w>
is iz</w>
il o</w>
hoşgör ü</w>
hedef leyen</w>
engel lemek</w>
ekib inin</w>
ede r</w>
ebev eyn
depr em
bölüm ünün</w>
bulun ma</w>
bildir iyor</w>
ber aat</w>
at ör</w>
at maya</w>
arke oloji</w>
alt ıncı</w>
aday ları</w>
aday lar</w>
Z a
Stein er</w>
Rober t
M PA</w>
Kos umi</w>
K ü
H is
A m
A li
özelleştir ilmesi</w>
çek ildi</w>
yenilen ebilir</w>
yen ilik
yap maları</w>
unsur u</w>
tüğ ünü</w>
tören e</w>
tut umu</w>
statüs üne</w>
s ının</w>
raf iner
rad yo</w>
pr en
pek iştir
ort aç
mo bil</w>
maaş ları</w>
land ığında</w>
kuruluş unun</w>
kur ş
kolay ca</w>
kaç ak
kay d
iş siz
it h</w>
im ir</w>
hükümet lerin</w>
gör me</w>
geç tiğini</w>
gerektir en</w>
g uluyor</w>
fin al</w>
fayda lan
ez ici</w>
ev lat</w>
edil mişti</w>
dönd ür
duy la</w>
dolay lı</w>
diğ im</w>
defa larca</w>
c o
bil mesi</w>
bağımsız lığına</w>
ağ ına</w>
at ık</w>
al maları</w>
Ru pel</w>
Robert son</w>
P ara
Müz aker
Müslüman lar</w>
G ar
Fr i
F ena</w>
Dimit rov</w>
Bür osu</w>
ıl masında</w>
ö tesinde</w>
Çoc uk</w>
z i</w>
yen erek</w>
yaş adı</w>
yapıl dığı</w>
vurgu layan</w>
te or
taşı yacak</w>
tat min</w>
sorun lu</w>
sorun lardan</w>
sorum lu
seç ilmiş</w>
serbest leştir
sağla yarak</w>
ru m</w>
rej im</w>
r ası</w>
program ında</w>
performan sı</w>
olma z
ok ulu</w>
nitelendir diği</w>
mus sen</w>
muhafazak â
mac ılar</w>
larımız a</w>
kut lama
kat ına</w>
iğ inde</w>
in ç</w>
in andığını</w>
ilişk ilerinde</w>
ihla li</w>
hat a</w>
han e</w>
güçlük ler</w>
göz lem</w>
gr esi</w>
gerek sin
g ı</w>
fir maların</w>
f asl
etkilen en</w>
engel ler</w>
end en</w>
el ini</w>
ece ğinin</w>
d an
bul uyor</w>
belge ler</w>
başlat maya</w>
bakan ının</w>
Vetevend osje</w>
V it
S y
Pos t</w>
P re
L ist
L eh
Kor e</w>
G ümr
E I
Der v
As keri</w>
A E
ış ını</w>
ız da</w>
ölçek li</w>
zirv esine</w>
zaman ının</w>
yüz yıl</w>
yarat ma</w>
uç uş
turiz m
tab lo</w>
sın av
sekret eri</w>
redde den</w>
proje lerine</w>
oran ını</w>
oran ına</w>
operas yonun</w>
mil yondan</w>
man z
la ki</w>
ka çağ
ilişk ilerinin</w>
ilerle mesi</w>
ho ş</w>
halk ını</w>
güç lerini</w>
güz el
geçmiş i</w>
fer it</w>
etk isini</w>
er o
devr aldı</w>
d ık
d ans</w>
ces aret
cen az
bu çuk</w>
birli ğiyle</w>
bi ç
bat ısındaki</w>
ann is</w>
ad ımı</w>
ac ılık</w>
T rak
Sez er</w>
S ab
S A</w>
Ras mussen</w>
Ort ak</w>
Müdür lüğü</w>
Her sek
D el
Bü tün</w>
AI DS</w>
1 30</w>
ıs ın
ı s</w>
İs kend
ü t</w>
çıkar ak</w>
çalış anların</w>
Ç evre</w>
yaz dı</w>
ver mesini</w>
ver i</w>
söyle mek</w>
soruştur manın</w>
siyaset çi</w>
sahip tir</w>
parlament osunun</w>
oyun cusu</w>
ol gun
oj eviç</w>
ne s</w>
me dik</w>
me d</w>
ma daki</w>
lider lerle</w>
leş mesi</w>
lamen terler</w>
lak u</w>
koru ması</w>
kor uyor</w>
kazan ma</w>
kayb ettiği</w>
katılım ıyla</w>
k lin
iş lerin</w>
ik lim</w>
hızlandır maya</w>
güvenil ir
geliş mekte</w>
gel mesine</w>
fabr ika</w>
eğit imli</w>
er k</w>
edi k
e c</w>
din g</w>
dev ir
demok ratik
bulun muyor</w>
bo ş</w>
belir lemek</w>
at an</w>
Zir v
W or
Tiyat ro</w>
Plan ı</w>
P R
Ol ym
Med v
M ev
Gir işimi</w>
Chr istian</w>
B unun</w>
Ş ir
ılık larını</w>
İş let
zinc ir
zar ara</w>
vatandaş ın</w>
vat an
uygulan masında</w>
turn u
tr en</w>
sayf alık</w>
sat ışı</w>
s indir
ro m</w>
oyun cular</w>
or ij
olas ılığının</w>
mün ferit</w>
mühend is
muhali f</w>
miş lerdi</w>
kazan arak</w>
iş adam
if las</w>
hızlandır mak</w>
hükümet iyle</w>
hazır lanması</w>
gen c
etme mesi</w>
düşünü yoruz</w>
da t</w>
coğraf i</w>
bar iz</w>
aç ığının</w>
at es</w>
artır mayı</w>
am i</w>
am bar
ail eleri</w>
a i</w>
V al
T os
M un
Ko z
Jap on</w>
H alk
Dj ukanoviç</w>
Cond ole
C E</w>
B A</w>
Ahme ti</w>
6 9</w>
şüphelen ilen</w>
ım ıyla</w>
ıl masıyla</w>
İmparator luğu</w>
İ van
öz ür</w>
çek ilmesi</w>
ç ili
ziyaret çi</w>
z at</w>
yolsuz luğu</w>
us una</w>
tutuk lanan</w>
turist ik</w>
terör e</w>
ter s</w>
temsilc ileriyle</w>
ta ahh
savaş tan</w>
san ız</w>
sah i
s ın</w>
olur du</w>
od ak</w>
medya da</w>
meclist eki</w>
mal ları</w>
ma makla</w>
karşı laştır
kap ılarını</w>
hes ap</w>
görevl ileri</w>
gör ünd
gre v</w>
geçir ilen</w>
f onu</w>
er a</w>
boz ul
bil inc
bil eceği</w>
benim se
bek lendiğini</w>
be li</w>
banka ların</w>
bab ası</w>
anlaşmaz lıklar</w>
anlaş masına</w>
anah tar
ak ti
af et</w>
Tit o</w>
Stre et</w>
P rag</w>
P hil
Mir cea</w>
Media fax</w>
Kurt uluş</w>
Ko ş
Ka baş
G aşi</w>
D ar
Condole ez
Bos kovski</w>
2 .</w>
1 10</w>
ıy sa</w>
ıl ıp</w>
üyeli k
ü yordu</w>
ö tes
çağır ıyor</w>
yon undan</w>
tet ik
ter min
tepk iler</w>
taraf ında</w>
seyir c
sen e</w>
savun an</w>
s et
rahat sız</w>
mo del</w>
mey dan</w>
mesaj ı</w>
med yaya</w>
me mekle</w>
la u
kuruluş un</w>
kullan ılıyor</w>
kaynak larının</w>
kaynak lardan</w>
iyor sunuz</w>
im lerinin</w>
ik il
ik asyon</w>
ihtilaf ının</w>
ic h</w>
hazır lanmış</w>
hak aret</w>
haber inde</w>
gün ün</w>
fon larının</w>
faaliyet lerinin</w>
eş te</w>
eğ e</w>
en lere</w>
doktor lar</w>
destek ç
demokras inin</w>
bulun muştu</w>
bi yoloj
başvur usunu</w>
bayr ak
at e</w>
asker lik</w>
ara larındaki</w>
Yer el</w>
St ru
Sov yet</w>
Sav c
Rom pres</w>
Rom anlar</w>
Pat r
Lit vanya</w>
L et
Korid or</w>
J as
F oc
F e
Cumhur iyet
Cen evre</w>
Ağ ı</w>
Ar j
şek er</w>
ınday dı</w>
İd ari</w>
İc ra</w>
ümü nden</w>
öldürül düğü</w>
çab ayı</w>
ziyaret inin</w>
ziyaret ini</w>
yar ışı</w>
yap makla</w>
y itir
topl uluğ
sır aya</w>
sürdür düğü</w>
sh ori</w>
savun uc
ra c
r ı</w>
perspek tif
nor mal
merkez ine</w>
mahal le
mad ılar</w>
ma kale
l oj
kuzey inde</w>
is imler</w>
ilerle mesini</w>
il diğini</w>
her kese</w>
hay van
görün tü
gel mek</w>
f asıl
erte leme</w>
eme di</w>
eks ik</w>
edil mesinin</w>
ede k</w>
diyaloğ un</w>
bölge leri</w>
bu laş
bu d
bağ layıcı</w>
bayr ağı</w>
basket bol</w>
b ayan</w>
at ıyor</w>
anlat ıyor</w>
anla mı</w>
Sta mb
Oli ver</w>
O per
O S</w>
Nov in
M ek
L am
Kop en
I NA</w>
Em il</w>
CE O</w>
8 3</w>
İz leme</w>
İdar esi</w>
üç ü</w>
çık tığını</w>
Ü r
yürüt me</w>
toprak larının</w>
ticaret in</w>
tamam lamak</w>
tah sila
sın ıf</w>
söy lerken</w>
suç lardan</w>
sonuç lanan</w>
seç ilmesi</w>
s ize</w>
politik alar</w>
n ot</w>
mak ul</w>
m ark
list esine</w>
ku v
kan ıtı</w>
istiyor sa</w>
im nas
iler liyor</w>
ifade sinin</w>
ic eviç</w>
i ğine</w>
her şeyi</w>
ha g</w>
güc ün</w>
göster ileri</w>
göster ecek</w>
görüşme lerinin</w>
geç mesine</w>
geliş im</w>
gelece ğine</w>
ey lemi</w>
düşün ül
dönüş ü</w>
duk larını</w>
dik çe</w>
dey imiyle</w>
bul dular</w>
bu lama
avu katı</w>
aras ından</w>
ak lık</w>
acağ ından</w>
Mec lis
Kopen hag</w>
K O
F E
D I
Condoleez za</w>
üm it</w>
çıkar ına</w>
çalışan larının</w>
ç esi</w>
Çalış ma</w>
zaman lı</w>
zaman a</w>
yaş andığı</w>
yayın ladıkları</w>
yarat tı</w>
yapıl masına</w>
yansıt ıyor</w>
yaklaş makta</w>
y ir
vurgu ladılar</w>
v o
uygu ladığı</w>
ulu stan</w>
tüket ici</w>
tut ulan</w>
te mas</w>
sır alama
sürdür mesi</w>
standart larının</w>
son uca</w>
sağ landı</w>
s t</w>
ri a</w>
os t
ol muştur</w>
not u</w>
kın adı</w>
komün ikasyon</w>
kazand ılar</w>
katılan lar</w>
kap ı</w>
kap sıyor</w>
iz den</w>
imtiy az
il lerin</w>
iddi alı</w>
i dam</w>
göster isi</w>
fay d
et miyor</w>
enerj isi</w>
el lerinde</w>
düşür dü</w>
durum dalar</w>
değiştir mek</w>
devlet ler</w>
desteğ ine</w>
c adde
bölün me</w>
bekle mek</w>
başla yacağını</w>
başar ısı</w>
bağ layacak</w>
ayr ıldı</w>
anali z</w>
akar yakıt</w>
Sanay i</w>
Par lamenterler</w>
N E
Mon it
Maked onlar</w>
Fran k</w>
E X
Ch rist
Br c
Br an
And y</w>
1 40</w>
ş of
Ş ah
çözüm ler</w>
çoğunluğ unu</w>
çoğ unu</w>
yürütü yor</w>
yer altı</w>
yasa larını</w>
yap ılan
tr is</w>
t ıklarını</w>
t eri</w>
t ası</w>
söyle mişti</w>
sun um
say ede</w>
r üt
otob üs
or u</w>
olay la</w>
nok ta</w>
mühimma t</w>
mas raf
man astır
list e</w>
las iç</w>
kor san
konsol os
kit le
kapat ma</w>
istikrar sız
il ki</w>
hedef le
gün ünde</w>
gün eydoğu</w>
göster ge
et meyeceğini</w>
edi ğini</w>
destekle diği</w>
de mek</w>
büyü mesi</w>
boy kot
bom ba</w>
birli ğine</w>
bağlant ıları</w>
ateş li</w>
an ının</w>
T a
Str az
Pro di</w>
O kul
N ine</w>
M em
Diy ar
D Y</w>
C okoviç</w>
Az iz</w>
Anlaş masını</w>
1, 6</w>
şey leri</w>
üyeli ğin</w>
ç ısı</w>
yönetim ini</w>
yatırımc ıları</w>
yardım ın</w>
yapı larına</w>
ya l</w>
x e</w>
uzman ların</w>
uygula masının</w>
ust a</w>
ulaş ım</w>
u daki</w>
tr e</w>
tes isi</w>
temsilc ilerin</w>
taz ele
tah liye</w>
sem t
ro ck</w>
rejim ini</w>
oluştur duğunu</w>
ol li</w>
od or</w>
neden lerden</w>
mir ası</w>
me mur</w>
ma t
ma larla</w>
lo ck</w>
list ede</w>
let ler</w>
len a</w>
le cek</w>
kazan ç
kapasit eye</w>
inş asına</w>
im izde</w>
ilerlet mek</w>
ic ra</w>
göl ge</w>
faaliyet lerin</w>
es a</w>
ekonom isine</w>
edil eceğini</w>
dönem inden</w>
dayanış ma</w>
d anı</w>
bölün müş
belediye ler</w>
bel g
başla mış</w>
başarısız lıkla</w>
ban k</w>
at ları</w>
aray ış
akade mis
Straz burg</w>
N es
Met o
Lazar ova</w>
L ad
Huk uk</w>
Gümr ük</w>
F ır
F lor
F estiva
B amir</w>
İstih barat</w>
öv gü</w>
çık ış</w>
çocuğ un</w>
ç ö
ç ilere</w>
zor laştır
ti s</w>
tem in
tek stil</w>
söyle m
spor cu
sağlan ama
pu anı</w>
politik alarını</w>
part ilere</w>
os unu</w>
os unda</w>
ortam da</w>
on larca</w>
noktas ına</w>
milyon luk</w>
milletvekil inin</w>
ma ç</w>
lık larının</w>
ler imizin</w>
kamuoy unda</w>
iş ine</w>
ihtiyaç ları</w>
hedef ler</w>
hazır la
havali man
görüş ünü</w>
g un</w>
fir malar</w>
etkiley ici</w>
et mesinin</w>
ebilir iz</w>
değiş iyor</w>
değerlendir di</w>
cağ ım</w>
bulun masına</w>
beledi yesi</w>
başla ya
b est
at ılması</w>
al ıcı</w>
ak ın</w>
aday ların</w>
U S</w>
S utan
S DS</w>
Kr iz</w>
Er oğlu</w>
Din k</w>
Da ianu</w>
Braj shori</w>
B TA</w>
4 .
şiddet in</w>
İsra illi</w>
öğret men
çiz g
za feri</w>
yer leri</w>
ye mek
ver it
sonuç larına</w>
seyir ci</w>
sey re
sey in</w>
referandum da</w>
referand umu</w>
redde dil
nez aret
metrek üp</w>
mem lek
makam larını</w>
la ket</w>
l d</w>
kullan ım</w>
kitab ı</w>
kent te</w>
kend ileri</w>
katıl masını</w>
karşıla ma</w>
izley ic
hiç biri</w>
hey ec
haber e</w>
göster iler</w>
gör müş</w>
git mesi</w>
gerek iyordu</w>
geliş meleri</w>
et mey
end ek
em iyor</w>
düzen leniyor</w>
dört te</w>
durum la</w>
diğ eri</w>
biz zat</w>
bin asının</w>
benz er
bekli yorum</w>
be bek</w>
açıkla dılar</w>
ass os</w>
ark ı</w>
an e</w>
Z en
Y ılmaz</w>
V ek
St .</w>
S PS</w>
Rad ovanoviç</w>
R i
M ih
M ali</w>
Kit ap</w>
J ur
Hersek li</w>
Hava alanı</w>
H ali
Foc us</w>
Al p
ş ok</w>
ılabil eceğini</w>
İ H
üye leriyle</w>
üye ler</w>
ölüm üne</w>
yüz yıldan</w>
yir mi</w>
yarar ına</w>
yap ısı</w>
w at
var sa</w>
umu duyla</w>
topl uluk
taş ı</w>
sürdür ül
suçlama da</w>
sistem leri</w>
seya hat
serv is
san mıyorum</w>
saldır ının</w>
s ap
rejim in</w>
rakam lara</w>
r iç</w>
proj esini</w>
poli tik</w>
plan ında</w>
pazar ının</w>
otomo bil
organiz asyon</w>
ol un
mesele nin</w>
mas ındaki</w>
lık ta</w>
lik lere</w>
liber al</w>
li yorlar</w>
let oviç</w>
len mesine</w>
land ıktan</w>
kır ıl
konum da</w>
kaçın ılmaz</w>
kat ılarak</w>
karşılaş tığı</w>
kariy er
kadın lara</w>
işg al</w>
iç ek</w>
istikrar ını</w>
hek tar
hedef lere</w>
geç mek</w>
gerek siz</w>
fiyat larının</w>
faaliyet ler</w>
esel j</w>
engel ley
edr ana</w>
edebil eceğini</w>
duy ul
dj an</w>
diğ inin</w>
dava lar</w>
dav asında</w>
bin anın</w>
bilg iye</w>
başvur uda</w>
bak ım</w>
bak ıldığında</w>
bak ana</w>
açıl masını</w>
ay n
anlığ a</w>
aday lığı</w>
T on
S eselj</w>
S I
Nov os
M W</w>
M S</w>
Ko ordin
Gazet eciler</w>
Ga ler
G üz
EI B</w>
E di</w>
Diyar bakır</w>
D ağ
7 6</w>
ış ığına</w>
yan gın</w>
y el
vatandaş lık</w>
u fak</w>
ten is
tasarru f
sür ülüyor</w>
statüs üyle</w>
redde d
q i</w>
program lar</w>
potansiy eline</w>
pat r
ok uy
mit ing
merkez leri</w>
makam larına</w>
laş ması</w>
ku p
konuş t
konferans ına</w>
kaynak lara</w>
katliam ı</w>
karak ter
kabin enin</w>
istikrar sızlık</w>
is a</w>
ins anı</w>
ihrac atı</w>
iade si</w>
hizmet ler</w>
güd ümlü</w>
gerçekleştir il
gerek irse</w>
fazlas ının</w>
faaliyet lerine</w>
eya z</w>
ev de</w>
etk ilerini</w>
engel leri</w>
endiş eler</w>
dolaş ım</w>
dern ek</w>
dem ir</w>
ceza lar</w>
c isi</w>
ayı p</w>
avro v</w>
alk ol</w>
ac h
a ması</w>
Yun anlı</w>
W all</w>
T ha
T I</w>
Sa xe</w>
Rom anların</w>
Ro g
L avrov</w>
In ter
I vanov</w>
Eur o
EX IT</w>
E d
Dr .</w>
Den et
Co burg</w>
Co E</w>
Büy ük
Bud ap
Brc ko</w>
Bas ın</w>
B eyaz</w>
8 2</w>
ığ ım</w>
ım lar</w>
ülk esini</w>
çoc uğu</w>
zanl ılar</w>
yas asında</w>
yap makta</w>
var lığının</w>
uygula masına</w>
uya ndır
ur i</w>
ulaş ması</w>
ti ş</w>
sür tüş
standart lar</w>
sorun uyla</w>
se f
saat ler</w>
sa bah
rekabet çi</w>
rek lam</w>
part iye</w>
oy birliğiyle</w>
on ur</w>
of is
nüf uz</w>
ni er</w>
nev i</w>
mü st
menfa at
me lerden</w>
m ü</w>
lis ans
lin es</w>
l ok
kö y</w>
kon unun</w>
kapasit e</w>
kamuoy unun</w>
kalite li</w>
inşa atı</w>
görün üm</w>
fe laket</w>
eylem ler</w>
et tik</w>
entegras yonuna</w>
en ko</w>
dü m</w>
dola ndır
devre ye</w>
deney im</w>
demok rat</w>
bulund ukları</w>
bulun uyordu</w>
bo lik</w>
b ö
ay ının</w>
asker î</w>
ad landır
V i
U D
T ak
R ist
M ül
Kon gresi</w>
K raj
Hırvat ların</w>
Devlet leri</w>
Bi H</w>
Bek iri</w>
Araştır maları</w>
Air lines</w>
197 4</w>
şirket lere</w>
Ş u</w>
üle cek</w>
öner iler</w>
çök ert
Özel leştirme</w>
yüz yılın</w>
yönet meni</w>
yetkil inin</w>
yay ım
yarış ma</w>
yap acakları</w>
ver mesine</w>
ula j</w>
tutuk lu
tut tu</w>
teşkila tının</w>
tale bini</w>
t un
t ler</w>
sın ız</w>
sem bolik</w>
sağla dılar</w>
savun masız</w>
pla stik</w>
part iyi</w>
par lak</w>
ortam ını</w>
ortak ları</w>
ol k
ol e</w>
mevzu at
mesele lerin</w>
mahke melerin</w>
ma mak</w>
kiş iden</w>
karar larını</w>
kal p</w>
iddi alarını</w>
hazır ladı</w>
göç men
görüşme nin</w>
gar ant
g rap
fikir de</w>
eş ya
etkinlik ler</w>
et begoviç</w>
er iyor</w>
eleştir en</w>
e a</w>
duruş ma</w>
dur uyor</w>
değiştir meye</w>
de l
birbir inden</w>
bil mek</w>
bekle diği</w>
aç ması</w>
artış a</w>
ar sa</w>
and an</w>
akti v
ail enin</w>
a larıyla</w>
Tele grap
Sırp ça</w>
Sutan ovac</w>
Stru ga</w>
Sim itis</w>
Mat t
M av
Kö pr
Ko ha</w>
Ka letoviç</w>
H ac
Gor dana</w>
Filist in</w>
Fat os</w>
D ok
D anış
Arj ant
8 4</w>
7 4</w>
20 20</w>
20 15</w>
ın tı</w>
özel liğini</w>
öz erk</w>
öner isinde</w>
çık maya</w>
ziyaret çiler</w>
yor lardı</w>
yap ıyorlar</w>
yakalan ması</w>
tüket im</w>
top lamda</w>
teg re</w>
tanın ıyor</w>
sınır ın</w>
st ad
soğ uk</w>
sonr asındaki</w>
seç mek</w>
seviy eye</w>
sal on
r iy
parti den</w>
oyn ayan</w>
ot iç</w>
orij inal</w>
nitelendir erek</w>
mim ar
meslektaş ı</w>
lü ler</w>
lider lerini</w>
l ılık</w>
l usu</w>
kur duğu</w>
kiş ileri</w>
kim liği</w>
kayde den</w>
kad ının</w>
k u</w>
k in
itha la
istedik lerini</w>
incele me</w>
il jana</w>
ik alı</w>
gönder ilen</w>
gerç eği</w>
gen elkurmay</w>
g ayrı</w>
fa al</w>
eriş imi</w>
en stit
dış ından</w>
devra lacak</w>
denet leme</w>
dav ra
ceza ları</w>
büyük lükteki</w>
bütç esinin</w>
bütç esini</w>
bür osu</w>
bulun ul
bey an</w>
başlang ıc
ayr ılması</w>
at mak</w>
Z em
Yas ası</w>
Wor ld</w>
Telegrap h</w>
T s
Stand ard</w>
S il
Petr oviç</w>
O f
Nik olay</w>
IC G</w>
Gabri el</w>
E c
C oviç</w>
Br it
B ec
B al
A ust
8 1</w>
öğrenc ileri</w>
çöz meye</w>
çalış tır
Özgür lük</w>
yay la</w>
yas ama</w>
yap masına</w>
ver mekle</w>
talep lerini</w>
t u
su lar</w>
san ıkların</w>
ra m</w>
progra ma</w>
olma larına</w>
ok e</w>
o od</w>
me lerde</w>
mantık lı</w>
mahke meler</w>
le s
kullan ımını</w>
kred iler</w>
koşul ların</w>
konu ların</w>
ko c
kim yasal</w>
kapasit esinin</w>
içer iyor</w>
ist asyon
is yan</w>
idi s</w>
hem fikir</w>
hapis han
et tiğine</w>
er re</w>
end üst
dur an</w>
değiştir il
destekley ecek</w>
cinsiy et</w>
cez b
belir ley
başkanlığ ında</w>
baş bakanları</w>
b ayı</w>
açıklama larda</w>
V el
Türk leri</w>
Stef anoviç</w>
Ro c
Progra m
Pet rov</w>
Parlament o</w>
P ulaj</w>
P la
Mil os</w>
I A</w>
Fi at</w>
EU observer</w>
Ce ma
B edrana</w>
Ar di</w>
Ad nan</w>
7 3</w>
1, 3</w>
ş a</w>
İz mir</w>
üst e</w>
öğrenc ilere</w>
ön lenmesi</w>
öldürül dü</w>
çık masına</w>
çalış anı</w>
ç öp
Ö .</w>
Ç ok</w>
z eh
yok tu</w>
yiy ecek</w>
yaşam ı</w>
yaş ama</w>
yay gın
yasa larına</w>
yas ağı</w>
yap ıları</w>
y edek</w>
uy um
um ar
tasar ıyı</w>
sür üc
sponsor luğ
so ka
ret im</w>
re aktör
pazar lama</w>
ol manın</w>
mül k</w>
miktar ı</w>
mev du
ma ter
ma maları</w>
ma larından</w>
kuvvet ler</w>
koordin asyon</w>
kon ut
komut ası</w>
komut an</w>
klas ik</w>
kapat ılması</w>
kal masını</w>
kabin esi</w>
it fa
ilg isini</w>
ilerle yen</w>
ihtiyaç larını</w>
hiss esi</w>
hastan e</w>
göz altında</w>
göster me</w>
elektr ik
dış ar
dür üst</w>
di as
devr iye</w>
d t</w>
bulun urken</w>
biz ler</w>
bel gesel</w>
balık çılık</w>
b el</w>
ara daki</w>
al ıların</w>
V adi
Tüz üğü</w>
S ul
Pow ell</w>
Pop oviç</w>
Mis yonu</w>
L id
Kul üb
K ut
K aç
H at
G öz
E s
E U</w>
Den iz</w>
Dem ir
D NA</w>
6 .
5 .
1 80</w>
. Ö.</w>
şah ıs</w>
ız ın</w>
öner diği</w>
çoğun lukta</w>
yö ndeki</w>
yetkil ilerine</w>
yara lan
y di</w>
ver dik</w>
uğra dığı</w>
us e</w>
umud unu</w>
söyle mekle</w>
st er
sonuç larının</w>
slo g
sergil edi</w>
org e</w>
ola caklar</w>
n ica</w>
moderniz asyonu</w>
mil a</w>
mad ıkları</w>
lığ ından</w>
kü tüphan
kiş ilere</w>
ke l</w>
kaynak lı</w>
k us
işbirli ğinden</w>
işbirli ğinde</w>
iş adamları</w>
ilerle mesine</w>
haber leri</w>
h iz
güven liğin</w>
gündem de</w>
gel diğinde</w>
g re</w>
fu h
f or</w>
eğil imi</w>
e lerden</w>
den iz
d om
c tr
başvur usunda</w>
at o</w>
art tığını</w>
araştır maya</w>
ar en
ans ki</w>
al li</w>
ail eler</w>
ad ının</w>
Türk lerin</w>
S uç</w>
Ram uş</w>
P ah
Or han</w>
Olym pi
Mil li</w>
Medv edev</w>
M O
Lju bi
Kab ashi</w>
K ES
J AT</w>
F ut
F otoğ
F a
Elektr ik</w>
Do ları</w>
Bla ir</w>
An gel
ğ indeki</w>
örgü te</w>
çek meye</w>
çalışma ların</w>
çaba lara</w>
Öz gür</w>
zorund ayız</w>
yenil eme</w>
yaz dığı</w>
yakın ında</w>
y arar</w>
w s
va adi
uğra dı</w>
ut inoviç</w>
u yard
tecr ü
tasar ı</w>
talima t
sürdür düğünü</w>
st r
sol dan</w>
sok tu</w>
seç me</w>
sez on
serv is</w>
sanay i
safh asında</w>
referandum un</w>
referand uma</w>
rap ort
r eti</w>
plan lama</w>
paket ini</w>
olma makla</w>
oj e</w>
li l</w>
landır ma</w>
kullan ımına</w>
koy uyor</w>
komün izmin</w>
ken tine</w>
k ta</w>
j eviç</w>
istem iyor</w>
hızlandır ılması</w>
hoş n
gü ve
gör düğ
gir me</w>
gerçekleş iyor</w>
film ler</w>
eya lete</w>
ede mey
e f</w>
dönüş üm</w>
dos t</w>
değer indeki</w>
der ken</w>
bü s</w>
bölg esinden</w>
baş savc
ati h</w>
at ılacak</w>
am mer</w>
Z an
Y üz
St av
Sav a</w>
Or gan
Mu ammer</w>
Kad ın</w>
KES H</w>
H ede
F estiv
F atih</w>
B eth</w>
Al bert</w>
öldür ülen</w>
y endi</w>
ver ip</w>
uş u</w>
u lama
tü f
te f
tamam ını</w>
talima tı</w>
t ap
sır alan
söylen t
suçlu ların</w>
suçlama ların</w>
sund ular</w>
sergile diği</w>
sektör de</w>
say ım</w>
rapor unun</w>
qu es</w>
par ça</w>
operasyon ları</w>
olay dan</w>
nokt aya</w>
mis yonuna</w>
man n</w>
l on</w>
küçül t
kul üp
komün izm</w>
kolek si
kes kin</w>
kaçakç ılıkla</w>
karş ılıyor</w>
kararl ılık</w>
k ın</w>
k ra
il kes
hükümet te</w>
hiss ed
hak imler</w>
göster mektedir</w>
gru ba</w>
gelenek lerini</w>
gel miştir</w>
ed in</w>
ecek lerine</w>
e anu</w>
dığ ımız</w>
birli ğin</w>
birbir lerine</w>
bil et</w>
at ür
art arak</w>
alın ıyor</w>
alan lardaki</w>
T ut
S endik
S asa</w>
Priş tin
Novos ti</w>
Mir oljub</w>
Mil ler</w>
Mad rid</w>
Karş ı</w>
Hol ding</w>
H ot
Fon i
Cor ceviç</w>
Cav iç</w>
Budap eşte</w>
B iden</w>
Anayas ası</w>
üs s
önlem leri</w>
öl ümü</w>
çeyre ğinde</w>
çatış maların</w>
ziyaret in</w>
yayın landı</w>
yapıla cağını</w>
veril diği</w>
ver medi</w>
un ç</w>
tir ken</w>
ter mik</w>
ter ed
teknoloj ik</w>
t ığında</w>
sür erken</w>
söz ünü</w>
söz ler</w>
suz luk</w>
stand art</w>
spek ülas
sivil lere</w>
seviy esini</w>
serbest leştirme</w>
sek iz
sağlaya caktır</w>
sağla manın</w>
sa ç
os p
nak it</w>
mut lu</w>
mal larının</w>
ma çı</w>
lık larına</w>
l y</w>
kampan yanın</w>
kadar ki</w>
j an</w>
ir leri</w>
im kan
harek â
hak lar</w>
gü nden</w>
gösteric iler</w>
gelece ğinin</w>
fir masının</w>
eğit ime</w>
etme diğini</w>
et ik</w>
el lerinden</w>
diğer lerinin</w>
den li</w>
ceza evi</w>
bulun maya</w>
bulun acağını</w>
belir sizlik</w>
bask ısı</w>
ayd ın
ay larca</w>
at ama
as ay
artış ın</w>
adalet in</w>
Türk lerinin</w>
T uğ
T ok
Sar ayı</w>
Raz van</w>
Rah ibe</w>
Rad manoviç</w>
R N</w>
Priştin eli</w>
Po or</w>
P N
O t
M E
Kabaş i</w>
K um
K ot
K af
In sig
Fri ed</w>
Foni qi</w>
Dr az
B on
B ac
7 7</w>
şef faf
şans ının</w>
ıl ırken</w>
çıkar maya</w>
çık ış
çık maz</w>
ç etin</w>
yüküm lü</w>
yönet tiği</w>
yönelt ilen</w>
yön lendir
yetkil ileriyle</w>
yeter siz
y ed
umu yorum</w>
tür ban</w>
tut ma</w>
tered dü
tedbir lerini</w>
tavsiy ede</w>
tav ır
taraf ta</w>
t üz
sınır ında</w>
su ya</w>
sig ort
sem iner
s üs
redde derek</w>
politik asına</w>
od y</w>
li am</w>
kısıt lama
kö k</w>
kurb anı</w>
konsorsiy um</w>
kon umu</w>
kaygı larını</w>
kaldır maya</w>
ka s</w>
ilke lerine</w>
ilgilendir en</w>
ihale yi</w>
iddiana me</w>
haz in
hak em
geç tiği</w>
getir eceğini</w>
f in</w>
eş siz</w>
ey di</w>
ev leri</w>
es er</w>
edecek ler</w>
e lerle</w>
düşünü len</w>
dünyas ının</w>
da ğ</w>
c ilerin</w>
belir leyici</w>
b unda</w>
açık ladığı</w>
ay ak</w>
at ıldı</w>
as ları</w>
ajans ına</w>
Zan nier</w>
Yorg os</w>
Vu j
Tek nik</w>
T odor
Sekret er</w>
S ib
S ad
S S</w>
R TK</w>
Nic olas</w>
Monit or</w>
Mla can</w>
Lj iljana</w>
Kar iç</w>
Haz ar</w>
H izme
Gele ceği</w>
G ölü</w>
Festiv al
Fe ith</w>
A AK</w>
1 60</w>
şart lı</w>
şart larından</w>
Ş eh
ıc ının</w>
İskend er</w>
ön görül
çıkar an</w>
çalışma lara</w>
Çağ r
zirv enin</w>
yönetim ine</w>
yapıl dığını</w>
veril eceğini</w>
ver meleri</w>
v as
top rağ
televiz yonu</w>
tasar ısı</w>
talep leri</w>
sun ması</w>
su bay</w>
sev k</w>
satış a</w>
saldır ıya</w>
res s</w>
pu y</w>
plan lan
piyas aya</w>
pil ot</w>
p op</w>
oy lamaya</w>
oy lamanın</w>
ordus unun</w>
ola maz</w>
may ın
len me</w>
konu larını</w>
konferans ın</w>
kon uk
karar ından</w>
kalan ı</w>
iş te</w>
iler ide</w>
he w</w>
harcan acak</w>
görün en</w>
git tiğini</w>
geçir ildi</w>
getir meyi</w>
genç lik</w>
gelir ken</w>
g ol
faz la
eya leti</w>
en tegre</w>
duğ unda</w>
değiştir ilmesi</w>
dev ret
de ndi</w>
dair enin</w>
cumhuriyet in</w>
bildir ilen</w>
başkanlığ ının</w>
ayrılık çı</w>
ay lardır</w>
art tığı</w>
arkad aşı</w>
ara s</w>
an ısına</w>
ak ş
Y ıl</w>
Sam ar
Nich olas</w>
Mey danı</w>
Mar k</w>
M O</w>
L uc
Kat ılım</w>
Kat ar</w>
Kar olos</w>
K üç
Jac ques</w>
Hol bro
Ho ca</w>
Gazet ec
F it
Ex p
Entegras yon</w>
E de
Derv iş</w>
Bit iki</w>
A C
9 8</w>
6 .</w>
şart larının</w>
ş eye</w>
ış tır
ımız da</w>
ılım lı</w>
ılma ması</w>
ı ç
öncelik ler</w>
ö mür</w>
çalış acağını</w>
uzman lara</w>
toplum una</w>
televiz yonuna</w>
tatbi kat</w>
taraf a</w>
tar ak</w>
t leri</w>
sürdür en</w>
sür ülen</w>
sür düler</w>
spor cular</w>
sandalye li</w>
protestoc ular</w>
prosedür leri</w>
pr ov
poz is
p ir
olağ an</w>
olay larına</w>
niyet li</w>
nef ret</w>
merkez in</w>
mas yon</w>
ma masına</w>
list esi</w>
li yoruz</w>
leh inde</w>
land ığına</w>
laboratu var
kısıt lamalar</w>
kö şe</w>
kuruluş lar</w>
kaçakç ılığıyla</w>
kas ıt
karar la</w>
kalites ini</w>
k g</w>
işlet melerin</w>
in a
ilişk isi</w>
ib inin</w>
i ment
h ük
gü ce</w>
gel mesinden</w>
ge ce
fırsat lar</w>
for uma</w>
etkiley ecek</w>
etkil iyor</w>
etk en
et leri</w>
egemen lik</w>
edil me
dönem inin</w>
dön üm</w>
dost luk</w>
der neği</w>
dem li</w>
dar b
can in</w>
bütç enin</w>
borç larını</w>
biyoloj ik</w>
biyo metrik</w>
beraber inde</w>
baş lama
azın lıklar</w>
asker in</w>
ard ında</w>
araç ları</w>
Zem un</w>
T assos</w>
Sür eci</w>
Rom puy</w>
PA CE</w>
Organ ize</w>
O v
Mahke mesiyle</w>
Kür esel</w>
Kor general</w>
K E
Holbro oke</w>
H R
C har
Bur ada</w>
- ki</w>
ıt ma</w>
ötes ine</w>
çık mış</w>
çocuk larının</w>
çalış anlar</w>
Ç av
zul üm</w>
yıl ını</w>
yık ıcı</w>
yap acağız</w>
yalan ladı</w>
ulaş tır
tesis leri</w>
tesis in</w>
tecav üz</w>
tav a</w>
tamam lama</w>
ta y</w>
sın av</w>
söylen tiler</w>
sun maya</w>
sorun larının</w>
sorgu ya</w>
sch ror</w>
saldır ıların</w>
pasap ort</w>
p iş
oluştur du</w>
olma masına</w>
okul lar</w>
meş ru
metrekar elik</w>
mesele sinin</w>
m inin</w>
liğ iyle</w>
le v
kuv vet</w>
ku lak</w>
koka in</w>
katk ılarıyla</w>
kal madı</w>
ka der
jür i</w>
istis mar</w>
ir li</w>
inan c
im kanı</w>
ihti mal
ic iç</w>
hay van</w>
hay atı</w>
hak imlerin</w>
hafta da</w>
h ur</w>
gün e</w>
gönder ildi</w>
gö ğ
grup larının</w>
geçir mesi</w>
ey erek</w>
ev ska</w>
ev ine</w>
etraf ındaki</w>
ekonom istler</w>
dığ ından</w>
düş mesi</w>
duyur dular</w>
durdur mak</w>
dra v
doğ um
din le
değer leri</w>
de diler</w>
birli ğini</w>
belir leyecek</w>
bakan ların</w>
alg ıla
Z drav
Vas il
St ra
Pap uli
Pah or</w>
N 1</w>
Mo ody</w>
Mitr ov
Mit ev</w>
Mart in</w>
M ut
Kamp schror</w>
Insig ht</w>
EC B</w>
A p
20 .</w>
ğ imiz</w>
örgüt lerinin</w>
Ü yelik</w>
Öğ ren
yüz yılda</w>
yetkil ilerden</w>
yet i</w>
yat an</w>
ve s</w>
vaat lerini</w>
uygulama ları</w>
teşh is</w>
tem sil
tem izleme</w>
tanı ma</w>
sürdür eceğini</w>
su bayı</w>
silah lar</w>
sebe p
sağ lığı</w>
sandal yelik</w>
sah a</w>
pr op
parlamento daki</w>
org anı</w>
olma yacağı</w>
olanak ları</w>
ol mas
nj ak</w>
neden leri</w>
nak li</w>
muhalef eti</w>
lama yla</w>
kred inin</w>
ko d
kent sel</w>
karşıla dılar</w>
kala cağı</w>
ka de
k y</w>
işlet meler</w>
ic an</w>
hak sız</w>
göz le</w>
göster ilmesi</w>
gr ibi</w>
gir meye</w>
gidi p</w>
gener alin</w>
gelece ğiyle</w>
eser leri</w>
eleştir ilerine</w>
ec e</w>
e -</w>
düzenle meler</w>
direk tör</w>
büny esindeki</w>
bulun muş</w>
boş alt
borc unu</w>
ber taraf</w>
belirle di</w>
bede li</w>
açık tır</w>
arş iv
artır ması</w>
ama ca</w>
aban cı</w>
Yar gı</w>
Ves na</w>
Topl um
Ter ör
Srbi ja</w>
Papuli yas</w>
Oh rid</w>
Milen koviç</w>
M üf
Kulüb ü</w>
Koş tun
K ış</w>
Iv anoviç</w>
FE NA</w>
E f
D y
Bulg arlar</w>
B re
B aş</w>
7 .</w>
ö nder
Ödül ünü</w>
yetk ilerini</w>
yetk ileri</w>
yap mıştı</w>
yakala mak</w>
ya nda</w>
vur ularak</w>
uyruk lu</w>
uyar ısında</w>
un oviç</w>
ulaş ma</w>
uk iç</w>
top layan</w>
tedar ik</w>
te s</w>
te br
tasar ının</w>
tarz ı</w>
sınır larını</w>
söz lerinin</w>
suç landı</w>
siyas eti</w>
saat lerinde</w>
ruh sat</w>
psik olojik</w>
pla j
par k</w>
operas yonda</w>
o gra
n ü</w>
muhafazakâ r</w>
lider lere</w>
len mesini</w>
kıy as
köy ü</w>
kural lar</w>
konuş landır
kitab ın</w>
kanıt lar</w>
kah ra
işlev sel</w>
isten en</w>
ilan ından</w>
ik leri</w>
harcama larını</w>
haf tas
h ol
güney deki</w>
gün ümüz</w>
görüş leri</w>
ger gin</w>
eğ iyle</w>
et se</w>
esn ek</w>
enk lav
endiş eyi</w>
değiştir me</w>
d osya
d ans
ce va
baş ındaki</w>
açık lıyor</w>
atür k</w>
ald ık</w>
ac en
Z as
Ter esa</w>
S tar
Pek usiç</w>
Nec det</w>
Luk oviç</w>
Lib yalı</w>
Le ak
Kürt lerin</w>
J u
I N
H ayr
Car lo</w>
B ra
B B
8 8</w>
7 ,5</w>
1, 4</w>
ılığ ından</w>
ıl ma</w>
üstün lüğünü</w>
ürün ler</w>
çap ındaki</w>
yürüy üş
yol cu
vur guluyor</w>
ver gilendir
uyuştur uc
uyar ıyor</w>
umu yoruz</w>
traf iği</w>
taşı ma</w>
taraftar lar</w>
tar if
sık lıkla</w>
suçlu yor</w>
st e</w>
silah ların</w>
serbest çe</w>
sam imi</w>
rek lam
reform larda</w>
prop ag
ola ya</w>
nokta ları</w>
nit eliği</w>
nd ığını</w>
n iş
mil yar
men t</w>
maz sa</w>
maaş larını</w>
la mıştı</w>
koş ul</w>
kork unç</w>
kon uma</w>
kest rası</w>
kent inin</w>
katılım ına</w>
kat ledil
kam er
kaldır dı</w>
j imnas
iğ er</w>
ilerle meler</w>
il mesinden</w>
hazır da</w>
hak larında</w>
h u</w>
gür eş
göz ler</w>
gir miş</w>
gir diği</w>
gecik me</w>
g o
emr ini</w>
eleştir enler</w>
el ler</w>
edil ip</w>
eceğ imizi</w>
e meyecek</w>
düzenle meyi</w>
dil le</w>
derg isi</w>
dav asının</w>
ceva p</w>
bir isinin</w>
belde si</w>
açıl ışı</w>
aç maya</w>
as yonuna</w>
artır arak</w>
an mış</w>
alt er</w>
al madan</w>
ail esine</w>
V esel
Trans il
Tha ci</w>
Samar ciç</w>
S and
R A</w>
Pro eski</w>
P etkoviç</w>
P en
Operas yonu</w>
Olympi c</w>
Novin ite</w>
Med ya</w>
Matt hew</w>
Kon stant
K oc
K A
H ad
G ran
Draz en</w>
D al
C ro
Baş piskop
Bakanlığ ının</w>
1. 500</w>
1 0,
0 0
şimdi yse</w>
şa ib
ş iş
ı laştır
ı ka
ç hiz
yükselt ti</w>
yönetim inde</w>
yönet men
yeter sizliği</w>
yarat acak</w>
yap masını</w>
yaklaş tır
v ara
uç uş</w>
uzlaş manın</w>
uyruk lu
tür ünün</w>
toplum la</w>
toplant ısının</w>
te çhiz
taraf ları</w>
sınır ının</w>
stratej isini</w>
soruştur mayı</w>
sistem e</w>
sanatç ının</w>
sakin leri</w>
s ov</w>
re ali
p rest
ot is</w>
orta larında</w>
onay laması</w>
om p
om bud
oluştur maya</w>
o nda</w>
mer ak</w>
man lık</w>
mah rum</w>
lığ ında</w>
luğ a</w>
liy di</w>
lamak ta</w>
kız dır
kür esel
kut luyor</w>
konus una</w>
komis er</w>
kaynak landığını</w>
kayde derek</w>
kasıt lı</w>
k eti</w>
iş çiler</w>
iti f</w>
heyet ine</w>
hedef e</w>
güven ce
göster ilecek</w>
g ül
g ala
fırsat ları</w>
fabrik anın</w>
ev lerini</w>
etme li</w>
engelle yen</w>
eme mesi</w>
el iler</w>
dö kül
dair eleri</w>
da y</w>
cumhurbaşkan ını</w>
ciddi ye</w>
bölge ler</w>
bil iyoruz</w>
beledi yenin</w>
az aldı</w>
ass y</w>
alın masına</w>
al manın</w>
ah laki</w>
adalet ten</w>
ac ik
Zas tava</w>
Y ovanoviç</w>
Traj kov</w>
T İ
Su udi</w>
Ser v
Sc ot
Rum ları</w>
Rad mila</w>
Poli si</w>
Ob rad
N e</w>
H R</w>
Georgi evski</w>
Finan s</w>
En ver</w>
D it
Bele di
7 .
şidde ti</w>
İnşa at</w>
ün cü</w>
özgürlüğ üne</w>
öner ileri</w>
çek im
zor lan
yarat an</w>
yap ama
yaln ız</w>
yakala ma</w>
y umu</w>
vur du</w>
ver mey
uygulan masının</w>
unsur lar</w>
ul i</w>
top lamak</w>
tiğ inde</w>
tele komünikasyon</w>
sınır ına</w>
suz a</w>
sorun larına</w>
sin ki</w>
sim gesi</w>
seçim e</w>
seçen eği</w>
sev ilen</w>
sendik alar</w>
sar s
s osya
s ası</w>
rol ünün</w>
popü ler
polis le</w>
plan lıyorlar</w>
paket inin</w>
on s</w>
olay lara</w>
okul larda</w>
me tal</w>
lı ların</w>
lak bar</w>
kın ayan</w>
ken ara</w>
kayb ı</w>
kasab a</w>
kap lı</w>
k ıt
iğ in</w>
is imleri</w>
ir e</w>
ins anlığa</w>
in t</w>
in os</w>
hal ini</w>
h in</w>
görevl ilerinin</w>
geçmiş teki</w>
geç me</w>
getir ilecek</w>
gan g</w>
for mül
engel leme</w>
edil irken</w>
eden ler</w>
dinam ik</w>
değil iz</w>
de z
c her</w>
bütün lüğü</w>
bütç esinden</w>
belirt ilen</w>
başlat tılar</w>
bas it
bak ımından</w>
ayrı c
anlaşmaz lığına</w>
anlaş tı</w>
anlay ış
an is</w>
akade mik</w>
af f
Vic tor</w>
T ale
Stamb oliç</w>
SE EC
SEEC P</w>
S istem
Re isi</w>
Ra uf
Proj esi</w>
P lav
P ask
N ed
Let onya</w>
Kürt çe</w>
Komün ist</w>
I van
His eni</w>
Hel sinki</w>
G lo
Fotoğ raf
E ş
Dit ore</w>
D arko</w>
D TP</w>
C lu
C ap
Başk anlığı</w>
B eş
Arnavut lara</w>
A lakbar</w>
şüphes iz</w>
şüphel ilerin</w>
ın c
İ ç</w>
üst ünde</w>
özgürlüğ ünün</w>
örgüt lerin</w>
önlem lerin</w>
çevres el</w>
çalış mada</w>
zorluk lar</w>
yerleş im</w>
yasa larının</w>
w it
uygula masını</w>
tutum larını</w>
ti bat</w>
temsilc ilerle</w>
taz e</w>
tamam layan</w>
tac iz</w>
söyle ş
sö mür
stratej isinin</w>
stat ü
sonuc un</w>
sistem lerinin</w>
sem bol
sekret er
sandal y
rejim ine</w>
ra hat</w>
poz itif</w>
plan lar</w>
pazar ında</w>
oyn uyor</w>
onay landı</w>
olma y
olduğ umuzu</w>
olan ların</w>
mücadele deki</w>
mad ık</w>
maaş lar</w>
leh ine</w>
kırık lığı</w>
iç inden</w>
iz in
itibar ını</w>
iste ği</w>
imiz den</w>
il mesinde</w>
hev es
görüşme lerden</w>
gergin likler</w>
gel in
gaz ı</w>
fabrik asının</w>
f av
ev inin</w>
ev inde</w>
et meden</w>
es eri</w>
engel lerin</w>
edebil eceği</w>
e leriyle</w>
dış arı</w>
düşüş e</w>
düşün ülüyor</w>
duy g
durum una</w>
do ların</w>
destek çileri</w>
demokras iye</w>
dalg ası</w>
cez asını</w>
bütç esine</w>
bölge lerdeki</w>
bulun mayan</w>
bulun masını</w>
bu lan</w>
belir lendi</w>
başkent in</w>
bas ının</w>
bakanl ıkları</w>
bakanl ık
bak ıyor</w>
b al</w>
azın lıklara</w>
ame li
alışver işi</w>
akş am</w>
aday lık</w>
a lardan</w>
Yıl d
Wolf gang</w>
V ul
U E
Sv ilanoviç</w>
Sosyalist ler</w>
Sch o
S ay
Politik ası</w>
Pak istan</w>
Oyun lar</w>
O S
Nen ad</w>
Mla den
Meto h
Mav i</w>
L ip
Kur ti</w>
J ak
Ele ctr
D DY</w>
C os
Bayra mı</w>
Anton ela</w>
A ş
7 1</w>
şey lerin</w>
şaib eli</w>
İş ler</w>
zar arlı</w>
zanl ıyı</w>
zam mı</w>
yürütü lecek</w>
yükümlülük leri</w>
yol larının</w>
yarış masında</w>
veril diğini</w>
verg ileri</w>
ve da</w>
ur t</w>
ulaş an</w>
tik ten</w>
ter san
temiz lik</w>
tehdi di
tarih in</w>
t bol</w>
sınır larının</w>
sürec inden</w>
sür esini</w>
su yu</w>
sorun suz</w>
soru ya</w>
soru larını</w>
sonuç landır
seçmen leri</w>
ses siz</w>
send ika</w>
sağla yacağı</w>
savun arak</w>
reform larının</w>
reddet mesi</w>
pat layıcı</w>
part isinden</w>
part ili</w>
pah al
p eş
orta lamasının</w>
ort asına</w>
o il</w>
n el</w>
maden cilik</w>
ma masını</w>
m ük
köy ünde</w>
kural larına</w>
kur u</w>
kork u</w>
kend isiyle</w>
ke y</w>
kaynak ların</w>
kampanyas ının</w>
iz olas
i os</w>
hazır lıkları</w>
hava alanı</w>
harc ama</w>
hafta lar</w>
gün ünden</w>
gün ümüzde</w>
gün cel
görev ler</w>
görev inin</w>
gergin liği</w>
festiva linde</w>
ekonom ileri</w>
egemen liğini</w>
edebil ecek</w>
düşür ül
dik u</w>
denet le
dair esinin</w>
cumhur iyet</w>
bilg ilerin</w>
bi sik
bek lem
başla ndı</w>
bağımsız lığa</w>
b ot
açıklan mayan</w>
avanta j</w>
an lama
abilir ler</w>
V ecer
UN H
UNH CR</w>
Trak ya</w>
S ev
Pet rescu</w>
PN L</w>
P ot
M ale
Leak ey</w>
Kız ıl</w>
Kürt ler</w>
K ıs
J ovan</w>
Go og
G ates</w>
Fran co</w>
Filist inli</w>
Dest ek</w>
D ede
C az</w>
B ot
B iz</w>
B S</w>
Arjant in</w>
Ar t
198 4</w>
şi ir</w>
İz landa</w>
İdar e</w>
üzün t
ürün lerinin</w>
öner isine</w>
zar ar
z an</w>
yoğun laştır
yaş amak</w>
yarış mada</w>
yarış acak</w>
ver ileri</w>
v ardılar</w>
v ard
umu du</w>
toplant ılar</w>
ta cağını</w>
sınır lar</w>
sonuç ta</w>
sat an</w>
san ığın</w>
saldır ısı</w>
sabah ı</w>
ru s</w>
ren k
poli sine</w>
paylaş ıyor</w>
olmak sızın</w>
olay larını</w>
ola cağ
muh temel</w>
mil is</w>
mez un</w>
me lerle</w>
mar j
malz eme
mal lar</w>
madde si</w>
m ur
m p
loj istik</w>
list enin</w>
lider inin</w>
lendir di</w>
kolaylaştır mak</w>
kesim lerinde</w>
ke mer</w>
kaç masına</w>
karşılaş masında</w>
k olu</w>
iç inse</w>
in er</w>
imza lama
ib aret</w>
heyet in</w>
her ine</w>
hareket le</w>
güç ler</w>
girişim de</w>
gid erken</w>
geçir meye</w>
genişle mesi</w>
gel mediğini</w>
gali p</w>
g ol</w>
fark ına</w>
et iç</w>
em li</w>
düzenle mek</w>
değil im</w>
değerlendir iyor</w>
dakik ada</w>
d aş
belirt il
banka ları</w>
aç mış</w>
az alması</w>
akra ba
ak şam
acağ ım</w>
Vecer n
U n
Ser ge</w>
Sarayb os
S ok
Roc en</w>
Pop ovski</w>
P assy</w>
N er
Mil iç</w>
Lad in</w>
Kü tüphan
Kur um
Goog le</w>
Er hard</w>
At atürk</w>
9 6</w>
ş ok
ş ar
ınday ız</w>
üst lendi</w>
ülk esindeki</w>
öner isinin</w>
ön yarg
öf ke
öde meye</w>
çift çiler</w>
çek tiği</w>
Çav uş
z im</w>
yon el</w>
yen ilg
yaz an</w>
yand aş
y edi
wat t</w>
w ay
ver menin</w>
ver ilerine</w>
uyard ılar</w>
tutuk lamalar</w>
tut maya</w>
teş em</w>
tav iz</w>
tartış maların</w>
sür ül
stand ard
sen iz</w>
sekret er</w>
sağ lıklı</w>
safha da</w>
re li</w>
politik alarının</w>
piyas ası</w>
p ol</w>
oy unun</w>
operasyon lar</w>
oc iç</w>
nitele di</w>
neden lerinden</w>
moderniz asyon</w>
mek an
med yası</w>
mad ıklarını</w>
ly eviç</w>
lider leriyle</w>
lağ v
kı demli</w>
kut up
kur al</w>
karar ında</w>
kali te</w>
kaldır ılmasını</w>
k taş</w>
in alı</w>
ik ler</w>
ifade sine</w>
i ğinin</w>
hükümet lerinin</w>
hizmet lerini</w>
her şey</w>
hat ları</w>
hak im
görüş meye</w>
görüş ler</w>
git tikçe</w>
gi u</w>
getir mede</w>
getir iliyor</w>
gerçekleştir mek</w>
gen elindeki</w>
geliştir meye</w>
engelle meye</w>
en ik</w>
edi yordu</w>
ebilir im</w>
du yan</w>
direk tör
değiş imi</w>
dava larının</w>
dava larını</w>
ces ur</w>
c ileri</w>
bur adan</w>
bu ğ</w>
bomb alama</w>
bir im
belediye lerin</w>
baş larına</w>
bağl ılığını</w>
ban liy
açıklama lar</w>
aç mıştı</w>
aç lık</w>
at tılar</w>
at arak</w>
art ı</w>
arkadaş ları</w>
arac k</w>
ar ru
Z or
Z latko</w>
Yönet imi</w>
V ele
T or
T im
Sara y</w>
SE E</w>
S tep
S ali
RT S</w>
R ak
Mit re
Mih ay
Mahke mesine</w>
Leh ne</w>
J and
Gün leri</w>
Gj orge</w>
G ök
F ou
Eur os
Er k
Den ktaş</w>
Dair esinin</w>
C lar
C in
B azı</w>
B arack</w>
A 1</w>
şans ına</w>
ım lı</w>
İş leri</w>
Çağr ısı</w>
yet işk
yet eri</w>
yar ısından</w>
yapıla cağı</w>
y n
vak it</w>
tutuklan masının</w>
toplum ları</w>
toplum dan</w>
tern at
tehdit leri</w>
tehdit ler</w>
tanım lan
t ün
t esinin</w>
sınır dışı</w>
sıkınt ısı</w>
suç undan</w>
su isti
soruştur ması</w>
sim ge
seçim lerle</w>
san ıklar</w>
saldır ıda</w>
sah tek
sah il</w>
sa bır
s oli
ri ja</w>
prest ij
piy an
p ap
onay lama
on larla</w>
nezaret inde</w>
n ey</w>
merkez iyet
memur unun</w>
mekt ub
mar at
luk lu</w>
liğ indeki</w>
ku lis</w>
kriz inin</w>
koşul larının</w>
konser ler</w>
komş usu</w>
kit le</w>
kesin ti</w>
kağ ıt</w>
kazand ığını</w>
kay dı</w>
katıla cağı</w>
kardeş i</w>
karar ların</w>
karar dan</w>
kal masına</w>
iz li</w>
ir di</w>
ilgil endiğini</w>
ilan ının</w>
ilan ı</w>
il inde</w>
hedef lenen</w>
harc ad
göç menlerin</w>
gur bet
girişim ini</w>
girişim e</w>
genç leri</w>
fuh uş</w>
fir malarının</w>
es as</w>
düzen liyor</w>
duyur uldu</w>
dur ağ
değiş ti</w>
devlet ten</w>
den iyor</w>
den g
dav ayla</w>
d ük</w>
cam i</w>
c il</w>
büyükelç ili
bul ması</w>
bil eş
beğ en
belirt mekle</w>
başlang ıcı</w>
azın lığın</w>
asker lerini</w>
aran anlar</w>
ak l
aday ın</w>
a larla</w>
Zirv esi</w>
Yolsuz luk</w>
Tra b
T u
T et
Sur iy
Sta d
R em
N ok
N ez
N et
N A
Müslüman ların</w>
Kra gu
H 5
H5 N1</w>
Gre gor
Gen er
G ord
G el
Fou ere</w>
Don ald</w>
Boşnak lar</w>
Biz ans</w>
Al ban
Al b
A va
9 9</w>
1 70</w>
şaşırt ıcı</w>
şart ıyla</w>
ıl ımı</w>
üzün tü</w>
ür ünü</w>
üp er</w>
çözüm üne</w>
çok lu</w>
çiz iyor</w>
çalış masını</w>
yumuş ak</w>
yet ler</w>
yas aklan
yarg ının</w>
yap ıp</w>
yakın ındaki</w>
yaklaş ırken</w>
way s</w>
uygulama yı</w>
tutuk lu</w>
tik a</w>
tasar ısını</w>
tanıt ım</w>
ta t</w>
t re
sınır ındaki</w>
sun ma</w>
sey ret
set lerle</w>
sahip lerinin</w>
prestij li</w>
p o
oyn adı</w>
ortam ında</w>
ola cağız</w>
nüfuz lu</w>
neh ir</w>
neden inin</w>
müzakerec isi</w>
müst ak
muhafazak ar</w>
mesle ki</w>
meb lağ
ma nd
lük te</w>
lo du
lodu y</w>
l ıyız</w>
kül türü</w>
kurul unun</w>
kul land
koy ma</w>
kazan ıyor</w>
kayde de
kayb etmiş</w>
kart ı</w>
kal mayı</w>
j ek
işbirli k
isteme diğini</w>
is iyat
i v</w>
güven liğe</w>
gör mez
gör meye</w>
gör ebil
gru buna</w>
gir iyor</w>
geçmiş e</w>
geç iş
getiril mesini</w>
gazetec inin</w>
fiyat larını</w>
fikr ine</w>
ev in</w>
etme de</w>
enflas yonun</w>
end iği</w>
eleştir i</w>
edil eceği</w>
düz ine</w>
dönem den</w>
dön mek</w>
dolaş ımı</w>
değişik liğin</w>
denet imli</w>
d ili</w>
c evski</w>
bırak ıp</w>
büyü meye</w>
bölge lere</w>
başlay ıp</w>
ayır dı</w>
as i</w>
an ıt</w>
alabil mek</w>
ak ış
ak oviç</w>
adım dır</w>
Yar gı
S w
R ij
R en
P M</w>
Or general</w>
Or du</w>
Obrad oviç</w>
Koz loduy</w>
K iş
K ah
K PC</w>
I OC</w>
Ho use</w>
Her se
Fr ank
E ide</w>
Do w
Char les</w>
Cat herine</w>
Bil dt</w>
Amer ican</w>
9 7</w>
ılık tan</w>
ılabil eceği</w>
İs veçli</w>
İli ç</w>
üret iminin</w>
ön ley
öl ümünden</w>
çık ıp</w>
Ür dün</w>
Ç içek</w>
yaşad ıkları</w>
yarat tığını</w>
yaptırım lar</w>
yaptır ım</w>
yapt ık</w>
yap ımc
yap ılar</w>
verg iler</w>
vaadi nde</w>
un g</w>
ulus lu</w>
ul us</w>
ul masını</w>
tesis lerin</w>
tecr it</w>
te m</w>
tamam ında</w>
st e
siyas ilere</w>
seviy esinin</w>
ses lenen</w>
senar yo</w>
say ıları</w>
sahip ti</w>
risk e</w>
rest oran</w>
ras ya</w>
onay ladığı</w>
on yalı</w>
on g</w>
olur sak</w>
olmaz sa</w>
mütte f
müdahale si</w>
muha bir
mode li</w>
mir as</w>
mesele sini</w>
mes idir</w>
memur larının</w>
medyas ına</w>
me me</w>
man ev
maliyet leri</w>
mak sızın</w>
m os</w>
list eye</w>
les cu</w>
le den</w>
kök lü</w>
kut lamak</w>
korun masını</w>
korun masına</w>
konse y</w>
kon v
komşu ları</w>
kayıt dışı</w>
kayg ı</w>
katıl masına</w>
karak ol
kali tesi</w>
k ok
iş çilerin</w>
istif aya</w>
ilke leri</w>
ilerlet ilmesi</w>
il oviç</w>
hesab a</w>
hazır ız</w>
hal i</w>
h ibe</w>
göster diler</w>
gör ecek</w>
grup ta</w>
girişim inin</w>
getir mesini</w>
getir eceği</w>
gele bilir</w>
gel me</w>
gel ince</w>
ettik ten</w>
ero in</w>
er o</w>
eme z
ekip leri</w>
edecek lerini</w>
doğ usunda</w>
dolay ında</w>
cumhurbaşkanlığ ına</w>
bu günkü</w>
bilin ç
belir tirken</w>
belge lerin</w>
başlat ılmasına</w>
barış ın</w>
bakanlığ a</w>
ard ındaki</w>
anlaşmaz lığını</w>
ala cak
aday lığını</w>
abilir iz</w>
abil is</w>
W est
V r
V elj
Transil vanya</w>
T A
Sr p
Rek ab
R O
Pr ot
Pav koviç</w>
Of isi</w>
Ku v
Kragu je
Kos anoviç</w>
K av
J ag
I liç</w>
Gra can
Gen t</w>
G ana</w>
Fre e</w>
Dnev ni</w>
Dede ağaç</w>
D abilis</w>
C v
Av rasya</w>
8 6</w>
5 50</w>
2, 3</w>
şirket ine</w>
şeh r
ıyor lardı</w>
önem deki</w>
çıkar ıl
çıkar dığı</w>
çalışma larında</w>
çalış mayı</w>
Öğ retim</w>
Çağ daş</w>
zinc iri</w>
yol lar</w>
yed inci</w>
vatandaş ının</w>
vatandaş larını</w>
var lıklarını</w>
tiz m</w>
tamam landı</w>
tab an</w>
t op</w>
sınır sız</w>
sür düğünü</w>
si j
sergilen iyor</w>
sağlan masına</w>
savaş ta</w>
s im</w>
rüt beli</w>
reh ber
proje lerini</w>
person elinin</w>
olay larda</w>
olabil mesi</w>
of is</w>
mü yorum</w>
muh teşem</w>
mu c
me diklerini</w>
maf ya</w>
m un
lim anı</w>
lan t
kör ükle
kural lara</w>
kur an</w>
kul laku</w>
konsorsiy umu</w>
kim ileri</w>
kav g
katılımc ılara</w>
karar ıyla</w>
kan lı</w>
ir ok
imzala yan</w>
ih mal</w>
iddi alar</w>
hektar lık</w>
hazır lamak</w>
git tiği</w>
g en</w>
for um</w>
et tim</w>
esn ek
endiş eleri</w>
en geli</w>
em ir</w>
duyur uya</w>
den geli</w>
de lil</w>
day at
bulun madığı</w>
borç ları</w>
bildir ge</w>
bi yle</w>
belirt miş</w>
beklen medik</w>
bask ılar</w>
b as</w>
atan ması</w>
alan a</w>
al bü
ag e</w>
ac ılar</w>
a let</w>
Vas sil
Türk çe</w>
Tah iri</w>
Sib enik</w>
Ro d
Pol t</w>
Phil ip</w>
Part inin</w>
Ordus unun</w>
O k
Mal ta</w>
M r
M ilanoviç</w>
Kan ad
Kal fin</w>
K ru
Ili escu</w>
Hü seyin</w>
Gord on</w>
Festiva linde</w>
E van
D om
B un
B M
8 7</w>
3, 6</w>
ıl maya</w>
ık ça</w>
İs ma
çık masını</w>
çoğunluğ un</w>
Ül ke</w>
yüz de
yön el
yoğun lukta</w>
yorum ları</w>
ye ler</w>
yap ıların</w>
yan g
uçağ ı</w>
tepk ilere</w>
tamam lanacak</w>
t ıktan</w>
söz lerle</w>
sun uluyor</w>
stand by</w>
son larına</w>
skand al</w>
siz i</w>
savc ılığın</w>
rol e</w>
r it
paras al</w>
pak et</w>
oyuncu ları</w>
os a</w>
oran larını</w>
ol saydı</w>
of isinden</w>
nos top
nokt asında</w>
müttef iki</w>
mültec iler</w>
mesle k</w>
maç ında</w>
mater yal
lik lerine</w>
le si</w>
lar y</w>
karşıla y
iz el
istedik leri</w>
ist erken</w>
in ski</w>
il lerinin</w>
ifade sinde</w>
ib er</w>
i deki</w>
hazır lama</w>
hareket inin</w>
güney inde</w>
günd em</w>
görüşme lerine</w>
gez i</w>
gerçekleştir diler</w>
gelece ğin</w>
gel miyor</w>
gecik tir
g ayet</w>
festival ine</w>
f an
est i</w>
es ince</w>
ekip man</w>
edin me</w>
düşür ülmesi</w>
dikkat le</w>
değişiklik lere</w>
destekley eceğini</w>
dağ lık</w>
dav asını</w>
danış man</w>
cer rah
bırak ıldı</w>
bulun makla</w>
blo g</w>
bir imleri</w>
bildirge de</w>
bank asının</w>
at andı</w>
anlaş madan</w>
an tren
alın arak</w>
al ç
ag nostop
adım ın</w>
V ir
Tos e</w>
Tat lı
Saraybos nalı</w>
SN S</w>
Rum larının</w>
Plav siç</w>
P ej
Nes ovski</w>
Mu ham
M om
Lat in</w>
L ov
Hav ali
Fit ch</w>
F onun</w>
F ar
ES M</w>
E P
Düz en
Da imi</w>
Bor islav</w>
Bla g
Biz im</w>
An agnostop
8 .
6 ,5</w>
5 ,5</w>
2, 7</w>
2 40</w>
0 ,5</w>
şüph eli
ı mad
çek erek</w>
çalış arak</w>
ç ete</w>
yurt dışından</w>
yaşad ığını</w>
yaş ın</w>
yapılandır ma</w>
yap ıyoruz</w>
yanıt layan</w>
yaklaş ımı</w>
ver iyorlar</w>
uzman lık</w>
uz an
tur a</w>
tem yiz</w>
taşımac ılığı</w>
soykır ımla</w>
ser may
s ke</w>
ro f
proje lere</w>
perak end
part isine</w>
ortaç ağ</w>
oluş acak</w>
ok uma</w>
mensu bu</w>
mekt u
mek ti</w>
maya caktır</w>
man i</w>
leh te</w>
las ı</w>
kötü leş
kurul masının</w>
kesim inin</w>
kay akç
katıl ıma</w>
k aldılar</w>
j an
iç me</w>
inan ç
imzala mak</w>
ileş tir
i ev</w>
hisse di
hey kel</w>
he diye</w>
hafta dan</w>
güç lerine</w>
güven cesi</w>
gö mül
gerçekleştir ilmesi</w>
forum da</w>
f et
ek mek</w>
eder se</w>
ebilir ler</w>
e p</w>
düşünd üğünü</w>
düzenle mesi</w>
dön meye</w>
donan ım</w>
din iz</w>
din ar</w>
değiştir ilmiş</w>
değişik liğe</w>
bil miyorum</w>
bil iyorum</w>
başken t</w>
bağıml ılığını</w>
b ette</w>
aç ığa</w>
aç acağı</w>
at mış</w>
arke olojik</w>
an et</w>
ama yacağını</w>
alan ına</w>
ak tris</w>
ag iç</w>
abil ecekleri</w>
Vla h
Tele com</w>
St at
Sov yetler</w>
Sor um
Sh kullaku</w>
S O</w>
Ru d
Rij eka</w>
R aj
P ula</w>
P T</w>
On line</w>
Ne ws
N MS</w>
Müz ik</w>
M in
M ag
L or
Kr iv
Hil lary</w>
Hava yolları</w>
Cr istian</w>
C rvenkovski</w>
Baş buğ</w>
Ava z</w>
Air ways</w>
9 3</w>
6 50</w>
1, 7</w>
0 .
- ve</w>
şart larda</w>
ıl ır</w>
İv ana</w>
üstün lüğünün</w>
öner ilerini</w>
çık tılar</w>
çevir di</w>
çalış manın</w>
yönet ilen</w>
yet iş
yaşam larını</w>
yaş andığını</w>
yat ıyor</w>
vir üs
ver meden</w>
vak a</w>
uyar ıyorlar</w>
uk ta</w>
turnu va
traf iğe</w>
top ar
tedbir lere</w>
te ye</w>
tasar lanmış</w>
tartış manın</w>
tak si</w>
sık ma</w>
son suza</w>
so h
si yon</w>
seviy elerde</w>
saldır ıyı</w>
risk li</w>
pat lama
oy sa</w>
oto matik</w>
oto büs</w>
om ot
n eli
mü j
memnun iyeti</w>
m iyoruz</w>
let in</w>
l unun</w>
kuruluş ların</w>
kural larını</w>
kullan ımının</w>
koy an</w>
kork uyor</w>
kod ra</w>
kent teki</w>
kaynak larına</w>
kavuş tu</w>
kasab asındaki</w>
karşıla yarak</w>
karşıla yacak</w>
kamu sal</w>
işle diği</w>
istem iyoruz</w>
ik ten</w>
ik en</w>
ik a
ihtilaf ından</w>
iddiana mede</w>
i da</w>
hoşn ut
hizmet lerinin</w>
helikop ter
h ile</w>
göster irken</w>
görmez den</w>
girişim ler</w>
gez isi</w>
gev şek</w>
gali bi</w>
fiyat ların</w>
fikir ler</w>
fel d</w>
etme lerine</w>
esk u</w>
er mesi</w>
entegras yonunun</w>
endiş eli</w>
end er</w>
edi k</w>
düzenle yerek</w>
diyaloğ a</w>
diktat ör
di kil
destekle meyi</w>
cinay eti</w>
c lock</w>
bir a</w>
bildirge yi</w>
ağ ında</w>
aç arak</w>
az alıyor</w>
at lar</w>
araç lar</w>
anayas ayı</w>
ala bilir</w>
adım ların</w>
Y etkil
Vuk ceviç</w>
U S
Ts vet
Tray kov</w>
Sa diku</w>
Radi kal
Pi erre</w>
Pet rol</w>
N ükleer</w>
Mart y</w>
Ma x
M im
Kraguje vac</w>
Kom it
Koalis yon</w>
Kaç akç
Kanad alı</w>
Kan unu</w>
Jan kul
I on</w>
E di
Diy al
Bank asının</w>
Balkan larda</w>
Al ina</w>
AR M</w>
3, 3</w>
ş ova</w>
Ş i
Ş ala</w>
ır a</w>
ıc ıların</w>
İddiana mede</w>
üye lerin</w>
üret en</w>
Ö c
Öc alan</w>
Ç ık
yetk isine</w>
yen lere</w>
yaşan acak</w>
yatırım larının</w>
veril mesine</w>
var say
uz a</w>
us uyla</w>
u ların</w>
toplum da</w>
tes eb
tebr ik</w>
tavr ı</w>
tartış tılar</w>
t uğunu</w>
t eli
sürdür ecek</w>
suç lama</w>
sun mayı</w>
say ı</w>
sanatç ıların</w>
san al</w>
saldır gan</w>
r ö
pazar ındaki</w>
paylaş ımı</w>
on lardan</w>
o ları</w>
nes il</w>
nd iği</w>
mür ef
müref fe
müreffe h</w>
man ız</w>
ma m</w>
lı yoruz</w>
li san
la z
küç üm
kuvvet lerin</w>
kut lama</w>
kur dular</w>
kullan ıldığı</w>
ko s</w>
kazan mıştı</w>
kayg ılar</w>
karşıla maya</w>
karşı lanması</w>
karg aş
kala caklar</w>
kal mıştı</w>
k ur</w>
iz n
itti fak</w>
it ate</w>
ilg inç</w>
ihtilaf ın</w>
if a</w>
hukuk a</w>
hazırlan masına</w>
haf tanın</w>
gör mesi</w>
geçmiş in</w>
ges iz
gelir lerinin</w>
g y</w>
film inin</w>
fayd alı</w>
ey leme</w>
enf ek
en s</w>
eme diği</w>
eleştir iyor</w>
egemen liği</w>
edil memesi</w>
ed om</w>
e grad</w>
durgun luk</w>
destekle di</w>
den gesiz
dav aya</w>
d inin</w>
bırak an</w>
bölge lerindeki</w>
br if
borc unun</w>
bir im</w>
bildir isinde</w>
belediye de</w>
beklent ileri</w>
başlat ılmasını</w>
aşa masında</w>
ayr ılacak</w>
at tığını</w>
asker e</w>
anlaşmaz lığa</w>
anlay ış</w>
alan ların</w>
ail elerine</w>
Zen ica</w>
Y ves</w>
UE FA</w>
UD F</w>
Sor uştur
Secur itate</w>
Sav aş
SA F</w>
S oy
Rauf oğlu</w>
R A
Oyun ların</w>
Mil utinoviç</w>
Luk oil</w>
Kra l</w>
Jon es</w>
Gen ç</w>
Fre edom</w>
Dy ukanoviç</w>
Bran islav</w>
B uk
B lan
Az ın
Aleksand er</w>
A M
9 .
ü d
örgüt lü</w>
çevr il
çek ilen</w>
çağr ı</w>
Üniversit e</w>
z ab
yayın lanacak</w>
yargıç lar</w>
yap ımına</w>
y emin</w>
uzunluğ undaki</w>
uzlaş macı</w>
uygula manın</w>
us lu</w>
uk larını</w>
uc h
u larından</w>
tartış maları</w>
talebi yle</w>
t ay
söz lü</w>
stratej inin</w>
son bah
senar yo
sağla m
sak lan
s ını</w>
ruh u</w>
res sam</w>
reh in</w>
reform un</w>
reform cu</w>
re el</w>
raport örü</w>
proje lerinin</w>
plan lama
pazar ın</w>
parç as
part isini</w>
p arası</w>
olma dıklarını</w>
od rag</w>
n iyeti</w>
müzakere lerindeki</w>
müfett işler</w>
mode l
maya cağına</w>
mas i</w>
mak tı</w>
ma maya</w>
luğ unun</w>
leştir mek</w>
le tizm</w>
laş mış</w>
lar ım</w>
l us
kısıt lamaları</w>
kıs ım
kurum larında</w>
kur acak</w>
koruy an</w>
koru yacak</w>
kazan maya</w>
katıla cağını</w>
kar anlık</w>
kans er</w>
kabin esinin</w>
ister im</w>
in t
in ger</w>
ima r</w>
ila ç
ik incisi</w>
hır sız
huzur unda</w>
her kesi</w>
hazır lıyor</w>
hastan ede</w>
ham le</w>
göster iliyor</w>
gerçekleş tiği</w>
geril eme</w>
gerektir iyor</w>
genişlet me</w>
geliş mesi</w>
gali bi
ev r
etkil edi</w>
eli yor</w>
ele n</w>
ec z
düzen e</w>
dö viz
dep ola
büyükelç ileri</w>
böl üm</w>
baş lamadan</w>
açıl masına</w>
ayrınt ıları</w>
ayak kab
at ını</w>
artır ıyor</w>
araştır malar</w>
ar ayan</w>
anlat tı</w>
an ki</w>
al ternat
al makta</w>
a -</w>
Z up
Y eş
Vat and
Vadi si</w>
V latko</w>
Top iç</w>
Televiz yonu</w>
Tatlı ses</w>
Tale ski</w>
T üm
T ri
T ir
T E</w>
Sür ec
P li
P etk
Mül tec
Mo bil
Man astır
M andiç</w>
L ar
K re
I SAF</w>
Hede f
Gü ler</w>
G la
Exp ress</w>
Ec onom
D ra
D an</w>
Bud va</w>
Br ay
A gr
9 .</w>
19 .</w>
1 3
şof ör
şirket e</w>
şi f</w>
ılma dan</w>
İh rac
örgüt lere</w>
ör t
ön leyici</w>
ön lem</w>
çıkar mayı</w>
çiğ ne
çek meyi</w>
çağır ıyorum</w>
zor luk</w>
yüz leş
yürüt ecek</w>
yaşam ın</w>
yayım lanan</w>
y ör
vek ili</w>
va h
v enin</w>
uğr ay
utan ç</w>
ut sas</w>
ust ur
und u</w>
un cusu</w>
umar ım</w>
tüketic iler</w>
toplum larının</w>
tenis çi</w>
tahmin lere</w>
tab l
sırala masında</w>
suç layan</w>
suç ladılar</w>
sağ a</w>
sar f</w>
s iste
s as
rof t</w>
risk ler</w>
risk ini</w>
reddet tiği</w>
reddet tiler</w>
plan larına</w>
onay ına</w>
olma mız</w>
ol du
o da
müstak bel</w>
mo ment
mez se</w>
mes indeki</w>
madde leri</w>
ma sa
m otor
lisan s</w>
ley le</w>
kurban ları</w>
koy mak</w>
kesim ler</w>
ke şif</w>
kaz ı</w>
karşıla dığını</w>
karar gâh
k ızı</w>
izel os</w>
istih da
in es
il it
huzur una</w>
halk la</w>
hali hazırda</w>
gündem inin</w>
göster meleri</w>
göster dikleri</w>
gra f
geç meye</w>
gerçek te</w>
gerek mektedir</w>
geliş melerin</w>
geliş melere</w>
gaz i</w>
fel sef
farkl ılıkları</w>
fak tör</w>
et tiğimiz</w>
et miştir</w>
enflas yonu</w>
ed ilerek</w>
düzenle dikleri</w>
dönüştür me</w>
duyur u</w>
duy uyorum</w>
dom uz</w>
disip lin
den ge</w>
de m</w>
cenaz e</w>
büyükelç iliği</w>
bölün mesi</w>
bu z</w>
birleş miş</w>
bir iminin</w>
bağ ları</w>
bas ını</w>
at ının</w>
artır acağını</w>
araştır macı</w>
anlam ıyla</w>
anayas ada</w>
analist lere</w>
alışveriş inde</w>
al masının</w>
al ler</w>
al gı
ach im</w>
Z il
Z i
Y abancı</w>
Ven izelos</w>
T üm</w>
T ep
Sp as
S oğ
Pet ro
Olimpiyat lar</w>
N iş</w>
N S</w>
Mah mu
Lima j</w>
L ut
L o
L im
Konsey inin</w>
K uk
Jo achim</w>
J ansa</w>
I S
H an
Gir iş
Geç ici</w>
Gazetec ilik</w>
FI FA</w>
F is
F az
E mek
Di Carlo</w>
D ön
D L</w>
Boris sov</w>
Ber n
Bar an</w>
BN N</w>
B en</w>
Ant alya</w>
A tan
9 1</w>
. h
ş anta
İ sa</w>
ülk esiyle</w>
ödül lü</w>
ödey ecek</w>
çıkar ken</w>
ç eliş
Özgür lük
Ç ek
z er
yukar ı</w>
yon ların</w>
yavaş lat
yarış maya</w>
yar ısını</w>
yap maktan</w>
ver mekte</w>
uzat ma</w>
ut op
um anın</w>
ub e</w>
toplant ısını</w>
tip i</w>
ti yorlar</w>
ti ca</w>
terörist lerin</w>
takv iye</w>
suç larının</w>
sez on</w>
sağlay abilir</w>
santral in</w>
sahi biz</w>
s feld</w>
ris h</w>
r is</w>
r ek</w>
protestolar a</w>
proj eyle</w>
oran ıyla</w>
ola cağından</w>
nor m
niyet inde</w>
mey ve</w>
mekaniz ma</w>
meden iyet
m ara</w>
lik lerinin</w>
leş menin</w>
kırıl gan</w>
köpr ünün</w>
koşul larını</w>
komut an
kaçır ma</w>
kayg ıları</w>
karşı lanacak</w>
ka y</w>
işlet meleri</w>
iş lerine</w>
iyor sa</w>
it ler</w>
il da</w>
ik an</w>
ihale sini</w>
if şa</w>
id oviç</w>
hükümet inde</w>
hazır lıklı</w>
hav aya</w>
h t
güçlük lerle</w>
gir mesini</w>
getiril mesine</w>
gerçekleş tiğini</w>
gerçekleş mesini</w>
genişlet ilmesi</w>
geliş inden</w>
fu arı</w>
f iye</w>
er r
eleştir iler</w>
el bette</w>
ekonom ilerinin</w>
ek olojik</w>
durdur ma</w>
dur du</w>
değerlendir mesi</w>
dey di</w>
deney im
böyle si</w>
böl ücü</w>
belirle yen</w>
becer ilerini</w>
başkan larının</w>
başar ısını</w>
bağımsız lıktan</w>
ayrıl ma</w>
at oviç</w>
arabul ucu</w>
ar gü
anlaşmaz lığın</w>
am ıyor</w>
ad aya</w>
V lasiç</w>
Tüm general</w>
Top alli</w>
Tet ovo</w>
Sın ır
Ste el</w>
Slov ak</w>
S ret
S nez
Rom ano</w>
Pat ten</w>
P an</w>
Muham med</w>
M ES
Küç ük</w>
Kuvvet ler</w>
Kad are</w>
K ip
I rish</w>
G ri
G os
Fotoğraf lar</w>
El çisi</w>
Demokrat ların</w>
Clar k</w>
C lau
An cak</w>
Al bay</w>
7 9</w>
2, 2</w>
2 1.</w>
şüphes iyle</w>
Şim di</w>
ımız dan</w>
ılabil mesi</w>
ıc ıları</w>
üy esini</w>
üst ün</w>
ürün lerin</w>
üret ilen</w>
ülkem izin</w>
ödül üne</w>
ö len</w>
çoğunluğ a</w>
çek ici</w>
çar e</w>
Ü y
zirv esinin</w>
yu var
yapt ıklarını</w>
yap manın</w>
yan ıtı</w>
yan ındaki</w>
yal ılar</w>
yaklaş ıyor</w>
ver mediğini</w>
ver enler</w>
va at</w>
tedbir lerine</w>
ted biri</w>
tamam ının</w>
t rend
sınır ların</w>
söyleş ide</w>
suç lara</w>
soruştur mada</w>
siyas etin</w>
siste matik</w>
silah ları</w>
sektör deki</w>
s ans
ro koviç</w>
r iv
performans ını</w>
pah asına</w>
ot o</w>
os av
ordu ya</w>
oper a</w>
o ara</w>
n ö
mücadele si</w>
miktar larda</w>
mes e</w>
med yasında</w>
madde lik</w>
maaş larının</w>
maaş larına</w>
lj anin</w>
laştır mak</w>
lar i</w>
la y</w>
l ilerin</w>
kısıt lı</w>
kon seri</w>
kon aklama</w>
kim liğini</w>
kazan ırken</w>
katıl maları</w>
kampanyas ını</w>
kalınt ıları</w>
kal ırken</w>
incele y
in isiyat
imzala ması</w>
ik ram
ik inc
ide al</w>
hız ı</w>
hit ap</w>
he v</w>
he di
haber dar</w>
göç menler</w>
görül mesi</w>
görev inde</w>
geç in
gerçek leri</w>
genç lere</w>
geli yorlar</w>
gele bilecek</w>
ga ler
farklılık lar</w>
fak ül
f olk
ey se</w>
etme diği</w>
el li</w>
edi törü</w>
ebil eceğine</w>
dönüş tü</w>
dönem deki</w>
dias por
derin leş
derg isinin</w>
de mi</w>
davran ış</w>
damg asını</w>
cak tı</w>
c roft</w>
büyükelç ilik
borç lu</w>
birinc ilik</w>
bi nde</w>
belirle diği</w>
beklen irken</w>
başla dığında</w>
başkan ını</w>
baş bakan
bağ lam
bask ın
baraj ını</w>
aç tılar</w>
atmos fer
as t
art masını</w>
ap art
an ovo</w>
ab ı</w>
Z uk
Z arko</w>
Yunanl ıların</w>
T ara
Sırp larla</w>
S han
S at
Rum sfeld</w>
P ic
P TK</w>
P D</w>
Okul u</w>
Mıs ır
Mü tte
Muha lef
Mis ko</w>
Mi odrag</w>
MES S</w>
Lib er
L ist</w>
Kaz ak
Jon ilda</w>
Jand rokoviç</w>
J ociç</w>
Gracan ica</w>
G ros
Fut bol</w>
Fu ele</w>
Doğ ru
Cor por
C yp
C ity</w>
Bir liğinin</w>
Bes a</w>
Ar ası</w>
A kr
1, 1</w>
- -
ş iv
ş en
ış tı</w>
ıla v
İ la
üzünt üyü</w>
üyeli ğinden</w>
üst lendiği</w>
çocuğ unun</w>
Çavuş esku</w>
z im
z ey
yönet en</w>
yer lere</w>
yel paz
yar ış</w>
yaban cılar</w>
vo ley
un van
ul ovski</w>
ul duğu</w>
tık ça</w>
tüm ünü</w>
tutuklan ıp</w>
tut ar
taraftar ları</w>
tamam laması</w>
ta g
t ın
sırala dı</w>
sözleş menin</w>
söz leriyle</w>
suçlu lar</w>
sponsorluğ unda</w>
sosya list</w>
sorumluluk larını</w>
sor ular</w>
son ra
siyaset çilerin</w>
seçen ek
seyre diyor</w>
sektör lerinde</w>
sağlama ları</w>
say gı
saha da</w>
restor e</w>
rekab eti</w>
radi kal
pazar larına</w>
opoli s</w>
olan ları</w>
nak ledil
müz iği</w>
mük teseb
mut lak</w>
mu af</w>
milit an</w>
mez ar</w>
mev sim
mal larını</w>
mahkeme lerde</w>
ma malı</w>
ma li
li ce</w>
la yacağı</w>
kısıt lama</w>
kın ama
kın ad
kâ n
kurum larıyla</w>
kullan mayı</w>
kred ilerin</w>
kor id
kon sey
kolt uğ
koalis yona</w>
kent lerinde</w>
kaçağ ın</w>
kay da</w>
karşıla ya
kapat tı</w>
kapat mak</w>
kans er
izle meye</w>
iz ler</w>
iv an
ithala tı</w>
isim lerinden</w>
insan larla</w>
indir im</w>
imzalan acak</w>
imzala yarak</w>
ili ğe</w>
ilet iş
il ebilir</w>
i ei</w>
hiç birinin</w>
harit ası</w>
hakk ının</w>
güç lük</w>
göster me
görüş mesinde</w>
görüş lere</w>
gra fi</w>
git meye</w>
gerektiğ inin</w>
ger eğinin</w>
genc in</w>
geliş en</w>
gel mektedir</w>
g ayrı
fiyat larına</w>
film leri</w>
fark ı</w>
eğil im</w>
düş ük
düzenle meleri</w>
dönüş leri</w>
dern ekleri</w>
bırak ıl
bulunduğ umuz</w>
bo gar</w>
bin aların</w>
başar ıya</w>
baş lamaya</w>
baş ard
bağl ılık</w>
b uz
ar iç</w>
anlaşmaz lıkların</w>
amaç lar</w>
ale si</w>
ala y</w>
ah it</w>
ade mos</w>
abil eceğine</w>
Ven edik</w>
Var şova</w>
Tar ih</w>
Sın ır</w>
Si g
Si bi
S em
R af
Pli va</w>
Pap ademos</w>
Or kestrası</w>
O M
N is</w>
Mi hai</w>
MO L</w>
Lima y</w>
L ul
Has an</w>
H O</w>
Göre v</w>
Göre v
G ol
F C</w>
E V
Denet leme</w>
D üş
D ro
Corpor ation</w>
Bil l</w>
Bar bu</w>
19 70</w>
1 500</w>
.h r</w>
şeh ri</w>
Şah in</w>
üc reti</w>
öv g
öde mesi</w>
çağrı larına</w>
çalış makla</w>
Ül k
yürüy üş</w>
yürüt ülüyor</w>
yarış ında</w>
yar ıya</w>
yapt ığımız</w>
yak alama
y ıp</w>
y r
w .
var lığına</w>
um uzun</w>
ul oviç</w>
tur unda</w>
tesis ler</w>
taslağ ını</w>
soruştur maya</w>
sokak lara</w>
seçmen lere</w>
sektör e</w>
savaş a</w>
sanat çı
s utop
rom an
re y
prosed ür</w>
parç aları</w>
oynad ığını</w>
oy lamayı</w>
ov ei</w>
oturum unda</w>
ot uz</w>
ortak lığı</w>
on unla</w>
oluştur ulan</w>
o lar</w>
mim ari</w>
madde nin</w>
larımız la</w>
la yacağını</w>
l uluk</w>
kıy ısında</w>
kıs mi</w>
kurb anlar</w>
kur ula
kur ması</w>
kriter ler</w>
kor san</w>
kolaylaştır ma</w>
kent inden</w>
kend isinden</w>
kaz a</w>
kalkın mayı</w>
k la</w>
işç ilere</w>
iş inin</w>
izle diği</w>
ist ediler</w>
ines s</w>
in tern
imzalan masının</w>
ilke lerini</w>
ilişk ili</w>
ilerle mesinin</w>
iler iye</w>
iktidar ı</w>
hareket ini</w>
hab ilit
gü venin</w>
görüşme lerini</w>
gördük leri</w>
geçir iyor</w>
geçir ilmesini</w>
gergin liğin</w>
ge yi</w>
gazetec ilik</w>
g ht</w>
g esinde</w>
film iyle</w>
eylem lerinin</w>
et ya</w>
et li</w>
engel li</w>
efsan evi</w>
edebil mek</w>
e vac</w>
e be</w>
dük leri</w>
dok uzun
do ları</w>
di s
devlet lerin</w>
demokras iyi</w>
dair esinden</w>
canlandır mak</w>
cam i
c ay
büyükelç ilik</w>
bütç eye</w>
bu dur</w>
birleştir ilmesi</w>
bilgisay ar
bey in</w>
başla masının</w>
bask ının</w>
b ze</w>
açıklama ları</w>
açık layan</w>
aç abileceği</w>
ara dan</w>
ambar g
ald ıklarını</w>
ala caklar</w>
akşam ı</w>
abil en</w>
Z bogar</w>
Yıld ız</w>
Yarış ması</w>
Var na</w>
T roy
Soğ uk</w>
Sosyalist lerin</w>
Scot sman</w>
Scho ok</w>
S mil
S lj
S ing
Nok ia</w>
Mitre va</w>
Mahke mesinin</w>
L ag
L A
Krist ina</w>
Komis yonunun</w>
Koalis yonu</w>
Ko ci</w>
Kir il</w>
KO B
KOB İ</w>
I r
I l
I P</w>
Havali manı</w>
Gör üş
Federas yon</w>
F on</w>
F iz
End eks
Ede biyat</w>
D ec
D aci</w>
Col in</w>
C af
Baş savcısı</w>
Baş a</w>
Bab a</w>
B ey
B ask
Ara bistan</w>
Anlaş masına</w>
And rija</w>
Al kala
A İH
3, 2</w>
ürün lerini</w>
öner inin</w>
çıkar ıyor</w>
çık ıyorlar</w>
çöz ümünde</w>
çoğ unda</w>
çiğ n
çek mesi</w>
çağrı ları</w>
ç ıl</w>
ç ev</w>
Örgü t
yıldön ümünde</w>
yüz me</w>
yönetim iyle</w>
yön tem</w>
yol og</w>
yarat ılması</w>
yarat maya</w>
yapt ık
vaat leri</w>
uzlaş mayı</w>
usulsüz lük</w>
uch ner</w>
tut arlı</w>
tedbir lerinin</w>
tanıt mak</w>
tanım lanan</w>
tanık lık</w>
t ug
sınır ını</w>
sık ça</w>
soruştur malar</w>
sor uyor</w>
siyaset ten</w>
reform unu</w>
raj lı</w>
rad yo
rad y
pos ta</w>
oyun c
oto yolun</w>
or liç</w>
o kur
misyon unu</w>
mir asının</w>
mesaf e</w>
ma liyet</w>
ma den</w>
m or
lü sü</w>
luğ una</w>
lan i</w>
ken te</w>
kaçakç ılığının</w>
kazan mış</w>
kaynak larından</w>
kad ını</w>
j evo</w>
işlem leri</w>
iş ti</w>
iy iye</w>
ivan canin</w>
is mini</w>
is indeki</w>
ilerlet meye</w>
ik lerini</w>
ihtiyaç larına</w>
ic alı</w>
i at
has sas
has ara</w>
halk tan</w>
hal l</w>
göz lerini</w>
görüşme lerinde</w>
gör dük</w>
geril edi</w>
gerektiğ inde</w>
g isi</w>
faaliyet lerde</w>
fa z</w>
eylem lerine</w>
ev ler</w>
etkinlik leri</w>
etk iler</w>
es ir
entegras yonunu</w>
en leri</w>
eme diğini</w>
düzey i</w>
düzenle menin</w>
dön me</w>
duyur duğu</w>
dolandır ıcılık</w>
dokunulmaz lık</w>
di yorlar</w>
desteğ e</w>
ders ler</w>
de s</w>
de diği</w>
day andığını</w>
ch e</w>
cema ati</w>
büyükel çi</w>
bur ası</w>
bulgu lar</w>
bul duğunu</w>
bir inden</w>
bel gesi</w>
başar ılar</w>
bağımsız lığın</w>
barındır an</w>
bar ın
aş an</w>
ayr ılmaz</w>
at ılım</w>
at ıl
at anan</w>
ara ba
ap iç</w>
anlaşmaz lığının</w>
anla tan</w>
anahtar ı</w>
altyap ısını</w>
altyap ısı</w>
altyap ının</w>
akra b
ail elerin</w>
adi s</w>
a lamaya</w>
Zuk orliç</w>
W HO</w>
Vlah oviç</w>
Vele s</w>
Vel chev</w>
V ik
Tan ja</w>
Söz cüsü</w>
Sibi u</w>
Shan tek</w>
Re form</w>
P u
Os etya</w>
Oper a</w>
Mold ov
Mir asları</w>
M ile</w>
M e
M aj
L il
Kıs a</w>
Kum anovo</w>
Ko uchner</w>
K andiç</w>
Jos ep
Jo hn
I st
H S
Güz el
G avr
Dev r
D OS</w>
D C</w>
Bil imler</w>
Ben edik
B rat
B aj
Ar şiv
şekli nd
şahıs ların</w>
Şir keti</w>
ıs ıra</w>
İnsan i</w>
üle bilir</w>
ü leri</w>
öğ rend
öğ leden</w>
öy k
önle meye</w>
ödeme yi</w>
çalış masının</w>
çalış acağız</w>
Çalış maları</w>
zanl ısının</w>
zam m
yönetim e</w>
yetkil ilerinden</w>
yer ler</w>
yaşam ış</w>
yaş ları</w>
yasak layan</w>
y ız</w>
w ood</w>
viz yon</w>
vatandaş lığı</w>
v il
ulaş masını</w>
ul masına</w>
tut arındaki</w>
toprak ları</w>
topl uluk</w>
telefon la</w>
taş ıy
taraf ındaki</w>
taraf ça</w>
tanı maya</w>
tan ıyor</w>
tamam lanmış</w>
tahmin ler</w>
ta j
t ığ
sır adaki</w>
stad yum
son uncusu</w>
soh bet</w>
sahne ye</w>
sahip lerine</w>
rol üne</w>
risk ine</w>
politik asında</w>
planla dıklarını</w>
pazar da</w>
pazar a</w>
oynama ya</w>
otel ler</w>
or anın</w>
olas ılık
niteli ğinde</w>
ner eye</w>
mir asını</w>
mir as
meclis inin</w>
mad ığına</w>
mad ıkça</w>
m iyorlar</w>
lili ğin</w>
lider lerinden</w>
ler iyse</w>
ler imize</w>
le um</w>
lar mon
lamak tadır</w>
la mı</w>
l os</w>
kut ladılar</w>
kullan makla</w>
kredi yle</w>
ke le
kazan masına</w>
kaydedil diğini</w>
katıl mış</w>
katk ılarından</w>
ka lem
j et
işlet melere</w>
ir iz</w>
in ka</w>
in faz</w>
in and
ilgilen en</w>
ik oviç</w>
if tir
hızlandır ması</w>
hep imizin</w>
hazır layan</w>
hayat larını</w>
han i</w>
hal let
haftas onu</w>
h en</w>
göz üyle</w>
gör me
geç mesini</w>
getir meleri</w>
getir me
gazet enin</w>
gayr i
fiyat larında</w>
festival inin</w>
fer ib
faktör ler</w>
f at</w>
eylem lerin</w>
eser ler</w>
e meyeceği</w>
düş tüğünü</w>
düzen leyecek</w>
doğ udaki</w>
değerlendir iyorsunuz</w>
değerlendir iliyor</w>
bırak ma</w>
bugün lerde</w>
biç imi</w>
biz lere</w>
birbir lerini</w>
bilin iyor</w>
baş lı</w>
bayr ak</w>
bat ısında</w>
banliy ö
bak ıl
ati f</w>
ateş kes</w>
at ama</w>
as i
art arken</w>
araştır macılar</w>
araz i</w>
an t</w>
alan ının</w>
al masından</w>
ak ıl</w>
af et
ada da</w>
ab art
Zdrav ko</w>
S ir
S ak
S R
S C
R EC
Par a</w>
P al
Mladen ov</w>
Mek aniz
Mar s
L ak
Kur umu</w>
Kov aç
Kon vansi
K im
K ac
Jankul ovska</w>
I PA</w>
Hal a</w>
Gün ter</w>
Gaz ze</w>
Galer isi</w>
G he
Ener j
E ya
Der n
C ec
Bor sası</w>
Bir imi</w>
B oğ
B I
4, 4</w>
2, 9</w>
şikayet te</w>
Şi ir</w>
Ş id
İnsan ların</w>
ücret ler</w>
çat ısı</w>
çalışt ıklarını</w>
ç al
zim me
yıld ız</w>
yol daki</w>
yaş a
yap ıyordu</w>
yan ısıra</w>
yakın lardaki</w>
y s
verim siz</w>
ver ebilir</w>
v iç</w>
v est</w>
unsur ların</w>
und ur</w>
umut larına</w>
tüketic ilerin</w>
tutuk landığını</w>
tutuk lama
turist lere</w>
top landılar</w>
tereddü t</w>
teli f</w>
teklif ini</w>
te laf
sı ç
sürdürüle bilir
sür esince</w>
sür enin</w>
sür eceğini</w>
suçlu ları</w>
suikas tı</w>
suikas ta</w>
sor uyu</w>
sivil lerin</w>
sit esine</w>
seçen ekler</w>
sez onu</w>
say ımının</w>
sahn ele
ran t</w>
ra mı</w>
protokol ü</w>
politik anın</w>
piyas aları</w>
pat lay
os uz</w>
organizatör ler</w>
organ ları</w>
oran larının</w>
oluştur acak</w>
oluş um
olduğ un
olay lardan</w>
olas ılıkları</w>
okul da</w>
mut lu
milyon a</w>
mekaniz ması</w>
meclist en</w>
meb la
mebla ğ</w>
makam lara</w>
lj eviç</w>
leştir ilmesi</w>
larmon i</w>
lan masını</w>
kut sal</w>
kus ur
kullan ması</w>
kovuştur ma</w>
ko d</w>
kesin leş
kaç an</w>
karşıla mada</w>
karşı t</w>
kar t</w>
kap ıları</w>
kan at
kala bilir</w>
k ılıyor</w>
iş gücü</w>
iz leyecek</w>
iz lenmesi</w>
istihda mı</w>
istif ası</w>
istek siz</w>
ist eğiyle</w>
irok astr
hisse diyor</w>
hek tar</w>
hedef imiz</w>
hazırlan mıştır</w>
has t
gönder diğini</w>
grub unda</w>
getir ip</w>
gel meye</w>
film de</w>
f a</w>
ey t</w>
es as
endiş elendir
ek leme</w>
edil mesinden</w>
ebilir siniz</w>
e lerdeki</w>
dön mesi</w>
duğ una</w>
duruş mada</w>
du t</w>
değiştir di</w>
demokratik leşme</w>
c oş
c am</w>
bi st
bayr ağını</w>
bay ram
barış çıl</w>
açılış ında</w>
az ami</w>
ayaklan malar</w>
at osu</w>
ab on
Za dar</w>
Z af
Yıl ın</w>
Ton y</w>
T ıp</w>
T h
T O</w>
S it
Rud oviç</w>
Petro leum</w>
Naz i</w>
Mat iç</w>
Mar ian</w>
M ob
M .Ö.</w>
Kar arı</w>
K un
K la
Josep h</w>
Jos ip</w>
I sch
Hel len
H u
Geliş tir
Fır tına</w>
F akat</w>
Eli zab
Dow ner</w>
Dimit ar</w>
Değ iş
D amir</w>
Cyp rus</w>
Chr isti
Bir likte</w>
Bir inci</w>
Ban ka
AİH M</w>
Ar hin</w>
Anlaş maları</w>
An na</w>
A ir</w>
4 50</w>
şüphel inin</w>
ş unu</w>
ş ori</w>
İsviç reli</w>
İ y
üst lenecek</w>
üs ünün</w>
özelleştir menin</w>
çarptır ıldı</w>
ç inin</w>
Ç et
z em
yüz e</w>
yöntem leri</w>
yetkil ilerini</w>
yaz ın</w>
yas ını</w>
yap ının</w>
yakala ndı</w>
uğr ayan</w>
uygun suz</w>
tut uluyor</w>
tut ulması</w>
turiz min</w>
topluluğ un</w>
tik lerini</w>
taslağ ı</w>
tanı dı</w>
tak as</w>
tah sil</w>
t uğu</w>
t h
sıralama da</w>
sür ü</w>
silah sız
sij ek</w>
seçim in</w>
seç menin</w>
sağlama da</w>
sağla masını</w>
sand ık
saat ten</w>
s ond
s ir
rol üyle</w>
riy anu</w>
re vski</w>
profes ör
pren sip
plat form</w>
plan layan</w>
or adaki</w>
on d</w>
olmadığ ının</w>
olanak larını</w>
okul un</w>
mu af
mo bil
mar ka
mal lara</w>
lider lerine</w>
kut lamalar</w>
kred ileri</w>
konu lardaki</w>
kon gre
kolaylaştır acak</w>
ket t</w>
kend imizi</w>
kaydet tiler</w>
kat lan
kararlaştır ılan</w>
ka c</w>
k uc
j o</w>
işley işini</w>
istatistik lere</w>
is ha</w>
ir o</w>
in ov</w>
imzalan masından</w>
ilişk ilerine</w>
il mesiyle</w>
if esinde</w>
hisse lerinin</w>
hemşir e</w>
hazır landı</w>
hak lara</w>
güçlük leri</w>
göster miş</w>
görün müyor</w>
görül meye</w>
gönder meyi</w>
geliş imini</w>
geliş imine</w>
ev lerinden</w>
etme lerini</w>
etk ilerinin</w>
et inin</w>
erte lenmesi</w>
erte lendi</w>
em is
eksik liğinin</w>
ekib in</w>
dür üst
dos tu</w>
donan ımı</w>
diyalog un</w>
dikkat ini</w>
dev ir</w>
de cek</w>
dayan ılarak</w>
danışman larından</w>
ceza larını</w>
cep anoviç</w>
c m</w>
bırak arak</w>
bürok ratik</w>
bölge lerine</w>
bir incisi</w>
belirt mişti</w>
başlat mayı</w>
bah ç
aş kın</w>
aç arken</w>
ayır an</w>
ayrımc ılığa</w>
ay ları</w>
ateş e</w>
as yonunun</w>
altyap ısının</w>
alt ından</w>
ac ele
W e
Vis egrad</w>
U r
Suriy eli</w>
Sekret er
S ayın</w>
Res mi</w>
R ot
Q u
P and
O sijek</w>
Mar in</w>
Kurul unun</w>
Koordin asyon</w>
Kip riyanu</w>
IC C</w>
Ghe org
Euros tat</w>
Europ ol</w>
EV N</w>
E ven
Den is</w>
Dav iniç</w>
D ick</w>
Bus ek</w>
Bern ard</w>
Balk anların</w>
And ers</w>
7 50</w>
şüphel iler</w>
şahıs lar</w>
ür etken
çoğ ul
çatış malarda</w>
ç ıların</w>
Öz kök</w>
zorunl uluğu</w>
zayıf lat
yüz ücü</w>
yüz yıla</w>
yuvar lak</w>
yetk isini</w>
yer lerini</w>
yarat acağı</w>
yap ısını</w>
vur an</w>
ver meyeceğini</w>
ver in</w>
v o</w>
uğraş an</w>
uğ ru
uzak laş
unut ul
umut larının</w>
umut lar</w>
tör en</w>
tutuklan masını</w>
tez ah
tezah ür
tef tiş</w>
t ım</w>
söyley ebilirim</w>
sun arak</w>
sorun larıyla</w>
skand alı</w>
sistem de</w>
sinyal lerini</w>
sim gele
sayf a</w>
satış ları</w>
ro i</w>
reform unda</w>
refah ı</w>
ra s</w>
parlament oyu</w>
p rag
ortam ın</w>
onay lama</w>
olmaya caktır</w>
olas ılığına</w>
okul ların</w>
od ası</w>
mü kel
met rajlı</w>
mensup ları</w>
memnun um</w>
mas um</w>
man lar</w>
malz eme</w>
m iy
lok omot
lav a</w>
l or</w>
l ilere</w>
kurş un</w>
kurum larından</w>
kuruluş undan</w>
kriter lerine</w>
korku yorlar</w>
kor umanın</w>
kesim in</w>
kayde diyor</w>
katliam ının</w>
kaldır ıldı</w>
ka ndır
iş çileri</w>
it za</w>
ist endi</w>
irokastr a</w>
incele meye</w>
in ko</w>
imzalan masını</w>
imzala ma</w>
imtiy az</w>
imiz le</w>
ili ğini</w>
ilerlet menin</w>
idar esinin</w>
hey keli</w>
hep sinin</w>
ha c</w>
h us
h ler</w>
güçlendir meye</w>
gündem ine</w>
görüş ül
gör meyi</w>
git me</w>
geçir meyi</w>
fu ara</w>
fikr inin</w>
f uz</w>
eşit liği</w>
eser lerinin</w>
düşünü yorlar</w>
düzey deki</w>
düzen leyici</w>
dönüştür ül
dönem lerde</w>
dönem ini</w>
dönem indeki</w>
duyur usunda</w>
disip lin</w>
diktat ör</w>
değer ler</w>
devam ında</w>
destek ten</w>
dern ek
depola ma</w>
den gele
de mektir</w>
dağ ı
bırak ılması</w>
bulun uyoruz</w>
bul duğu</w>
bo ur
bir idir</w>
baş tan</w>
baz ılarını</w>
bat ıdaki</w>
b olu</w>
ağ aç
açıkla masını</w>
açık lık</w>
azın lığı</w>
asker inin</w>
art ıcı</w>
ara m
ans ka</w>
ann esi</w>
an lardan</w>
an iden</w>
alın acağını</w>
alar m</w>
al mıyor</w>
ade n
ad ındaki</w>
a ca</w>
Z o
V ran
V il
Trab lus</w>
Topl uluğu</w>
Tah ran</w>
T re
Stratej isi</w>
Stef an
Srebren itsa</w>
Seçim ler</w>
Ser bi
Seli mi</w>
Sar iç</w>
S cepanoviç</w>
S ade
Ro menler</w>
Pr osp
Os lo</w>
O DI
Mu haf
Mom c
M el
M ay
M HP</w>
Lul zim</w>
Kazak istan</w>
K ör
Isch inger</w>
Ili r</w>
Hüküme tin</w>
Her man</w>
H rant</w>
H iz
G ön
Fi larmoni</w>
Doğru dan</w>
D ost
C as
Ben im</w>
Bağ dat</w>
Ban croft</w>
B unlar</w>
B is
B eh
Anlaş ma</w>
Alkala y</w>
1, 8</w>
şeh rin</w>
ü lerek</w>
ön görüldüğü</w>
öldürül mesinin</w>
ödül ün</w>
çalışt ıkları</w>
çalış masına</w>
çaba larından</w>
ç ilik
z ıt</w>
yara landığı</w>
ww w.
vurgu layarak</w>
verit aban
verim lilik</w>
ver ilerin</w>
vak ası</w>
usulsüzlük ler</w>
unsur ları</w>
ul t</w>
tır ma
tük en
tutuk layıp</w>
terör izm</w>
teknoloj isi</w>
tas lak
taraf ını</w>
tanı ması</w>
tale bin</w>
tahmin lerine</w>
t ığımız</w>
t ina</w>
sürec iyle</w>
söy lenen</w>
sorumlul ukları</w>
sistem indeki</w>
serv isi</w>
ser t
sel ler</w>
savc ının</w>
sahn esinde</w>
s iber</w>
rekab ete</w>
rek or
redded ildi</w>
ra v
prosedür ü</w>
politik aların</w>
poli ti
par mağ
p omp
oynay acak</w>
onur landır
olma larını</w>
olduk tan</w>
olas ılık</w>
mü sa
man ip
malz e
maliyet inin</w>
mal î</w>
makam larıyla</w>
m ıs
m itr
lili ğe</w>
lik idi
liderliğ inde</w>
li u</w>
lamak tan</w>
kıs ım</w>
kök ünü</w>
kur muş</w>
kullan ıldı</w>
kullan ıcı</w>
koy duğunu</w>
kop ar
konu lardan</w>
kon vansi
kon uyor</w>
kitap ları</w>
kesin tiler</w>
kesim leri</w>
kent lerde</w>
kayb ettiğini</w>
katıl dığını</w>
karşıla ması</w>
karar gah
kabul ü</w>
kabl osuz</w>
iti ç</w>
irade ye</w>
in i
imzalan mış</w>
imzala mış</w>
imza lamayı</w>
ili ğin</w>
ide s</w>
ide oloj
hiss esinin</w>
hep sinden</w>
hazır lıklar</w>
haz ine</w>
hatırlat tı</w>
hastan eye</w>
harcama larının</w>
h ij
güven sizlik</w>
görül düğünü</w>
grup lara</w>
git tiler</w>
getir mesine</w>
gen soru</w>
gelir ler</w>
gar akis</w>
fre y</w>
faaliyet lere</w>
f urt</w>
f as
ev ic</w>
etme di</w>
et ken</w>
erkek lerin</w>
engelle di</w>
engel lerle</w>
engel len
endiş elere</w>
ekonom isinde</w>
ekonom ide</w>
edil mesiyle</w>
düş tüğü</w>
düğ ünde</w>
düzenle meye</w>
düz en</w>
diyalog u</w>
dil inde</w>
di s</w>
civ arındaki</w>
c ıların</w>
bırak ıyor</w>
büyü t
bulun up</w>
borc un</w>
biz den</w>
ber to</w>
bekle diklerini</w>
başkent inin</w>
bağ lıyor</w>
b TV</w>
at ıyla</w>
asay iş</w>
anayas ası</w>
ama ya
ac ele</w>
abil eceklerini</w>
Yak up</w>
Vik tor</w>
Tar ih
T un
T ru
Sret en</w>
Sam ir</w>
Sade ce</w>
Rem ikoviç</w>
R ama
Prosp er</w>
Pr ij
Mla djan</w>
Metoh ija</w>
Man j
Ma il</w>
M AP</w>
Luk siç</w>
Krst iç</w>
Konsey in</w>
Konfer ans
K us
K ara</w>
Jan ez</w>
J oz
Hellen ic</w>
GS M</w>
E F
D iva
Cur oviç</w>
C em
C D</w>
Bus iness</w>
An as
8 9</w>
3, 8</w>
2, 1</w>
15 .</w>
10 .</w>
şeh it</w>
şar ap
ş ap</w>
ınd ak
İn c
üret imin</w>
ü lerinden</w>
öner iyor</w>
öncül ük</w>
öldürül mesiyle</w>
ödeme leri</w>
ö len
çıka bilecek</w>
çık ard
çevr im
ç eli
zafer ini</w>
yük ünü</w>
yöntem i</w>
yur t</w>
yarış an</w>
w an</w>
ver ecektir</w>
ver diklerini</w>
uzunluğ unda</w>
uzman larının</w>
umuz a</w>
tü sü</w>
tut acak</w>
troy k
terör iz
teme li</w>
tehlik esi</w>
tanım layan</w>
tamamlan masını</w>
tahv il</w>
taban lı</w>
sıralan ıyor</w>
stratej iyi</w>
sin yal</w>
sigort ası</w>
sev in
serg iler</w>
savc ılarının</w>
santral leri</w>
saldır g
sahip ken</w>
prov ok
protesto cu</w>
piyas asında</w>
pir am
p oş
oy una</w>
onay ını</w>
olduk larına</w>
olay larla</w>
ol masıdır</w>
og h</w>
meş hur</w>
mey ecektir</w>
mes iz</w>
memur lar</w>
memlek eti</w>
maya caklarını</w>
ma aşı</w>
m o</w>
la masında</w>
kurum lardan</w>
kurtar mak</w>
kur s
kur arak</w>
kullan ılma
kul ü
kul landığını</w>
kriz ini</w>
kra liyet</w>
konuş masını</w>
komşu larıyla</w>
key f
kazanç lı</w>
kap ısında</w>
kanıt lamak</w>
kaldır ılmasına</w>
kal e</w>
kadın ları</w>
j ener
işaret ler</w>
iç ind
inş asının</w>
iliş kil
ilerle diğini</w>
ic iler</w>
hizmet lerin</w>
hay siy
harcama lar</w>
harc ay
gündem i</w>
gün ünü</w>
gönder ilecek</w>
giriş i</w>
gir meyi</w>
getir menin</w>
general ler</w>
gen iş
gel mişti</w>
federas yonu</w>
faaliyet lerinde</w>
fa iz
eğil im
eylem in</w>
et er</w>
elen k</w>
edil mek</w>
düşün meye</w>
düşün en</w>
düşün c
duğ umuz</w>
dj man</w>
dilek ç
di ş</w>
devlet leri</w>
destek çisi</w>
day ak</w>
cumhuriyet inin</w>
cumhurbaşkan ına</w>
bula bil
birbir leriyle</w>
birbir iyle</w>
bekle meye</w>
becer ileri</w>
başkanlığ ından</w>
bağış ta</w>
baz ılarına</w>
b ac
ay sa</w>
araştır mada</w>
ara dığı</w>
ar ları</w>
anl ık
amac ını</w>
alın tı</w>
ade ta</w>
adam ın</w>
Z ar
Y ılı</w>
Vul garakis</w>
Vesel in</w>
Ver di</w>
Vatand aş
Tut uk
Tu djman</w>
Tes la</w>
Temsilc ilik</w>
St o
Soy kır
Sendik ası</w>
S u</w>
Pr i
P ur
P E
ODI HR</w>
N ova</w>
Mir anda</w>
Mil letler</w>
List esi</w>
Lid er
L es
In ternet</w>
Hiz bul
Hak lar</w>
H ep
Gü c
G as
G ali
Frank furt</w>
For um
For d</w>
E L
Dimitri j</w>
D um
Ch ir
Can nes</w>
Belç ikalı</w>
Bay kal</w>
B unu</w>
B ay</w>
B B</w>
A mir
A mar
A f</w>
2, 6</w>
2 8.</w>
19 60</w>
1 5,
ş et
ıs ız
ır ım</w>
İz etbegoviç</w>
İsma il</w>
üst lenen</w>
ücret leri</w>
örgüt üne</w>
öner ide</w>
ön len
çıkar ılmasını</w>
çıkar ılacak</w>
çıkar dığını</w>
çevrim içi</w>
ç alk
Ülk enin</w>
zar arı</w>
yükse lerek</w>
yük ü</w>
yon larını</w>
yap ay</w>
ya -</w>
ver miştir</w>
var ı</w>
uyg uluyor</w>
ut e</w>
ulaş tığını</w>
tüket imi</w>
traj ik</w>
toplant ıları</w>
top u</w>
teşkilat larının</w>
telaf fuz</w>
teklif inde</w>
te la
tarih sel</w>
tanım lanıyor</w>
sır asındaki</w>
sö nd
suçlama larıyla</w>
suçlama larla</w>
suç suz</w>
suç larında</w>
sun ulması</w>
st en</w>
sonuç suz</w>
slog anı</w>
seç ilecek</w>
say ı
saldır ılarda</w>
saldır ılara</w>
r op
paylaş tı</w>
oz one</w>
operasyon larına</w>
olma dıkları</w>
olay ının</w>
olabil iyor</w>
ol muyor</w>
ok apiç</w>
ob jek
mükel lef
mü h
mez un
mesaj lar</w>
mensup larının</w>
memnun iyet</w>
mak t
ma vi</w>
ma larıyla</w>
m ıyorlar</w>
ler in
kö pek
kuş at
kuzey doğusundaki</w>
kut landı</w>
kut lamaları</w>
kurul un</w>
kullan ırken</w>
kor s
kon gre</w>
kir ala
ke li
kazan acak</w>
kaydet mek</w>
kap ısının</w>
kap it
kan undan</w>
kalkın ması</w>
ka larak</w>
k is</w>
iş yeri</w>
iyileştir meye</w>
iste diğimiz</w>
ist asyonu</w>
inan an</w>
im kân
im ci</w>
ic inde</w>
hazır dır</w>
hatır la
harek atı</w>
hakem lik</w>
hac mi</w>
gümr ük
gü t
göster mesine</w>
gönder iyor</w>
gur ur
gir mesine</w>
geç işi</w>
g üzer
g ini</w>
g esinin</w>
fin ali
farkl ılık</w>
f eci</w>
f ab
eşit lik</w>
eş liğinde</w>
eş gü
eser lerin</w>
es mi</w>
endiş elen
edil mesinde</w>
ed omir</w>
dön üyor</w>
dur ma</w>
dur ak
doğ du</w>
dolar dan</w>
dokuzun cu</w>
diğ iniz</w>
dil de</w>
dez avantaj
destek leniyor</w>
dağıt mak</w>
da fon
d ani</w>
bulun mayı</w>
birlik leri</w>
bin alar</w>
benzer siz</w>
beklen tiler</w>
bede l
barikat ların</w>
bakanl ıklar</w>
bab asının</w>
b on
aç abilecek</w>
at let</w>
art acak</w>
anlaş malara</w>
anlat ılıyor</w>
anket ine</w>
ank etin</w>
an ında</w>
an ciç</w>
amaç ları</w>
alış k
a u</w>
a at
Z iy
Y ol</w>
Vo dafon
Topl umu</w>
Tas arru
Stand art
Soruştur ma</w>
Sorum lusu</w>
Secur ity</w>
R anko</w>
O n</w>
O g
Mü dür</w>
Momc ilo</w>
Miha j
M A
L oc
L iv
Kurul uşu</w>
Kriv okapiç</w>
Kas tr
K el
IC O</w>
I s
Herse ğin</w>
G ünd
G li
F ogh</w>
F ederal</w>
E lena</w>
Düzen leme</w>
Du liç</w>
D or
Ch i
Cer iç</w>
C adde
C AR
Böl ge
Bray şori</w>
Ber isha</w>
Bek ay</w>
Bayra mi</w>
Araştır macı</w>
Ar tık</w>
9 4</w>
3, 4</w>
şart ına</w>
ş at
ıs ıtma</w>
ınday ken</w>
İli r
İ let
İ le</w>
üret iminde</w>
önem inin</w>
ölüm ünün</w>
çözüm len
çocuğ a</w>
çeşit lendir
çeli şk
ç ıları</w>
ç u</w>
ç eşit</w>
ç ek</w>
â r
Üskü p
zorluk larla</w>
zam ları</w>
yık ılan</w>
yükseli ş
yolc uluğ
yatır ıma</w>
yarat ması</w>
yap maması</w>
yakın laş
yak tı</w>
verim liliği</w>
veril irken</w>
ver mekten</w>
ver dim</w>
var ış</w>
uy mak</w>
uf ukta</w>
tüf ek</w>
tut ulacak</w>
topl uluğu</w>
ti on</w>
tercih li</w>
temsilc ilerinden</w>
taşı mak</w>
tasar ım</w>
tarih inden</w>
taraf tar</w>
tan ıkların</w>
t el
söylen ebilir</w>
suç lamasıyla</w>
sokak larda</w>
siyaset te</w>
si par
sev k
sergil iyor</w>
sch i</w>
say ısındaki</w>
say fa
sak landığına</w>
rot ası</w>
rot a</w>
ren sel</w>
paras ını</w>
oyuncu ların</w>
ou T
ouT ube</w>
of isinin</w>
n am</w>
müttefik leri</w>
miktar ın</w>
mes ince</w>
maç ın</w>
maz er
ly wood</w>
ler iniz</w>
laştır ılması</w>
lar ıdır</w>
la ka</w>
kı ta
kuruluş larından</w>
kuruluş larına</w>
koş ulu</w>
konum una</w>
kilis enin</w>
kayded ilmesi</w>
kat ma</w>
karşıla makla</w>
karar sız</w>
kans eri</w>
kamp ında</w>
kam yon</w>
kaldır arak</w>
k uyruk
işk en
iç bir</w>
inan ç</w>
ilk e</w>
ilişkil endir
il lerini</w>
ik isini</w>
ihti mali</w>
hizmet lerine</w>
hayat ına</w>
hay al
hav acılık</w>
hat tına</w>
halk larının</w>
görev lerinden</w>
görev in</w>
geril e
gelecek ler</w>
gel os</w>
fır tın
for masyon</w>
fon larından</w>
fikir leri</w>
eğ inden</w>
et mesiyle</w>
engel liyor</w>
eme yen</w>
ege r</w>
efsan esi</w>
dör dü</w>
duk tan</w>
doktor a</w>
değerlendir mede</w>
dev asa</w>
dele g
da l</w>
cumhur iyeti</w>
ciddi yet
bütün lüğünü</w>
bürok ras
bölge lerinden</w>
bu ğ
bilin miyor</w>
bil imler</w>
belir tiyorlar</w>
başkan ına</w>
baş bakana</w>
barikat ları</w>
az a</w>
ay lo</w>
at ına</w>
at lat
at a
asyon a</w>
arke olog</w>
ard ılı</w>
ar ka
anlaşmaz lıkları</w>
analiz i</w>
an ım
alk ış
aliz asyon</w>
ald ıktan</w>
alan lara</w>
al madığını</w>
ak la</w>
ac he</w>
abil ecekler</w>
Zup ljanin</w>
Z u
Y ouTube</w>
Y ayın</w>
Vodafon e</w>
Vo ice</w>
Vat ikan</w>
Tz anis</w>
Tuğ general</w>
Tur n
Ta bii</w>
T ho
Sur roi</w>
Sam aras</w>
Rekab et</w>
Rapor unda</w>
Pac kett</w>
Pac k</w>
P uk
P O
P DL</w>
Ned j
N u
Mars hall</w>
Mar i
M eg
Lazar eviç</w>
Kr alı</w>
Koştun itsa</w>
Kot or</w>
Korid oru</w>
KA DE
K ıl
J an</w>
I g
Har ri</w>
Güç ler</w>
Fil m
F ul
Elektr op
D am
Clu j</w>
Chr is</w>
Cen tre</w>
C ik
C a
C K</w>
C .</w>
But ler</w>
Bos n
Bor ut</w>
Bağ ış</w>
B ilg
Amar iei</w>
A ta
2, 8</w>
2, 4</w>
. g
şimdi ki</w>
İşlet meleri</w>
üy dü</w>
ürün lerine</w>
üret ecek</w>
ür se</w>
önc esindeki</w>
öden memiş</w>
çey rek</w>
çatış mada</w>
Ön ümüzdeki</w>
Ön emli</w>
Ö ner
zeh irli</w>
yönet iliyor</w>
yön lü</w>
yon lara</w>
yoloj i</w>
yoksul luğu</w>
yazar larından</w>
yaz ıyor</w>
yarat acağını</w>
yar ısının</w>
yans ıyan</w>
yan lara</w>
y ank
ver mektedir</w>
v ic
uv ası</w>
ur an
to lere</w>
ti fi</w>
ti ci</w>
teçhiz at</w>
terör istler</w>
tecrü be
te ması</w>
tazele di</w>
tavr ını</w>
tanı mayı</w>
sık ılaştır
süre gelen</w>
sözleş mesi</w>
sönd ür
sonuç lanması</w>
seviy edeki</w>
sev ke
sayg ın</w>
savc ılığı</w>
san ılıyor</w>
s üper</w>
s op
s la
re vize</w>
pasaport lar</w>
operasyon a</w>
o ur</w>
nitelik teki</w>
ne ye</w>
n ede
mo da</w>
misyon larına</w>
milyar larca</w>
metrek üp
maç ta</w>
lık lardan</w>
li a</w>
len erek</w>
le va</w>
laik lik</w>
la kaplı</w>
kısm ında</w>
kur ut
kur aklık</w>
kontrol ündeki</w>
konsorsiy um
kim liklerini</w>
kaynak lan
kayb etme</w>
kap ısını</w>
kan un</w>
je opoli
istişar eler</w>
isteme yen</w>
is iz
iment ul</w>
imaj ı</w>
ilerle meden</w>
if e</w>
iddi alarıyla</w>
ic isi</w>
i mal</w>
hisse lerini</w>
hen tbol</w>
hav ada</w>
hastal ığın</w>
har iç</w>
gündem in</w>
görüş tüğü</w>
gö k
geçir ilmiş</w>
getir miş</w>
geril eyerek</w>
genişle mesinin</w>
geli ri</w>
gelece ğ
gel me
gecik meler</w>
eğit imin</w>
eğit im
ev lerin</w>
etk isiz</w>
elim izde</w>
eleştir iliyor</w>
eleştir erek</w>
eleştir diler</w>
el la</w>
dük kan</w>
dük kan
dö kü
du yar
doğ a</w>
dir en</w>
değerlendir meye</w>
değerlendir ilmesi</w>
değer inin</w>
dağ ı</w>
day andır
davet lisi</w>
cağ ının</w>
bütün lüğüne</w>
bölge lerinin</w>
boy un</w>
borç lu
bel gele
başken tine</w>
basın ına</w>
aşağ ıla
azalt maya</w>
ayet inde</w>
at inos</w>
arz ı</w>
araç ların</w>
ara maya</w>
alt ma</w>
al malarını</w>
ah şap</w>
ade t
Z eri</w>
Vuk oviç</w>
V id
Tra v
T E
Sır bist
Srp ske</w>
Slj ivancanin</w>
Savc ılığı</w>
S la
S k
Per isiç</w>
OM V</w>
Nedj eljko</w>
Mor atinos</w>
Medi a</w>
Mar mara</w>
Mar kac</w>
M ara
K öy
K PT</w>
J NA</w>
Inter pol</w>
Hol lywood</w>
Hizbul lah</w>
Hil mi</w>
Haz ır
Haf tası</w>
H içbir</w>
Even imentul</w>
Clau de</w>
Christi e</w>
C redi
Büyük anıt</w>
Böl ümü</w>
But mir</w>
Brit ish</w>
Bon n</w>
Bin gazi</w>
Beledi yesi</w>
Ar ke
1, 9</w>
şub esi</w>
ınd adır</w>
ık lı</w>
ün üz</w>
özgür ce</w>
özel liği</w>
ödül e</w>
çıkar ması</w>
çocuk larına</w>
çerçev esi</w>
çek iliyor</w>
Özgürlük ler</w>
yıldız lı</w>
yükümlülük lerin</w>
yük lü</w>
yorum larında</w>
yorum cu</w>
yol ların</w>
yinele diler</w>
yeten ekli</w>
yer den</w>
yen leri</w>
yaş artıcı</w>
yağ mur
yaz arlar</w>
yardımc ıları</w>
yardım da</w>
yap ıya</w>
y ön</w>
vurgu landı</w>
var lıklarına</w>
var ken</w>
va s</w>
uğra mış</w>
ulus un</w>
ulu yorlar</w>
tur unun</w>
toprak larındaki</w>
top luyor</w>
teşkilat ları</w>
televiz yonda</w>
tela fi</w>
tartış ılan</w>
taraf lara</w>
tara ma</w>
tanın ma</w>
tanım lanmış</w>
tamam lamış</w>
tamam la
sun acağı</w>
sonra dan</w>
sistem li</w>
seç tiler</w>
seviy eleri</w>
sekiz inci</w>
say ısına</w>
sanatç ıları</w>
saldır ılarına</w>
sal onu</w>
sah asında</w>
safh ası</w>
rekab etin</w>
re habilit
protok ol</w>
piyas asına</w>
piyan ist</w>
person elin</w>
par ayla</w>
p h
p as</w>
p a</w>
oy ları</w>
oy laması</w>
otur ma</w>
operasyon larda</w>
onay lanmış</w>
olabil mek</w>
okul ları</w>
nüfus lu</w>
n için</w>
müf red
mot iv
metrek are</w>
mektu bu</w>
me ga
maz ken</w>
mahke mesince</w>
madde ler</w>
ma maktadır</w>
liman ına</w>
lay abilir</w>
lar ınız</w>
kıy ısı</w>
kültür ünün</w>
kulüb ü</w>
koşul larda</w>
kor kut
kon soli
kil inin</w>
keyf ini</w>
kaçın maya</w>
kazan mayı</w>
kayb ına</w>
karş ısına</w>
kar as
kapan ış</w>
kal mayacak</w>
j and
işle tim</w>
iç indey
iyimser liğini</w>
istem iyorum</w>
inşaat ın</w>
ins ana</w>
in kar</w>
ilerle mek</w>
ihtilaf ları</w>
ihtilaf lar</w>
ifade de</w>
iddiana meyi</w>
ic o</w>
i ou</w>
havaalan ının</w>
halk ları</w>
gör müyor</w>
gerçekleş eceğini</w>
gerç eğini</w>
genişle menin</w>
gel medi</w>
g il</w>
fik re</w>
fel ç</w>
f os
er diği</w>
elç inin</w>
ekib ine</w>
ek si</w>
ek oloji</w>
eden lerin</w>
düşüş ün</w>
düşüş le</w>
düşür me</w>
düşünce lerini</w>
düş man</w>
dünya ca</w>
durum lar</w>
değ indi</w>
cesaret lendir
cep h
cay dır
canlandır ma</w>
büyük lüğü</w>
büy üyor</w>
bütç esinde</w>
bölünmüş lüğüne</w>
bölg esini</w>
borç larının</w>
bir iyle</w>
best eci</w>
belirsiz liğini</w>
belge lerini</w>
bağım lı</w>
bay ram</w>
ban t</w>
az alan</w>
ayn ısını</w>
ay ki</w>
avukat lar</w>
ark alı</w>
ar lık</w>
anlaş malarının</w>
an -</w>
ama ması</w>
am b
alabil ecek</w>
al ıyoruz</w>
al fab
a it
Zil ei</w>
Y ay
W TO</w>
Velj oviç</w>
Tar c
T eh
T ec
Stav revski</w>
Stan is
Sp ah
Snez ana</w>
Sim on
Sil v
S itesi</w>
S ho
Pot oc
Pol onyalı</w>
Plan lama</w>
Or g
O EC
OEC D</w>
N et</w>
Mon t
Mev cut</w>
M itiç</w>
M ilan
Ku kes</w>
Kr al
Karadağ lılar</w>
John son</w>
Jo han
Jan ica</w>
J ok
I o
H ari</w>
Gir it</w>
Festival inin</w>
E mir</w>
E mir
Doğ an</w>
Danim arkalı</w>
CAR DS</w>
C uk</w>
Br un
Balkan lardaki</w>
B art
B O</w>
Alp ha</w>
Al li
2 20</w>
. net</w>
şek li</w>
şart ını</w>
Şampiyon asında</w>
İş sizlik</w>
İh ti
üs ünde</w>
üret ken</w>
öz gü</w>
övg üyle</w>
ödül ler</w>
çıkara cak</w>
çıkar larının</w>
çıka cağını</w>
çö p</w>
ç eş
ziyaret e</w>
z ev
z ali
yoğun luklu</w>
yen ilik</w>
yen ildi</w>
yayın layarak</w>
yarış ması</w>
yardım ları</w>
yan ına</w>
yan ıl
verit ab
veritab anı</w>
veril medi</w>
verg isini</w>
ver mesinden</w>
ver ir</w>
var ıldı</w>
uğraş ıyor</w>
uzak ta</w>
ulus lar</w>
ulaş tığı</w>
ulaş acak</w>
tut ması</w>
toplan ması</w>
tip ik</w>
tem s
taşı maktadır</w>
tarih çi</w>
taraf lardan</w>
t s</w>
t etk
sınıf landır
sık ıntı</w>
suç larını</w>
sutop u</w>
sun maları</w>
suisti mal</w>
su y
stat ük
soğ uk
sok mak</w>
siy ah</w>
sinyal ler</w>
seçen ekleri</w>
sektör leri</w>
sağlamak la</w>
savunuc uları</w>
sat mak</w>
sandalye ye</w>
rö der</w>
restor anlar</w>
res m
rapor lar</w>
program larına</w>
politik alarına</w>
piyas asının</w>
p ce</w>
organ larının</w>
or uç</w>
operasyon unda</w>
onur una</w>
onay ladılar</w>
on schi</w>
ombud s
okuy an</w>
okul uslu</w>
og os
o i</w>
nö bet</w>
nih ayetinde</w>
ni a</w>
nd af
na diren</w>
n az
mış lar</w>
mış ken</w>
müş teri</w>
müte vaz
mevzu atı</w>
mesele lerde</w>
memur ların</w>
mağaz a</w>
mas ıydı</w>
mahke melere</w>
m ıyoruz</w>
lili ğinin</w>
lat oviç</w>
lan lar</w>
kız gın</w>
kurtul mak</w>
kuc ak
komit enin</w>
komis yonunun</w>
kimse ye</w>
karş ısındaki</w>
karş ıl
karg aşa</w>
kararl ılığı</w>
kapat maya</w>
kap ılarının</w>
kampanya ları</w>
kali tesinin</w>
kal ın
kal mıyor</w>
kaf a</w>
kader ini</w>
jeopoli tik</w>
jand ar
işlem ler</w>
işaret leri</w>
iş lerinden</w>
itfa iye</w>
istikrar sız</w>
inş asında</w>
indir di</w>
il de</w>
iddi ası</w>
hikay esi</w>
hazır landığı</w>
hatt ını</w>
hareket leri</w>
güç leriyle</w>
güven liğine</w>
göster miştir</w>
görüş meyi</w>
görüş mesinin</w>
görev lerine</w>
gönder meye</w>
gur eanu</w>
gir diğini</w>
getir irken</w>
gerçekleştir me</w>
gerç eğe</w>
gelir lerin</w>
gel meleri</w>
gecik meden</w>
gece de</w>
g ri</w>
fiyat a</w>
fark ındayız</w>
eşgü düm</w>
eylem lerini</w>
etkiley ebilir</w>
er iner
emey iz</w>
eli m</w>
eleştir el</w>
ede bi
ebil en</w>
dığ ının</w>
düş üyor</w>
dönüş üm
di gi</w>
di a</w>
değişiklik lerini</w>
değerlendir mesini</w>
dağıt ılacak</w>
dair eler</w>
d ney</w>
c om
bütç eyi</w>
bütç ede</w>
buluş ma</w>
bu r</w>
bit iminden</w>
birleştir en</w>
belediy esinin</w>
belediy esinde</w>
başka larının</w>
bağ ladı</w>
ağ ları</w>
ay lığı</w>
avukat ları</w>
atmos fer</w>
anket lerde</w>
an ıt
ala caktır</w>
ad larını</w>
ad asının</w>
ad asında</w>
ad anmış</w>
ac ilen</w>
a ult</w>
Z er
Wil liam</w>
W at
Vuj anoviç</w>
Un gureanu</w>
U sa
U ni
Tra ndaf
T op</w>
Sy dney</w>
Stad yumu</w>
Sch röder</w>
S ven</w>
S id
S afet</w>
S T
Pac olli</w>
Os car</w>
O TE</w>
Medi u</w>
Mar iç</w>
M ila
M ez
M and
M ala
Kosov o</w>
Kaf kas
K ıy
H r
Gros sman</w>
Glo bal</w>
Gheorg he</w>
Evan gelos</w>
E g
Diva c</w>
Del ta</w>
Co op
C han
C edomir</w>
C NA</w>
Bakanlığ ından</w>
Bac onschi</w>
B ug
Andre as</w>
Anas tas
AT P</w>
3, 7</w>
1. 200</w>
0 km</w>
. ro</w>
şik e</w>
Ş er
ıyor sunuz</w>
İlet işim</w>
öğret menler</w>
öğren mek</w>
öncül ü</w>
öl düğü</w>
çeşit lilik</w>
çevr esinde</w>
çağr ısını</w>
çatış malara</w>
Çoc uk
Ç öz
Ç ab
ziyaret çilerin</w>
yıl ların</w>
yükümlül üğü</w>
yön ü</w>
yolsuzluk tan</w>
yinele yen</w>
yetkil iler
yer lerinde</w>
yat ak
yargılan makta</w>
yargı lanması</w>
yapılandır ılması</w>
yansıt tığını</w>
verim liliğini</w>
uygu lanıyor</w>
un d</w>
ulaş arak</w>
uc usu</w>
tutuklan arak</w>
tut u
tez gah
tesis lerinin</w>
temsilc inin</w>
temas a</w>
televiz yondan</w>
tedbir in</w>
tanı mak</w>
tali h
tah s
tab ur
t ali</w>
süreç leri</w>
sür ük
sür eleri</w>
sivil in</w>
seviy elere</w>
sebe p</w>
sağlay ıcısı</w>
sat mayı</w>
sat ma</w>
saat te</w>
sa r</w>
s of
ri ght</w>
renk li</w>
reform una</w>
reform larla</w>
re a</w>
profes ör</w>
potansiy elinin</w>
popü list</w>
politik ayı</w>
pazar lara</w>
paylaş an</w>
parlamento dan</w>
parlament osunda</w>
ortak lar</w>
orta l</w>
operasyon el</w>
oli e</w>
ol masıyla</w>
o ul
nüfuz unu</w>
niş an
nitelendir iyor</w>
nitelendir ilen</w>
nd iğini</w>
n hac</w>
müzakere lerdeki</w>
mütte fik</w>
milit an
mey dan
man ları</w>
mahke meleri</w>
madde lerin</w>
la f</w>
kör ük
kö mür</w>
kuvvet lerine</w>
kurum larla</w>
kurul duğu</w>
koy maya</w>
kon tey
kon gr
kim likleri</w>
kay dır
katıl mıyor</w>
kat lı</w>
karşıt lar</w>
karşılaş tı</w>
karış tığı</w>
kapat ıldı</w>
kan unu</w>
kalkın manın</w>
kaldır ılmasının</w>
k ılav
işlem lerini</w>
içer isinde</w>
iç a</w>
ithalat ına</w>
itfa iy
in ler</w>
imtiyaz lı</w>
ili yordu</w>
il eceğini</w>
ihtiyac ının</w>
ihale si</w>
ifade sini</w>
ib ini</w>
heves li</w>
her şeyin</w>
hasta ların</w>
han esi</w>
gözet iminde</w>
görüş ülen</w>
girişim inde</w>
geç eceğini</w>
gerektir diği</w>
gerek eceğini</w>
genişlet mek</w>
gener ali</w>
gelen eği</w>
finansman ına</w>
fe is
f asıl</w>
etkil ediğini</w>
emek liler</w>
eleştir ildi</w>
ekonom iler</w>
ek i
edil dikten</w>
edemey iz</w>
duy uyoruz</w>
diz gin
di y
di ja</w>
devra lan</w>
devam ını</w>
deney imli</w>
den ildi</w>
den e
c as
bin aları</w>
bi lan
beş te</w>
beklent ilerini</w>
başvur usu</w>
bara j</w>
aç ığın</w>
azın lığa</w>
az almaya</w>
ark asındaki</w>
ameli yat</w>
ama yan</w>
ail elerinin</w>
acen te
Y az
Vuk otiç</w>
V ide
Uy uştur
Trandaf ir</w>
Tho mas</w>
Tasarru f</w>
Tara f
Suç u</w>
Sara nda</w>
Sam i</w>
REC OM</w>
Papandre ou</w>
P lev
P iy
P arkı</w>
N üf
Mitr oviç</w>
Milos av
Mihay loviç</w>
Mer c
Mar nhac</w>
Manastır ı</w>
Mac ovei</w>
Ma ur
Ljub e</w>
Li gi</w>
Kö st
Kuv eyt</w>
KADE K</w>
K lin
J olie</w>
H oc
Geliştir me</w>
G ala
Fis cher</w>
Ener gy</w>
Em niyet</w>
E len
Dal maç
D re
Cer mak</w>
Benedik t</w>
Başpiskop os</w>
B ad
Atan as
Ar ena</w>
Anton escu</w>
An tiç</w>
20 ,
1 4,
1 25</w>
şart lara</w>
şampi yon</w>
İstat istik
üy esinden</w>
üni for
ül ü</w>
ü lerin</w>
ü dür</w>
örgü tü
ödül lendir
öden ecek</w>
çıkar ı</w>
çöz mesi</w>
çöküş ünden</w>
çalış mış</w>
ç ığ
Üsküp lü</w>
Ön c
z etbegoviç</w>
yıldön üm
yüz üne</w>
yürür lükte</w>
yönetic ileri</w>
yenilik çi</w>
yaş ıyorlar</w>
yay ılmasını</w>
yargı lanan</w>
yar ay
yap acağına</w>
yap acaklar</w>
yakın laştır
yakalan an</w>
voley bol</w>
verg ilerini</w>
v anı</w>
uğra dığını</w>
ustur ica</w>
u lara</w>
turist leri</w>
troy ka</w>
tap ın
tanın masına</w>
talep lerine</w>
tah r
t ıka
sübvansi yon</w>
sü per
st ro
sonuç lardan</w>
sonuc unu</w>
sistem lerini</w>
sil in
serbestleştir ilmesi</w>
sat tı</w>
sandal yenin</w>
sanatç ısı</w>
saldır ılarının</w>
sah asını</w>
sah asına</w>
safhas ına</w>
safh aya</w>
rast lan
puan ını</w>
pu anları</w>
prosedür ler</w>
pla ka
perakend ec
part ilerle</w>
pahal ıya</w>
p eyn
p ay</w>
oy lamadan</w>
oturum da</w>
otur up</w>
ortam ına</w>
or kest
onaylan masını</w>
oluşturul masını</w>
ol duk</w>
odak lanması</w>
neli ev</w>
muhalefet le</w>
mu ay
mik ro
mesele lere</w>
merkez ini</w>
mer h
men istan</w>
mek sizin</w>
ma yarak</w>
ma mıştır</w>
m i
lık larla</w>
lüğ ün</w>
lu yorlar</w>
liber al
ler im</w>
le vski</w>
kurum unun</w>
kurban larının</w>
kullan ılmasını</w>
kullan ıldığını</w>
konuş mak</w>
kent leri</w>
kent ini</w>
kayd ıyla</w>
katıl masından</w>
kart ları</w>
kapasit eli</w>
kampanya da</w>
kala bil
kal ıp</w>
ka nder
iy er
in ye</w>
ima lat</w>
ika met</w>
ih anet</w>
ifade leri</w>
if feis
hâ len</w>
hazır layacak</w>
hali nd
güçlendir ecek</w>
göz e</w>
görün ür</w>
görün üm
gönül lü
gönder erek</w>
git meyi</w>
girişim iyle</w>
geçir mesini</w>
geç meden</w>
ger eğine</w>
gem isi</w>
g ay
fu ar</w>
final de</w>
eşya lar</w>
eş zamanlı</w>
ev lerinin</w>
eur onun</w>
etk isinin</w>
en er</w>
em sal</w>
elim izden</w>
elend i</w>
edil memiş</w>
edil diler</w>
düğ üne</w>
düzen ini</w>
düzel me</w>
dön gü
duyur an</w>
dos tane</w>
di ş
değiş ik</w>
değerlendir ecek</w>
değer lerini</w>
desteğ inin</w>
destek liyoruz</w>
dele ge
d r
ceza i</w>
bırak mak</w>
böl ünd
bomb ası</w>
bomb ard
birli ğinden</w>
bilg isi</w>
belge lere</w>
başar ıları</w>
başar mış</w>
baş larken</w>
baz ında</w>
bask ıya</w>
banka larının</w>
bak ılıyor</w>
aç ısı</w>
azalt ması</w>
ayakkab ı</w>
av is
as ız</w>
artır manın</w>
art tır
art maya</w>
arac ılığında</w>
alın ıp</w>
alın mıştı</w>
akademis yen</w>
ak ın
ag o</w>
adam larının</w>
ad ları</w>
abil di</w>
a u
a let
Vek ili</w>
Usa me</w>
Türk menistan</w>
Tom iç</w>
Tok yo</w>
Tarc ulovski</w>
Step hen</w>
SE E
S es
Roman ia</w>
Reform u</w>
Rapor u</w>
Rad uloviç</w>
Rad u</w>
R IA</w>
Pet kov</w>
P ek</w>
Org aniz
Nor veçli</w>
Nik ola
Nez avis
Mur at</w>
Mil letvek
Merkez inin</w>
Mer on</w>
Mar at
Mahke mesinde</w>
K usturica</w>
K le
K lau
In stit
He yeti</w>
Had ziç</w>
Gri gor
G ora</w>
F et
F est</w>
F aj
F F</w>
Et ti</w>
Dur um</w>
Diyal og</w>
Dav is</w>
Cema ati</w>
CE Z</w>
C OM</w>
Bu latoviç</w>
Boj an</w>
Bağım sızlık</w>
BI RN</w>
As s
And riç</w>
A S</w>
8 ,5</w>
3 60</w>
3 01</w>
şekil lendir
Ş arkı</w>
ınday sa</w>
ı d
üniversit eler</w>
çık mıştı</w>
çocuk larını</w>
çerçev enin</w>
çalış makta</w>
zafer le</w>
zafer in</w>
yüz ü</w>
yürüt mekte</w>
yorum cusu</w>
yon la</w>
yinele yerek</w>
yetkil isinin</w>
yaş ıyoruz</w>
yaş ından</w>
yaş lılar</w>
yayın lanması</w>
yarış manın</w>
yarat ıcı</w>
yap ısının</w>
y eviç</w>
veril eceği</w>
ve fat</w>
var lıkları</w>
uzman lardan</w>
ulaş mış</w>
tüm ünün</w>
tutum unun</w>
tutum una</w>
turnuva da</w>
tasar ıda</w>
talima t</w>
takım ları</w>
ta cağı</w>
t ığından</w>
t anı</w>
sıç ra
söyle ndi</w>
suikas tın</w>
sos yolog</w>
sistem iyle</w>
sey r
sev er</w>
ses li</w>
sağlan mış</w>
sağlamak tadır</w>
sağ lanıyor</w>
sağ landığını</w>
say ımına</w>
s ük
s son</w>
s or</w>
rakam ı</w>
proj esinde</w>
program larının</w>
politi x</w>
platform u</w>
plan larının</w>
plan ladıkları</w>
piy ade</w>
pan y</w>
p e
otur an</w>
ot a</w>
os undan</w>
ortam ının</w>
oran ından</w>
op ol</w>
onay landığı</w>
ola mayacağını</w>
normal de</w>
niyet ini</w>
nit elik</w>
neh rin</w>
müzaker eci</w>
müz ik
mü vek
mon d</w>
mis il
metr o</w>
mekaniz maları</w>
me ndi</w>
mal larına</w>
m imar</w>
lık taki</w>
li tre</w>
ler ince</w>
led ilmesi</w>
le meye</w>
lan maya</w>
la di</w>
kö ş
kâr lı</w>
kurul masından</w>
kullanıc ıları</w>
kullan ılarak</w>
kullan ıla
kullan maktan</w>
kriter lerin</w>
koru mayı</w>
konus unun</w>
konu larla</w>
konse yi</w>
kaçakç ılığına</w>
kay ır
karşılaş mada</w>
kanıt ları</w>
kan alizasyon</w>
kalınt ılarını</w>
kalabal ığa</w>
kaf e</w>
k ere</w>
jimnas tik
işley işi</w>
işle mi</w>
iş len
ir tibat</w>
ing s</w>
in andır
ilk okul</w>
ikram iy
ihracat ının</w>
idar esinde</w>
iade sini</w>
hızlandır acak</w>
heyet leri</w>
hedef lerin</w>
hedef in</w>
harek at</w>
hap ist
hali ndeki</w>
haf tadır</w>
ha s</w>
görü yorum</w>
gö l</w>
gider leri</w>
gi bi
gereksin im</w>
gelir in</w>
gel dik</w>
fiyat larındaki</w>
fayda lar</w>
f ed
ey sel</w>
ev rensel</w>
ev lerinde</w>
etk enler</w>
eriner lik</w>
eng iz</w>
em ir
eks ika</w>
ek len
e ç
düzen lenmiş</w>
dön üp</w>
dokunulmaz lığı</w>
dik lerine</w>
değerlendir en</w>
devr edilmesi</w>
deme ç</w>
dağıt ımı</w>
dav asıyla</w>
caz ib
c ut
c iha
bırak ması</w>
büyü ğ
boş luk
bloğ u</w>
biz imle</w>
bit ki</w>
birleş mesi</w>
bin asına</w>
bilin meyen</w>
bes leyen</w>
belirt tiği</w>
belg esel
be bek
başarısız lığa</w>
bask ılara</w>
bak anlığını</w>
ba ğ</w>
b ec
aç abileceğini</w>
ayd ın</w>
ay lıkları</w>
asker lere</w>
artır an</w>
arabuluc usu</w>
anlaş masıyla</w>
an ja</w>
ald ığımız</w>
al oviç</w>
ak a</w>
adım lara</w>
Zaf er</w>
Yen ilik
Yaş ar</w>
W i
Ukray nalı</w>
Terör le</w>
T Ü
T ek</w>
Sr djan</w>
Sistem i</w>
S esi</w>
Ra iffeis
Plev neliev</w>
Per es</w>
P es
P e
Operas yon</w>
Olimpiyat larının</w>
Nik os</w>
N ev
N af
Mus liu</w>
Mun giu</w>
Mitrov iça</w>
Merkez inde</w>
Mar kos</w>
Mar k
Manj ola</w>
M eksika</w>
M ağ
Le on
L y
L ej
L as
Köst ence</w>
Kraj ina</w>
Komis yonun</w>
Kla us</w>
Kay nak
Kara r</w>
K ok
J SO</w>
H ama
Gö ç</w>
Gor dan</w>
Gen c</w>
Geliş imi</w>
Gel u</w>
G eri</w>
Dalmaç ya</w>
D eme
Cor ce</w>
Com pany</w>
Chir ac</w>
Cem il</w>
Car l</w>
Can kov</w>
CE RN</w>
Azın lık</w>
Avrup al
Ass oc
Ar ben</w>
An gel</w>
A la
6, 7</w>
3, 9</w>
3 G</w>
şey dir</w>
şark ısı</w>
şah sın</w>
Şeh ir</w>
ınd ığı</w>
ılma lıdır</w>
ılabil iyor</w>
ıl mak</w>
İş lerinden</w>
İstik rar
ümüz ün</w>
ülkem iz</w>
öde mesiz</w>
ö d
çiz gi</w>
çift ç
çekil me</w>
çağır ıyoruz</w>
çağır arak</w>
çatış ması</w>
zar f
yürüt ülmesi</w>
yükselt mek</w>
yönet ici</w>
yok luğu</w>
yaz ılım
yaz ma</w>
yat ıştır
yarış tı</w>
yardım lar</w>
yarat abilir</w>
yar ın</w>
yar arı</w>
yapıl madı</w>
yaklaş ım
yakala dı</w>
ya cağına</w>
w or
uygulama lar</w>
ulaş ılması</w>
ul uğunu</w>
tut uldu</w>
turnuv anın</w>
toprağ a</w>
toplum unu</w>
tep e</w>
temsilc ilerini</w>
temin at</w>
temel ini</w>
tele com</w>
tedarik çisi</w>
tatbi katı</w>
tartış ması</w>
taraf sız
tan ış
talep lerinin</w>
takım ını</w>
tak sit
tab ana</w>
sür ek
sözc ülerinden</w>
suçlu larının</w>
sund uğunu</w>
stratej ide</w>
sorum suz</w>
soru ları</w>
sivil leri</w>
sek izi</w>
sefer ler</w>
se bze</w>
savun mak</w>
sat ılan</w>
san ık
s ına</w>
röporta j</w>
resm î</w>
rehber lik</w>
re da</w>
rapor larını</w>
raf a</w>
qu e</w>
propag anda</w>
prag matik</w>
popü lar
piş ir
pay ını</w>
pat laması</w>
pat lamada</w>
p üs
p e</w>
oyn am
otur umu</w>
on ia</w>
olay larından</w>
olan lara</w>
ola k</w>
n y</w>
n ing</w>
müş tür</w>
müzis yen</w>
mey eceğine</w>
mesa fe
memlek et
mega watt</w>
me m</w>
mam ıza</w>
makam ı</w>
mac ıların</w>
ma nda</w>
ma mıştı</w>
m iz</w>
lo m</w>
kışkırt ıcı</w>
kırık lığını</w>
kural ların</w>
kullanıl mak</w>
kullan acak</w>
kr al
koy ması</w>
konu lara</w>
konsoli d
ko yarak</w>
kir lilik</w>
kesim de</w>
kararl ılıkla</w>
karar larının</w>
kanıt lan
kan al</w>
kampanyas ına</w>
kampan yasında</w>
k ılan</w>
k tan</w>
işver enler</w>
iş lerinin</w>
izn iyle</w>
iz deki</w>
iyimser lik</w>
iyileştir meler</w>
iti ci</w>
istis mar
indir mek</w>
in tik
in al
imza lamaya</w>
imkân sız</w>
ilkes ini</w>
ilk esi</w>
il irken</w>
ik li</w>
ihtiyac ını</w>
ihracat ını</w>
ifade ler</w>
iddi aların</w>
ic in</w>
hüc re
heyec an</w>
hazır laması</w>
harc anan</w>
hak aret
güney doğusundaki</w>
göz altı</w>
göster ide</w>
gönder mesi</w>
gönder ilmesi</w>
grup lardan</w>
gra fik</w>
gide ceğini</w>
gid ilmesi</w>
geçir en</w>
gelen ek</w>
gazet eler</w>
fiyat lara</w>
fin ale</w>
etk iye</w>
et memiz</w>
erdir en</w>
er eceği</w>
engel in</w>
enerj inin</w>
en je</w>
eleştir menler</w>
eleştir ileri</w>
ef ina</w>
ede mez</w>
ebil ecekler</w>
düz eye</w>
durum day
doğru landı</w>
diğ imizi</w>
diz el</w>
dil en
dik lerinde</w>
di re
değin en</w>
devlet ini</w>
destekle yenler</w>
dava larında</w>
büyü mesinin</w>
bütç eden</w>
bür o</w>
bölge lerin</w>
bu s</w>
bro ş
bor sa
beklen iyordu</w>
becer isini</w>
başkent te</w>
baş bakanının</w>
bask ıyı</w>
barış a</w>
bar ik
açıkla mıştı</w>
ayr ılma
at om</w>
at lama</w>
aras ındaydı</w>
ar al
anlaş masında</w>
anlaş malarını</w>
anket inde</w>
anayas asına</w>
an ti
an lama</w>
an g
amac ımız</w>
alın masının</w>
alın acağı</w>
ak ışı</w>
ak ıb
ada daki</w>
ad ası</w>
acağ ımız</w>
abil meleri</w>
Zv on
West er
Vet on</w>
Vecern je</w>
U lemek</w>
T ug
Stein berg</w>
Ste ven</w>
Sen ato</w>
Sali h</w>
R ing
Pask alya</w>
P DP</w>
On ay
O ğ
Nich ol
N TV</w>
Mısır lı</w>
Müz esinde</w>
Mo bile</w>
Mil etiç</w>
ME P</w>
M eden
M Y
Lut ovska</w>
Lefkoş a</w>
L ou
[...]
